▁t 100
▁f 100
en 100
▁w 100
▁i 100
▁e 100
gp 100
er 100
fo 100
di 100
▁a 100
gt 100
▁u 100
▁s 100
ch 100
▁o 100
▁d 100
fs 100
▁g 100
ej 100
▁b 100
in 100
▁c 100
▁m 100
▁h 100
▁th 100
▁j 100
▁k 100
▁n 100
▁x 100
▁v 100
▁y 100
nd 100
kg 100
jf 100
▁p 100
es 100
▁l 100
jo 100
kp 100
at 100
st 100
▁the 100
ou 100
re 100
an 100
on 100
tu 100
▁wp 100
as 100
is 100
it 100
▁di 100
ll 100
ie 100
oe 100
vg 100
▁in 100
cu 100
bt 100
ich 100
or 100
ar 100
uf 100
kej 100
jdi 100
uv 100
ig 100
ng 100
▁ejf 100
▁fkg 100
▁and 100
cp 100
ing 100
jt 100
ft 100
mm 100
▁fjo 100
▁gkp 100
gk 100
▁ein 100
▁to 100
te 100
fj 100
▁und 100
le 100
▁of 100
nn 100
kt 100
ir 100
ct 100
▁wpf 100
▁voe 100
gu 100
bo 100
▁r 100
▁z 100
al 100
▁ß 100
▁à 100
▁be 100
qp 100
▁die 100
wp 100
em 100
ut 100
us 100
▁we 100
▁das 100
▁fcu 100
▁ebt 100
ot 100
js 100
▁q 100
om 100
▁it 100
ur 100
bs 100
et 100
ed 100
▁that 100
vt 100
ion 100
oo 100
ent 100
▁ha 100
oh 100
vgp 100
▁kp 100
▁" 100
▁àw 100
▁wir 100
▁you 100
▁xjs 100
▁ykt 100
uej 100
▁sie 100
▁tjf 100
▁ukg 100
fn 100
▁so 100
fg 100
igp 100
▁ßv 100
ufo 100
▁cw 100
el 100
▁wh 100
▁der 100
▁efs 100
▁fgt 100
ere 100
▁es 100
ow 100
cv 100
▁ft 100
ic 100
▁ich 100
▁jdi 100
▁kej 100
ra 100
▁- 100
▁jo 100
▁se 100
▁zu 100
ve 100
kv 100
▁gu 100
ug 100
fjo 100
ro 100
▁is 100
hfo 100
hr 100
▁ist 100
▁kuv 100
▁jtu 100
bu 100
ju 100
fgt 100
cw 100
qt 100
▁an 100
il 100
fm 100
se 100
im 100
▁re 100
▁ver 100
de 100
icht 100
gkp 100
kejv 100
po 100
fgp 100
ber 100
▁gt 100
▁er 100
ach 100
▁ig 100
bm 100
▁cp 100
kgt 100
▁un 100
bdi 100
cej 100
ier 100
lich 100
ben 100
jdiu 100
cfo 100
jfs 100
▁st 100
▁me 100
dgp 100
sch 100
ind 100
▁-- 100
cfs 100
▁was 100
ten 100
ter 100
dgt 100
▁al 100
sp 100
am 100
▁cn 100
go 100
▁on 100
ke 100
▁wfs 100
▁xgt 100
vgt 100
all 100
mjdi 100
▁dies 100
▁ejft 100
hf 100
▁this 100
voh 100
ol 100
cn 100
ef 100
ung 100
wt 100
▁fs 100
bv 100
ge 100
ay 100
iv 100
pp 100
▁cf 100
▁sch 100
▁1 100
▁den 100
den 100
▁efo 100
▁fgp 100
wpi 100
mt 100
be 100
gen 100
gn 100
un 100
nkej 100
▁dg 100
ht 100
▁tdi 100
▁uej 100
▁hf 100
efo 100
ugp 100
▁all 100
op 100
▁tp 100
▁for 100
▁als 100
fu 100
um 100
tdi 100
āt 100
ür 100
▁ib 100
▁ge 100
ck 100
▁von 100
▁le 100
▁wpo 100
▁nicht 100
▁pkejv 100
▁xqp 100
ld 100
uch 100
▁ne 100
and 100
ce 100
▁eine 100
▁dass 100
▁ebtt 100
▁fjof 100
▁gkpg 100
ku 100
fju 100
▁uq 100
ver 100
▁bo 100
jh 100
▁fcuu 100
vu 100
ation 100
▁do 100
▁cwh 100
▁auf 100
▁bvg 100
dl 100
▁– 100
▁ojdiu 100
▁pro 100
▁mit 100
▁wo 100
▁bmt 100
▁cnu 100
▁sp 100
▁man 100
ci 100
efs 100
▁okv 100
vk 100
▁nju 100
der 100
▁jc 100
ps 100
co 100
tfo 100
ess 100
th 100
và 100
ann 100
cpp 100
▁he 100
ugt 100
▁xjf 100
▁ykg 100
▁ug 100
▁they 100
▁wie 100
ýs 100
▁ab 100
ine 100
est 100
mf 100
ill 100
enn 100
gkv 100
▁gp 100
vs 100
▁ch 100
jp 100
ist 100
oefs 100
gpp 100
tq 100
ith 100
▁war 100
boo 100
cf 100
▁vot 100
▁sa 100
sen 100
00 100
▁uns 100
▁mo 100
▁ar 100
hn 100
▁are 100
jpo 100
ly 100
ifo 100
bn 100
foo 100
ally 100
jgp 100
hen 100
ff 100
kpf 100
isch 100
▁im 100
▁with 100
jtdi 100
og 100
joe 100
▁xbs 100
▁ko 100
▁yct 100
ki 100
▁2 100
ers 100
▁what 100
▁have 100
▁tjdi 100
▁sich 100
▁ukej 100
▁ng 100
ell 100
▁li 100
sf 100
▁but 100
▁uv 100
▁wor 100
ern 100
id 100
aus 100
▁can 100
ýcfs 100
ādgt 100
über 100
qn 100
▁as 100
la 100
▁ocp 100
▁sh 100
kuej 100
bh 100
▁nbo 100
we 100
▁tf 100
▁us 100
jn 100
▁aus 100
io 100
ust 100
." 100
vdi 100
▁bvt 100
▁fr 100
▁go 100
out 100
qu 100
▁fkgug 100
▁xbt 100
▁ycu 100
▁um 100
uvg 100
▁at 100
▁or 100
▁ex 100
kgn 100
kn 100
dg 100
▁sind 100
▁tjoe 100
▁ukpf 100
▁co 100
▁für 100
▁mf 100
▁ma 100
▁gýs 100
▁hāt 100
▁aber 100
▁vn 100
ant 100
▁bcfs 100
▁cdgt 100
boe 100
▁cwu 100
jm 100
▁haben 100
▁ibcfo 100
▁jcdgp 100
ik 100
lt 100
wo 100
▁ygpp 100
▁wenn 100
▁xfoo 100
▁da 100
tg 100
▁kö 100
▁lø 100
▁mú 100
lu 100
▁if 100
vy 100
▁eb 100
▁there 100
fso 100
▁hat 100
▁ges 100
ome 100
ab 100
▁not 100
▁about 100
▁ýcfs 100
▁ādgt 100
pg 100
bis 100
cjt 100
ould 100
▁über 100
▁ibu 100
▁jcv 100
▁igu 100
kqp 100
▁en 100
▁te 100
▁wer 100
mmf 100
▁des 100
▁also 100
▁hft 100
▁tq 100
▁tu 100
ze 100
▁ygt 100
▁xfs 100
pt 100
vn 100
tuf 100
ctu 100
▁jis 100
▁kjt 100
▁könn 100
▁múpp 100
▁ur 100
▁lp 100
▁fou 100
▁ejftf 100
▁diese 100
▁vie 100
▁dem 100
ahr 100
▁fc 100
▁my 100
▁de 100
▁nfjo 100
▁ogkp 100
und 100
art 100
jl 100
sb 100
her 100
▁tr 100
jfm 100
▁pe 100
▁gr 100
ad 100
▁no 100
fe 100
▁vor 100
hgp 100
he 100
▁jn 100
ese 100
▁con 100
gw 100
ight 100
mv 100
▁one 100
wu 100
mmfo 100
nngp 100
▁ygk 100
tw 100
qej 100
os 100
çp 100
▁efn 100
cpf 100
ßfo 100
▁ct 100
km 100
▁tg 100
▁fgo 100
ph 100
▁bs 100
▁peop 100
vo 100
ufs 100
▁people 100
▁ent 100
ive 100
▁kn 100
▁up 100
▁qsp 100
▁rtq 100
uvgp 100
▁her 100
▁fu 100
▁lg 100
▁bec 100
ate 100
▁com 100
ink 100
▁sf 100
▁men 100
▁tfjo 100
▁ugkp 100
igen 100
pdi 100
▁am 100
▁eft 100
▁fgu 100
oofo 100
if 100
▁from 100
etz 100
▁like 100
ity 100
ies 100
gfo 100
ein 100
ort 100
▁xqt 100
oufs 100
dv 100
gtp 100
end 100
▁nfo 100
▁ogp 100
▁ta 100
jhfo 100
▁bmtp 100
▁cnuq 100
▁wpu 100
ejgp 100
▁ev 100
ah 100
cm 100
▁dgk 100
▁wps 100
▁einen 100
▁fjofo 100
▁gkpgp 100
ste 100
oogp 100
nnfo 100
▁now 100
au 100
▁ht 100
▁xp 100
du 100
▁nach 100
▁obdi 100
▁pcej 100
iu 100
mmen 100
ble 100
▁og 100
▁gen 100
tufo 100
▁our 100
kgtgp 100
▁mq 100
▁just 100
▁these 100
▁get 100
▁pl 100
▁out 100
▁ze 100
ßf 100
▁können 100
▁løoofo 100
▁múppgp 100
▁wpugt 100
▁votfs 100
▁hier 100
▁ijfs 100
▁jkgt 100
ause 100
per 100
fmu 100
ign 100
voe 100
jfsfo 100
▁know 100
ook 100
▁yq 100
▁cnng 100
fjm 100
▁them 100
uejgp 100
▁mach 100
▁inter 100
àw 100
▁oder 100
▁pefs 100
▁qfgt 100
ygk 100
fuß 100
difo 100
vuf 100
kigp 100
▁mensch 100
▁nfotdi 100
▁thing 100
ast 100
ieren 100
▁werden 100
▁xfsefo 100
▁ygtfgp 100
jw 100
ute 100
▁sein 100
▁kbis 100
▁lcjt 100
ted 100
jg 100
▁when 100
kgp 100
oug 100
▁pr 100
ip 100
▁because 100
iert 100
ear 100
▁ygn 100
▁hs 100
kgtv 100
ang 100
▁ihn 100
▁jio 100
▁kjp 100
▁fkgu 100
ick 100
▁nf 100
ass 100
▁very 100
sef 100
iz 100
▁dar 100
wpigp 100
▁3 100
men 100
▁br 100
▁think 100
ne 100
▁xkgn 100
jfsu 100
▁who 100
lle 100
ul 100
▁how 100
igt 100
▁boefs 100
▁cpfgt 100
▁nbdi 100
▁ocej 100
cvkqp 100
ko 100
▁kann 100
▁mcpp 100
▁mein 100
for 100
▁kind 100
▁by 100
▁bmm 100
xf 100
ite 100
▁lboo 100
▁einer 100
▁fjofs 100
▁gkpgt 100
▁jgt 100
▁ifs 100
eren 100
▁see 100
▁some 100
ien 100
▁ste 100
000 100
cigp 100
one 100
▁cfj 100
▁auch 100
▁bvdi 100
▁cwej 100
aft 100
ibt 100
ige 100
▁dgu 100
jv 100
chen 100
wn 100
bvt 100
uß 100
▁comp 100
ag 100
bujpo 100
▁xv 100
▁ihr 100
zen 100
bgu 100
wv 100
▁einem 100
▁fjofn 100
▁gkpgo 100
to 100
▁going 100
vohfo 100
▁dann 100
▁ßx 100
▁eboo 100
▁fcpp 100
ftt 100
▁ever 100
▁cs 100
uejch 100
▁sehr 100
▁tfis 100
▁ugjt 100
àgp 100
▁lm 100
hu 100
▁ebs 100
▁fct 100
▁su 100
▁will 100
▁your 100
ät 100
olog 100
▁which 100
jfo 100
ßv 100
▁tim 100
▁ob 100
▁nur 100
ank 100
▁etw 100
▁here 100
ild 100
▁year 100
▁fux 100
▁gvy 100
ain 100
▁had 100
▁wird 100
▁xjse 100
▁yktf 100
▁more 100
jhf 100
ungen 100
ame 100
jcu 100
āem 100
ýdl 100
ert 100
ap 100
▁ovs 100
▁pwt 100
▁per 100
▁ik 100
▁qu 100
▁fe 100
▁mus 100
of 100
▁wpvgt 100
qo 100
▁ok 100
cwu 100
▁look 100
pl 100
reat 100
▁hfo 100
▁igp 100
ous 100
▁unter 100
▁gs 100
kig 100
ide 100
jtdifo 100
lfo 100
ischen 100
schaft 100
▁menschen 100
▁nfotdifo 100
▁ogpuejgp 100
hv 100
sten 100
▁fst 100
▁mqp 100
▁mich 100
urch 100
▁kon 100
len 100
▁would 100
▁ih 100
pn 100
▁dt 100
ard 100
mgp 100
▁pg 100
kx 100
▁fa 100
itt 100
▁njdi 100
▁okej 100
▁bes 100
▁19 100
▁leben 100
▁mfcfo 100
▁ngdgp 100
▁fra 100
▁really 100
▁ihnen 100
▁jiofo 100
▁kjpgp 100
ood 100
vsdi 100
wtej 100
▁gibt 100
▁hjcu 100
▁ikdv 100
qv 100
▁their 100
▁stu 100
chn 100
kuejgp 100
wvg 100
jttfo 100
äch 100
ådi 100
çej 100
issen 100
kuugp 100
▁world 100
ding 100
?" 100
▁lfjo 100
▁mgkp 100
▁hftdi 100
▁iguej 100
ren 100
are 100
ru 100
▁gesch 100
wej 100
▁wjf 100
▁tb 100
▁wur 100
gm 100
▁ywt 100
iten 100
su 100
▁vt 100
▁then 100
▁work 100
age 100
▁were 100
åu 100
▁tuf 100
▁uvg 100
ouf 100
cd 100
▁xf 100
je 100
fl 100
tr 100
hal 100
▁jahr 100
ibm 100
▁5 100
änd 100
▁vg 100
ack 100
ib 100
jmm 100
▁welt 100
cs 100
our 100
ans 100
▁vo 100
▁way 100
vàv 100
▁sehen 100
▁tfifo 100
▁ugjgp 100
▁20 100
▁voufs 100
àg 100
▁hm 100
fjufo 100
▁every 100
ment 100
▁jed 100
qtv 100
▁noch 100
▁opdi 100
▁pqej 100
▁has 100
▁xfmu 100
jdl 100
ise 100
hing 100
▁dieser 100
▁ejftfs 100
▁fkgugt 100
ken 100
ück 100
llen 100
kem 100
▁ro 100
uc 100
mmer 100
▁etwas 100
▁fuxbt 100
▁gvycu 100
fst 100
▁bn 100
omet 100
▁durch 100
▁evsdi 100
▁fwtej 100
vkqp 100
▁ke 100
ater 100
▁actu 100
▁bei 100
lf 100
dt 100
▁mö 100
▁nø 100
▁oú 100
▁gro 100
fgtp 100
ound 100
hh 100
lo 100
▁don 100
qá 100
dgk 100
▁lo 100
▁ihre 100
▁time 100
mg 100
▁hsp 100
lp 100
lie 100
▁oth 100
▁sy 100
▁mir 100
▁habe 100
▁ibcf 100
▁jcdg 100
ough 100
▁wjfm 100
▁bu 100
ions 100
cr 100
blem 100
▁actually 100
▁bra 100
ong 100
▁mehr 100
dy 100
▁nfis 100
▁ogjt 100
▁cm 100
alk 100
oogt 100
nnfs 100
▁say 100
igh 100
çv 100
▁ide 100
▁sel 100
▁okt 100
▁ygnv 100
tf 100
▁tbh 100
▁into 100
inn 100
▁xjttfo 100
▁ykuugp 100
▁wissen 100
jtu 100
▁zur 100
▁new 100
▁4 100
▁ßvs 100
▁àwt 100
lau 100
dn 100
▁tra 100
▁where 100
▁10 100
▁njs 100
ens 100
nge 100
▁bet 100
▁sagt 100
sel 100
▁problem 100
▁could 100
▁ph 100
qi 100
heit 100
gtu 100
cig 100
▁things 100
▁nvt 100
▁yg 100
▁alle 100
vnkej 100
zu 100
▁art 100
qq 100
▁techn 100
▁years 100
lichen 100
bvg 100
etzt 100
ische 100
▁itqá 100
▁beg 100
▁xý 100
rei 100
▁icp 100
jtdif 100
cht 100
▁want 100
▁gpv 100
▁other 100
stem 100
▁zwe 100
gkej 100
ial 100
▁hbo 100
▁yktm 100
▁wirk 100
sfo 100
▁hspà 100
▁somet 100
▁groß 100
fußu 100
sn 100
▁xjsl 100
út 100
▁bmmf 100
iel 100
jgt 100
own 100
yg 100
vol 100
bst 100
ple 100
▁kf 100
bl 100
inkej 100
▁zum 100
▁fir 100
▁ßvn 100
▁any 100
▁àwo 100
mmt 100
mal 100
liche 100
tdibgu 100
▁gan 100
nnu 100
lfju 100
mq 100
▁po 100
oun 100
▁xjslmjdi 100
▁yktmnkej 100
che 100
▁àygk 100
▁cft 100
▁part 100
fou 100
mu 100
▁got 100
▁xå 100
▁nat 100
qto 100
keit 100
▁mill 100
ifs 100
vgv 100
▁dr 100
▁she 100
joh 100
▁pc 100
▁kjtg 100
fjuf 100
kuejg 100
▁jisf 100
▁been 100
▁jkp 100
▁owu 100
▁wür 100
▁tfm 100
▁bl 100
▁yāt 100
▁uf 100
▁gý 100
▁hā 100
hcej 100
▁wä 100
▁yç 100
▁make 100
cwgp 100
▁happ 100
bvfo 100
boh 100
nbm 100
▁wirklich 100
▁einf 100
▁fjog 100
▁right 100
gf 100
▁ofv 100
▁ijo 100
ose 100
▁qm 100
jogp 100
▁mt 100
▁spe 100
rt 100
▁ogkpg 100
kpp 100
▁meine 100
▁nfjof 100
▁well 100
▁fü 100
▁diff 100
▁ub 100
kgng 100
▁said 100
info 100
ifju 100
sefo 100
▁weil 100
▁ygkn 100
▁xfjm 100
▁unser 100
btt 100
iter 100
chte 100
tt 100
åoefs 100
form 100
auf 100
kpi 100
▁ywtfg 100
▁xvsef 100
▁wurde 100
wer 100
üs 100
▁em 100
āu 100
▁nbdifo 100
▁ocejgp 100
▁machen 100
kr 100
▁ej 100
wpf 100
oufo 100
▁pgw 100
▁àgkv 100
▁fo 100
uvoh 100
▁need 100
▁dn 100
▁two 100
▁zeit 100
▁over 100
pu 100
ile 100
▁vers 100
hmjdi 100
tung 100
ory 100
▁lpo 100
▁bsc 100
fsf 100
▁igt 100
▁arbe 100
▁dieses 100
▁ejftft 100
▁fkgugu 100
ree 100
▁nun 100
çw 100
▁something 100
fmo 100
ia 100
▁pwp 100
jcn 100
ical 100
kuv 100
▁mar 100
fen 100
qr 100
▁ovo 100
me 100
ure 100
▁einfach 100
▁fjogbdi 100
▁gkphcej 100
▁qp 100
▁dgt 100
bttfo 100
cuugp 100
assen 100
äh 100
pc 100
gkn 100
pr 100
▁tun 100
▁kpvgt 100
jtf 100
▁kle 100
▁dis 100
ue 100
bg 100
vàgp 100
fr 100
▁uci 100
jtgp 100
diuf 100
isfo 100
▁fl 100
guu 100
▁mng 100
▁first 100
.. 100
▁pre 100
psu 100
bc 100
▁pers 100
dif 100
nf 100
able 100
▁bot 100
▁gem 100
diu 100
.000 100
▁find 100
ice 100
▁res 100
▁ný 100
stell 100
qm 100
▁200 100
▁hfx 100
▁ugnd 100
▁jnnfs 100
jgkv 100
▁igy 100
▁fkp 100
▁those 100
▁immer 100
▁koogt 100
▁lie 100
▁vwp 100
wpm 100
eln 100
▁viel 100
çt 100
jc 100
▁ßfju 100
▁cl 100
▁dam 100
▁bis 100
ange 100
▁gew 100
ejp 100
hhgp 100
▁cd 100
▁mjf 100
▁nkg 100
▁his 100
qnn 100
▁xfju 100
▁uvo 100
▁ejo 100
ges 100
▁cjt 100
cpi 100
pe 100
▁back 100
ak 100
▁cnn 100
▁than 100
▁hfm 100
tur 100
cuu 100
▁talk 100
elt 100
▁wpugtg 100
dit 100
▁qt 100
▁unsere 100
▁votfsf 100
▁dku 100
▁litt 100
joo 100
aten 100
▁call 100
ents 100
▁technolog 100
bmm 100
▁fw 100
xfs 100
ture 100
ejvg 100
▁little 100
āp 100
▁wfst 100
▁hfn 100
sh 100
ys 100
▁igo 100
vm 100
▁hin 100
cejv 100
jß 100
▁star 100
ss 100
ffen 100
gkvgp 100
▁even 100
▁jetzt 100
▁kfußu 100
▁lgvàv 100
fgo 100
ocn 100
▁cfh 100
qfs 100
ction 100
joefs 100
▁boh 100
▁ebn 100
ces 100
▁løo 100
▁most 100
gpv 100
▁ßfj 100
▁ßxfj 100
oov 100
▁ger 100
▁du 100
▁fco 100
▁hand 100
ath 100
erst 100
cent 100
cnn 100
▁ibuuf 100
▁much 100
▁jcvvg 100
▁lot 100
▁gut 100
ygt 100
br 100
▁hatte 100
qtu 100
ats 100
gan 100
▁life 100
erg 100
bdiu 100
▁system 100
▁gef 100
▁ag 100
▁ra 100
▁hfg 100
▁real 100
uejchv 100
ejg 100
▁lmfjo 100
▁mngkp 100
hā 100
▁thr 100
▁denn 100
▁xgtu 100
iß 100
▁imp 100
way 100
▁pa 100
▁ho 100
▁mn 100
mph 100
vel 100
▁6 100
ejv 100
▁uc 100
joefo 100
kpfgp 100
▁fgpp 100
rie 100
iger 100
▁xkgng 100
▁ls 100
▁tfmctu 100
▁selbst 100
▁ugnduv 100
ase 100
▁keine 100
▁lfjof 100
▁mgkpg 100
▁rt 100
imfo 100
jngp 100
▁vcv 100
als 100
uft 100
▁ac 100
▁fjhfo 100
▁gkigp 100
kà 100
▁tus 100
mo 100
fw 100
▁uvt 100
▁leute 100
▁mfvuf 100
▁ngwvg 100
fjà 100
mjdifo 100
▁hum 100
vgu 100
▁viele 100
bol 100
ttfo 100
▁diesem 100
▁ejftfn 100
▁fkgugo 100
▁wjfmf 100
uchen 100
▁müs 100
ri 100
cbs 100
... 100
▁oāu 100
ktion 100
▁pol 100
▁hfs 100
jpofo 100
▁only 100
hmen 100
▁efoo 100
xgt 100
▁gpvy 100
▁hn 100
tra 100
uejkg 100
▁igj 100
▁àgk 100
▁bsu 100
ale 100
ffe 100
▁zus 100
▁ßvt 100
aut 100
▁hel 100
ger 100
mjf 100
jdifo 100
▁indi 100
▁zwei 100
åoh 100
mjdif 100
cwh 100
▁geb 100
▁day 100
leich 100
▁tbhuf 100
▁cfs 100
▁ucivg 100
▁person 100
▁land 100
ated 100
▁gel 100
▁sagte 100
kpigp 100
▁sagen 100
▁tbhfo 100
▁ucigp 100
johfo 100
▁mal 100
dng 100
▁uejn 100
▁produ 100
▁mon 100
▁gth 100
ingen 100
▁rn 100
▁cjm 100
▁gra 100
". 100
schie 100
▁fkpig 100
▁dinge 100
▁ejohf 100
▁ejftfo 100
▁fkgugp 100
▁diesen 100
▁dkn 100
▁take 100
▁sol 100
▁good 100
uvs 100
tdijf 100
▁pass 100
jdiujh 100
bsu 100
▁ele 100
bar 100
▁off 100
▁hfi 100
vgn 100
jdiuf 100
▁design 100
▁soll 100
▁eines 100
▁fjoft 100
▁gkpgu 100
▁mkp 100
▁bin 100
▁kl 100
▁many 100
▁tpmm 100
▁uqnn 100
ely 100
isten 100
▁entw 100
▁pla 100
glich 100
ish 100
▁down 100
▁waren 100
▁xbsfo 100
▁yctgp 100
ts 100
other 100
▁show 100
▁ygkvgt 100
knn 100
cng 100
dct 100
▁teil 100
▁qb 100
ance 100
▁vgkn 100
▁geh 100
ful 100
▁xjfefs 100
▁ykgfgt 100
ichte 100
▁30 100
qg 100
▁did 100
▁wieder 100
▁let 100
erent 100
▁glau 100
▁hmbv 100
▁incw 100
▁alles 100
▁bmmft 100
▁cnngu 100
kigt 100
▁cjo 100
▁ufjm 100
hl 100
▁does 100
itu 100
▁medi 100
fgn 100
▁car 100
▁ir 100
▁50 100
ations 100
▁fre 100
▁jahren 100
▁kbisfo 100
▁lcjtgp 100
ágp 100
▁15 100
▁ctv 100
▁uqp 100
▁müssen 100
▁nýttfo 100
▁oāuugp 100
bou 100
▁jgw 100
wpiu 100
▁dkp 100
wpfgp 100
cmfn 100
fsu 100
act 100
▁verb 100
▁different 100
gs 100
▁ind 100
▁through 100
tern 100
▁op 100
", 100
cpm 100
▁8 100
urn 100
vh 100
▁andere 100
▁boefsf 100
▁cpfgtg 100
uvt 100
▁million 100
▁exper 100
ire 100
▁put 100
▁around 100
▁pcv 100
bnnfo 100
▁par 100
ds 100
flu 100
rv 100
zt 100
▁9 100
▁nie 100
xt 100
▁may 100
▁nbm 100
▁yātfg 100
▁ojf 100
▁joufs 100
▁pkg 100
▁7 100
ob 100
▁gsb 100
▁schw 100
▁ang 100
ence 100
▁xýsef 100
kommen 100
hfoe 100
kejvg 100
▁reg 100
hg 100
▁kein 100
▁ljoefs 100
ep 100
utdi 100
ammen 100
▁anderen 100
▁boefsfo 100
▁cpfgtgp 100
▁best 100
▁foux 100
çn 100
fgu 100
▁ben 100
mqoogp 100
▁dav 100
gr 100
▁100 100
ool 100
▁würde 100
ry 100
▁damit 100
▁ebnju 100
▁fcokv 100
▁comm 100
▁' 100
▁coun 100
lpnnfo 100
▁nor 100
▁fy 100
▁fun 100
▁tell 100
▁ocn 100
▁plan 100
är 100
▁str 100
▁gz 100
ahre 100
bohfo 100
cpigp 100
qd 100
▁àwuc 100
ngkejv 100
fgv 100
▁voh 100
▁tdix 100
▁ifsbvt 100
▁heraus 100
ors 100
▁ßvtbnnfo 100
▁àwucoogp 100
qnqi 100
cre 100
uen 100
▁hvu 100
hft 100
▁ad 100
▁rtqdng 100
▁zusammen 100
▁qspcmfn 100
jhfs 100
day 100
ichtig 100
mmfjdiu 100
tus 100
▁aut 100
lleicht 100
cess 100
oef 100
▁why 100
ität 100
acht 100
▁min 100
▁kb 100
▁fam 100
▁fg 100
fifo 100
▁vielleicht 100
▁wjfmmfjdiu 100
▁xkgnngkejv 100
efu 100
▁sm 100
▁use 100
nkejg 100
▁being 100
gend 100
▁big 100
▁tats 100
▁ubut 100
ungs 100
▁xfo 100
▁la 100
▁vcvu 100
btu 100
▁gl 100
ves 100
▁ygp 100
ought 100
▁pat 100
ary 100
▁wen 100
▁great 100
ons 100
▁cont 100
▁njmm 100
▁come 100
▁oknn 100
hs 100
kvçv 100
▁beh 100
nnv 100
pm 100
▁jgtcwu 100
pgp 100
▁hal 100
▁too 100
▁bas 100
▁met 100
▁xfjufs 100
▁igd 100
▁tuv 100
▁sim 100
dio 100
▁wfstvdi 100
uvgt 100
▁univ 100
auen 100
vki 100
▁fin 100
▁gf 100
bvn 100
àfo 100
foofo 100
mmu 100
voht 100
▁three 100
▁ày 100
ser 100
juåu 100
▁sur 100
king 100
▁fcx 100
ufu 100
▁dgi 100
kejvki 100
wpfgt 100
▁amer 100
▁iwv 100
its 100
gppgp 100
än 100
cvgp 100
ower 100
ztu 100
▁app 100
ving 100
▁gtà 100
▁stat 100
▁zw 100
▁jahre 100
▁try 100
▁ctdgk 100
int 100
▁xfm 100
ennen 100
▁qs 100
▁geht 100
volu 100
▁eng 100
▁same 100
▁ja 100
▁jef 100
▁happen 100
wh 100
▁kr 100
▁uejy 100
ör 100
çpfgt 100
tel 100
▁ins 100
▁hfiu 100
▁igjv 100
▁kbisf 100
▁lcjtg 100
urkgn 100
bhfo 100
▁pos 100
jq 100
isu 100
ähr 100
cy 100
▁human 100
▁comput 100
arn 100
▁inn 100
▁wahr 100
▁kt 100
▁entwick 100
▁fouxjdl 100
▁gpvykem 100
▁start 100
▁inform 100
gmv 100
▁hmf 100
get 100
jbm 100
▁pu 100
▁fact 100
▁igug 100
llar 100
fjut 100
▁mom 100
cul 100
▁afr 100
jcnvgp 100
▁nøhmjdi 100
▁oúinkej 100
bdif 100
▁cr 100
▁doing 100
▁klein 100
▁weiter 100
▁xgtd 100
▁rel 100
ace 100
fsfo 100
▁kfg 100
ution 100
ibmufo 100
ject 100
▁sw 100
ås 100
cogp 100
nkejgp 100
bnfo 100
ßu 100
▁iø 100
halten 100
▁energ 100
▁ung 100
▁vgejp 100
▁wel 100
▁bc 100
▁child 100
ztufn 100
cejg 100
▁gleich 100
▁ingkej 100
zent 100
▁famil 100
▁kam 100
ting 100
▁einz 100
ism 100
▁tdim 100
tufs 100
kim 100
ict 100
öß 100
▁rc 100
wr 100
äng 100
▁liv 100
▁ep 100
vufo 100
▁own 100
▁heute 100
▁ifvuf 100
▁jgwvg 100
▁eq 100
cjn 100
ellen 100
ächlich 100
ådimjdi 100
çejnkej 100
▁oq 100
▁grund 100
▁ö 100
▁ø 100
▁gkpkig 100
fnkej 100
▁np 100
kqpgp 100
▁aft 100
▁ftgk 100
▁hsvoe 100
ler 100
ically 100
ics 100
cwo 100
▁igigp 100
▁gtm 100
isp 100
▁muss 100
ágt 100
▁nvtt 100
▁schon 100
▁uejqp 100
▁owuu 100
wvgp 100
▁js 100
▁mkpfgt 100
▁bit 100
ian 100
▁tdipo 100
ade 100
▁percent 100
▁form 100
hfm 100
ven 100
xfo 100
▁bm 100
▁ngvà 100
▁esfj 100
▁mfuß 100
▁hg 100
bim 100
▁fjoß 100
▁mboe 100
gnv 100
▁again 100
▁kom 100
▁icpà 100
wfs 100
▁ganz 100
çjt 100
▁hboß 100
body 100
▁dollar 100
▁àwtāem 100
▁ú 100
ev 100
tet 100
qs 100
ks 100
▁lpn 100
▁ßvsýdl 100
lm 100
▁lc 100
▁ebwp 100
blu 100
▁epsu 100
▁qbtt 100
ize 100
åi 100
▁ps 100
thing 100
▁nødiuf 100
▁fqtv 100
▁rcuu 100
▁after 100
▁einige 100
▁fjojhf 100
igd 100
▁hsø 100
▁itú 100
▁ear 100
▁oúejvg 100
▁organ 100
▁inst 100
▁csbv 100
▁long 100
imm 100
iss 100
gra 100
ßjf 100
▁erk 100
oufso 100
iden 100
▁el 100
▁intern 100
juuf 100
▁gegen 100
▁hfhfo 100
nden 100
▁called 100
con 100
▁möchte 100
llt 100
vgtp 100
▁igpcw 100
▁wr 100
▁hfobv 100
omen 100
▁end 100
▁konn 100
ucht 100
▁cfo 100
ls 100
wf 100
kpg 100
▁mqpp 100
▁genau 100
mer 100
ating 100
essen 100
vgkn 100
orn 100
jtq 100
▁drei 100
▁tdis 100
tfs 100
▁xgtn 100
mp 100
▁information 100
qhh 100
▁dtcw 100
▁tatsächlich 100
▁ubutådimjdi 100
▁vcvuçejnkej 100
▁kinder 100
▁countr 100
ckt 100
vkx 100
self 100
ious 100
▁ugk 100
▁bi 100
cngp 100
▁dgp 100
gnp 100
▁qd 100
▁fsg 100
▁made 100
fore 100
▁uejt 100
▁urkgn 100
les 100
cpfgn 100
àk 100
▁warum 100
▁xbsvn 100
▁macht 100
▁yctwo 100
▁wfsm 100
▁today 100
üt 100
▁zurück 100
▁igh 100
▁nbdiu 100
▁bere 100
▁ocejv 100
oefo 100
▁ßf 100
▁jot 100
▁kfe 100
▁eigen 100
mgkv 100
ün 100
▁cfus 100
▁dgvt 100
dlfo 100
yp 100
vor 100
gugp 100
▁abs 100
sche 100
▁letz 100
jnn 100
ygp 100
▁tqjfm 100
▁geschichte 100
▁hftdijdiuf 100
cwv 100
pro 100
qsp 100
bujpofo 100
cvkqpgp 100
▁iguejkejvg 100
ins 100
cial 100
cpv 100
▁last 100
▁bild 100
▁learn 100
▁far 100
iof 100
▁18 100
hren 100
oc 100
jfsuf 100
▁gkpà 100
jpg 100
▁fcxqp 100
▁quest 100
ica 100
zie 100
▁fall 100
▁davon 100
ehen 100
▁sci 100
teil 100
▁uß 100
tufifo 100
bvu 100
nfo 100
cfj 100
dgkv 100
emgp 100
▁buil 100
wor 100
angen 100
omjdi 100
▁dort 100
ogp 100
▁cfjtq 100
▁beisp 100
▁should 100
▁sc 100
▁ebwpo 100
," 100
▁bewe 100
wi 100
ho 100
ient 100
onkej 100
,000 100
hne 100
▁jem 100
▁kfn 100
▁lgo 100
ßen 100
▁verw 100
▁ogpuej 100
cfg 100
ftfo 100
åis 100
▁möglich 100
bef 100
▁größ 100
ön 100
▁hö 100
▁cfxf 100
▁urt 100
ichten 100
xp 100
▁bede 100
▁arbeit 100
▁import 100
▁cfef 100
▁dgfg 100
▁play 100
▁underst 100
esen 100
ßå 100
cvgt 100
▁pw 100
dent 100
inden 100
ition 100
bufs 100
kgtvg 100
ctv 100
gung 100
▁tqs 100
igpf 100
qnng 100
▁obu 100
▁efolfo 100
▁fgpmgp 100
bdiuf 100
▁woh 100
ved 100
▁zie 100
sfdifo 100
tgejgp 100
▁denken 100
ejfo 100
▁turn 100
ix 100
▁iboe 100
▁ncpf 100
ejh 100
uejn 100
oog 100
chten 100
xqt 100
ster 100
kejvgp 100
▁seine 100
▁thought 100
▁ugkpg 100
pku 100
▁dan 100
▁tfjof 100
zäh 100
▁hatten 100
▁ibuufo 100
▁jcvvgp 100
umjdi 100
jdiufo 100
▁him 100
▁ubh 100
wejgp 100
▁gener 100
▁qbbs 100
▁rcct 100
▁ef 100
▁creat 100
▁another 100
▁xjdiujh 100
▁ßjf 100
▁dguej 100
▁cftdi 100
▁feel 100
▁løoouf 100
▁múppvg 100
bmf 100
ational 100
bal 100
▁paar 100
▁hsøà 100
ierte 100
ogra 100
tuboe 100
▁darüber 100
▁ebsýcfs 100
▁fctādgt 100
bggfo 100
diop 100
mphjf 100
▁mean 100
igkeit 100
▁12 100
cejvg 100
jdiut 100
▁planet 100
▁its 100
jcnd 100
▁inv 100
▁ygi 100
bei 100
▁ser 100
qnqikg 100
▁lbn 100
▁joufsftt 100
uten 100
▁chin 100
ibmc 100
▁cour 100
▁könnte 100
▁ign 100
▁belie 100
▁gtuvg 100
irn 100
pgt 100
vtt 100
▁xfh 100
rechen 100
pq 100
affen 100
▁hmfjdi 100
▁ted 100
▁ä 100
cuv 100
▁natür 100
▁obuýs 100
▁pcvāt 100
▁glo 100
▁hfc 100
▁[ 100
ygkug 100
▁idea 100
▁xgtuvg 100
jof 100
hqto 100
▁weg 100
▁dknf 100
land 100
entlich 100
uss 100
▁thank 100
àkg 100
halb 100
voefo 100
schen 100
▁change 100
bufo 100
▁didn 100
▁before 100
▁dra 100
▁wfsc 100
ities 100
▁story 100
▁veränd 100
▁erf 100
nmjdi 100
▁40 100
▁wfsåoefs 100
bot 100
▁rem 100
▁verste 100
ible 100
▁lassen 100
▁mbttfo 100
▁ncuugp 100
▁ber 100
▁weiß 100
▁xfjà 100
▁still 100
▁gehen 100
▁hfifo 100
▁igjgp 100
vq 100
bhf 100
▁bvu 100
cpfgp 100
▁school 100
▁besch 100
▁important 100
wps 100
mmuf 100
▁power 100
lä 100
kte 100
mlich 100
qtgp 100
sw 100
ids 100
▁moment 100
reich 100
▁went 100
fmm 100
▁qfst 100
bdifo 100
wpmvkqp 100
jtv 100
ache 100
▁rgtu 100
▁xpmmfo 100
▁yqnngp 100
nnvg 100
▁wollen 100
jhlfju 100
▁werde 100
▁xfsef 100
▁ygtfg 100
ope 100
▁gsf 100
▁ter 100
oren 100
▁àkg 100
▁started 100
▁ask 100
cvà 100
çpfgtp 100
cken 100
▁cpig 100
kes 100
atz 100
cvg 100
▁htg 100
vußfo 100
▁ihren 100
▁jisfo 100
▁kjtgp 100
▁währ 100
▁computer 100
mfs 100
dr 100
mpt 100
▁ngk 100
isfoe 100
▁give 100
▁cjme 100
▁high 100
▁meiner 100
weise 100
xfjtf 100
▁jgk 100
▁nfjofs 100
▁ogkpgt 100
▁dgkurkgn 100
hfs 100
▁exam 100
▁ukejgt 100
ha 100
▁bou 100
ufjm 100
jkp 100
hgt 100
buß 100
fol 100
▁ogk 100
ty 100
▁never 100
▁sond 100
▁fil 100
hbs 100
▁lpnnfo 100
▁mqoogp 100
oefso 100
▁nfj 100
▁univers 100
ult 100
▁25 100
▁imag 100
▁found 100
▁ncp 100
ahl 100
▁jeder 100
▁kfefs 100
▁lgfgt 100
▁wpst 100
gkvu 100
àgw 100
jtgpf 100
▁gtàç 100
▁erzäh 100
▁fsßå 100
▁bill 100
▁sfh 100
anden 100
gar 100
ms 100
▁beispiel 100
▁bess 100
ital 100
cejgp 100
▁woll 100
bmfo 100
ility 100
▁während 100
▁xåisfoe 100
ugen 100
wpfg 100
▁fol 100
▁wurden 100
▁xvsefo 100
▁ywtfgp 100
▁bv 100
▁lsf 100
▁gvolu 100
▁cftt 100
▁better 100
▁schn 100
▁fstuf 100
▁beginn 100
▁hwpmvkqp 100
▁xqtu 100
▁fsx 100
▁yqt 100
▁tre 100
▁sicher 100
▁tjdifs 100
▁polit 100
für 100
▁fcàw 100
▁dguugt 100
▁ebßv 100
schein 100
▁lang 100
▁sen 100
utdibgu 100
▁interess 100
vv 100
utzen 100
▁wa 100
▁xb 100
▁course 100
▁jshfoe 100
▁yçjtgpf 100
ugn 100
uejkgfgp 100
▁sort 100
▁ygká 100
gpm 100
ýo 100
vkuej 100
bsc 100
az 100
▁ebo 100
▁gab 100
▁nå 100
▁sta 100
ists 100
▁ofvf 100
▁uvk 100
▁kpvgtguu 100
▁mä 100
ather 100
fkgp 100
▁funktion 100
▁fcp 100
▁cfjtqjfm 100
çf 100
▁able 100
úp 100
mbv 100
▁vom 100
gpsn 100
▁dazu 100
schieden 100
tdijfefo 100
uvgo 100
▁dgyg 100
▁evol 100
pgv 100
▁might 100
▁brain 100
▁wichtig 100
▁icd 100
▁wpn 100
▁pgwg 100
ýim 100
▁xjmm 100
▁yknn 100
bhu 100
juu 100
▁ufdiop 100
▁gm 100
dig 100
▁oqp 100
▁next 100
▁ibm 100
▁hbc 100
▁num 100
kimgkv 100
cted 100
▁verl 100
cpfgt 100
vkigp 100
▁kommen 100
ikg 100
▁joe 100
▁erst 100
utz 100
▁tub 100
cpà 100
gnng 100
fer 100
uge 100
▁rtqdngo 100
difjo 100
▁char 100
ward 100
hjf 100
▁each 100
kf 100
▁xqo 100
▁kfnboe 100
▁sondern 100
▁tpoefso 100
▁uqpfgtp 100
ond 100
cor 100
difs 100
▁ans 100
▁hfijs 100
▁igjkt 100
ma 100
cvkx 100
▁lern 100
bujw 100
coo 100
▁ago 100
▁denke 100
▁efolf 100
▁fgpmg 100
▁ctdgkv 100
ider 100
▁nam 100
▁bus 100
▁mfj 100
tuå 100
▁dguv 100
▁wpugtgt 100
▁dat 100
▁trans 100
▁unserer 100
▁votfsfs 100
ced 100
uer 100
▁uqict 100
▁natürlich 100
▁obuýsmjdi 100
▁pcvātnkej 100
▁sogar 100
▁tphbs 100
rgp 100
▁technology 100
jlb 100
▁sl 100
iven 100
▁yçtg 100
▁help 100
▁wäre 100
▁toget 100
▁xåsf 100
pgjogp 100
▁together 100
ont 100
▁iå 100
ejgt 100
▁neue 100
anz 100
old 100
ugjgp 100
▁gemacht 100
▁ßxjtdifo 100
▁àykuejgp 100
ander 100
fjcfo 100
▁hfnbdiu 100
▁igocejv 100
ojt 100
▁tag 100
cond 100
▁cre 100
velop 100
▁zwischen 100
▁sk 100
▁fast 100
cwhgp 100
▁came 100
▁oft 100
▁natur 100
▁gvolujpo 100
▁wissenschaft 100
▁xjttfotdibgu 100
under 100
▁ngtp 100
▁vide 100
▁xgtuwej 100
up 100
iå 100
▁hfnfjo 100
▁igogkp 100
juf 100
▁mco 100
▁mor 100
▁denen 100
▁efofo 100
▁fgpgp 100
▁place 100
kc 100
▁gsbhf 100
▁htcig 100
rgt 100
xjs 100
▁water 100
▁mater 100
enden 100
▁four 100
▁glaube 100
▁hmbvcf 100
▁incwdg 100
ohn 100
▁phys 100
▁commun 100
rn 100
vuß 100
ßfou 100
▁act 100
akt 100
icp 100
▁bscfju 100
civ 100
▁frage 100
▁comple 100
▁number 100
els 100
wuu 100
bdiufo 100
▁ycuugt 100
▁gjoefo 100
▁hkpfgp 100
▁ohne 100
▁piof 100
▁qjpg 100
▁finden 100
stellen 100
▁kur 100
▁lea 100
▁develop 100
ween 100
cejvgp 100
▁hfsbef 100
▁gerade 100
▁igtcfg 100
alth 100
▁mat 100
eju 100
ative 100
▁doch 100
okv 100
▁epdi 100
▁fqej 100
cvv 100
ov 100
▁qpm 100
▁xbis 100
▁ycjt 100
▁fstufo 100
▁gtuvgp 100
▁näch 100
▁oådi 100
▁publ 100
▁pçej 100
▁ihrer 100
▁ersten 100
gýs 100
▁irgend 100
▁spie 100
▁fjonbm 100
ykt 100
▁hät 100
▁iåu 100
▁jçv 100
▁einmal 100
▁gkpocn 100
boß 100
▁joo 100
▁itwpf 100
▁kjtgt 100
▁jisfs 100
▁lebens 100
vqq 100
▁few 100
ngk 100
ppe 100
àgpv 100
▁ykejvki 100
vkig 100
boefs 100
qf 100
man 100
fü 100
ika 100
▁dk 100
arch 100
▁geben 100
▁hfcfo 100
▁igdgp 100
ited 100
chv 100
▁oc 100
▁exp 100
▁xbttfs 100
rg 100
▁letzten 100
▁mfußufo 100
▁ngvàvgp 100
qvu 100
buf 100
▁between 100
rtq 100
▁weit 100
▁lar 100
▁son 100
▁vci 100
hrt 100
▁bog 100
fsofo 100
▁cons 100
kgtwpi 100
▁incre 100
nehmen 100
▁second 100
iness 100
▁nichts 100
din 100
▁fch 100
▁gehirn 100
▁jeff 100
▁blu 100
jfsvoh 100
▁interest 100
▁used 100
▁stra 100
vgnn 100
▁zeigen 100
▁ßfjhfo 100
▁àgkigp 100
▁internet 100
▁lö 100
▁yc 100
achen 100
▁ojdiut 100
los 100
▁small 100
hfg 100
▁mø 100
▁nú 100
ierung 100
ional 100
▁pkejvu 100
▁gtuv 100
▁inte 100
▁eing 100
gel 100
jho 100
▁rqn 100
▁point 100
▁dafür 100
▁ebgýs 100
▁fchāt 100
efn 100
▁gty 100
ifn 100
unkt 100
▁dach 100
alt 100
jgo 100
diufo 100
ied 100
ßfv 100
çj 100
▁old 100
▁prozent 100
▁stre 100
▁würden 100
▁xýsefo 100
▁yātfgp 100
dern 100
ationen 100
▁kommt 100
▁60 100
anted 100
▁lpnnu 100
▁mqoov 100
ized 100
hfcfo 100
igdgp 100
▁question 100
▁cftu 100
▁hkp 100
▁stand 100
▁tw 100
▁light 100
▁def 100
so 100
▁looking 100
gv 100
▁bew 100
▁qspßfou 100
▁rtqàgpv 100
▁grow 100
▁done 100
arbe 100
▁mtg 100
▁global 100
▁erw 100
chhgp 100
keiten 100
▁maybe 100
ail 100
cnv 100
kmc 100
▁gemein 100
lfjufo 100
ift 100
▁uqn 100
ngm 100
▁verstehen 100
▁wfstufifo 100
▁xgtuvgjgp 100
▁mqor 100
▁children 100
▁å 100
ded 100
dem 100
kejgp 100
▁rest 100
▁understand 100
mit 100
▁cell 100
▁mark 100
▁ru 100
jekt 100
▁kre 100
▁dire 100
tschaft 100
nb 100
read 100
▁bct 100
hfifo 100
igjgp 100
útgp 100
▁auß 100
▁bvà 100
▁xkgt 100
▁passiert 100
▁qbttjfsu 100
▁rcuukgtv 100
äft 100
oney 100
▁live 100
▁wasser 100
att 100
▁qspev 100
▁wfscs 100
▁xgtdt 100
df 100
▁kfgg 100
▁okay 100
▁schl 100
juv 100
▁oct 100
▁tgk 100
bvgfo 100
▁rtqfw 100
ably 100
qigp 100
▁love 100
▁data 100
▁whole 100
▁wfstdijfefo 100
▁xgtuejkgfgp 100
▁verschieden 100
▁studi 100
ways 100
▁mil 100
▁cur 100
ejvgp 100
▁doesn 100
▁sieht 100
▁tjfiu 100
▁ukgjv 100
vi 100
iø 100
ac 100
zeit 100
▁erste 100
conom 100
▁tdiof 100
vers 100
▁tpm 100
fsvoh 100
uu 100
▁dre 100
▁fctcp 100
▁nfjtufo 100
▁ogkuvgp 100
rh 100
ystem 100
▁ebsbo 100
▁uejpg 100
▁vielen 100
▁wjfmfo 100
▁xkgngp 100
▁gpsn 100
▁daran 100
ingt 100
tro 100
ember 100
▁— 100
the 100
wvgt 100
▁cfg 100
▁vier 100
▁lpoouf 100
▁mqppvg 100
iboe 100
cß 100
ore 100
pos 100
▁rv 100
▁cor 100
▁millionen 100
▁njmmjpofo 100
▁oknnkqpgp 100
xjf 100
▁konnte 100
▁example 100
jwfst 100
ykg 100
▁mind 100
▁mfcfot 100
nis 100
▁mwt 100
▁ander 100
gvgp 100
▁prob 100
äs 100
▁econom 100
lung 100
bsl 100
ßjo 100
ikan 100
▁lvs 100
▁okp 100
ijo 100
kmcp 100
wpmv 100
str 100
▁80 100
▁vir 100
hm 100
erung 100
▁199 100
▁cjp 100
▁mut 100
cher 100
gest 100
uejgk 100
▁such 100
gý 100
fshjf 100
▁less 100
bz 100
des 100
fußfo 100
immt 100
bisfo 100
cjtgp 100
▁haus 100
jlbo 100
fstu 100
selves 100
▁building 100
gtikg 100
▁ganze 100
▁hboßf 100
▁icpàg 100
kh 100
ionen 100
▁ngdgpu 100
▁gre 100
elle 100
▁dpn 100
▁wanted 100
▁ibvt 100
▁health 100
▁arch 100
▁progra 100
▁idee 100
▁ebufo 100
▁fcvgp 100
▁hfme 100
▁care 100
▁fstu 100
▁ignf 100
▁fcdgk 100
▁stellen 100
▁tufmmfo 100
▁uvgnngp 100
▁ebcfj 100
▁nehmen 100
▁ofinfo 100
▁pgjogp 100
▁gb 100
▁material 100
koo 100
▁dabei 100
øo 100
tufmmfo 100
▁mot 100
tdifo 100
▁book 100
gtv 100
▁na 100
▁tbhu 100
▁uciv 100
ines 100
▁mag 100
▁pic 100
ahren 100
▁geld 100
tre 100
▁njo 100
▁pres 100
▁foutdi 100
vid 100
▁hqn 100
▁colle 100
cnvgp 100
qtf 100
▁jq 100
cept 100
▁anf 100
ings 100
▁video 100
▁jemand 100
▁dgm 100
▁anim 100
kvv 100
gnngp 100
unden 100
▁große 100
▁hspàf 100
▁itqág 100
pf 100
jnnu 100
▁wjfs 100
▁project 100
wnv 100
allen 100
▁cph 100
▁eig 100
▁etwa 100
▁five 100
▁fuxb 100
▁gvyc 100
▁lpou 100
▁har 100
▁mbo 100
ement 100
buu 100
▁mp 100
▁women 100
▁je 100
▁könnten 100
▁løooufo 100
▁múppvgp 100
spe 100
▁wpkx 100
uvgnngp 100
▁trying 100
▁stru 100
ßjbm 100
▁neu 100
geben 100
▁dgpw 100
▁poss 100
ets 100
ross 100
ühl 100
▁dp 100
▁gpm 100
jtdifs 100
▁zeigt 100
ates 100
yq 100
etzen 100
▁bscfjufo 100
▁ctdgkvgp 100
mfl 100
▁tv 100
fjtu 100
▁ktigpf 100
▁experim 100
▁11 100
▁kpu 100
atch 100
▁bek 100
▁effe 100
▁glück 100
▁hmýdl 100
▁ināem 100
cwd 100
wir 100
ggfo 100
▁hqto 100
▁times 100
gfs 100
psfo 100
▁dec 100
fjufu 100
lbo 100
iwpi 100
▁gar 100
▁spra 100
▁daten 100
▁arbeiten 100
fufo 100
▁jcw 100
▁hund 100
▁àkgonkej 100
▁ogf 100
bq 100
▁qfstpo 100
▁rgtuqp 100
gef 100
▁money 100
▁working 100
emjdi 100
▁besser 100
▁tpmmuf 100
▁uqnnvg 100
ives 100
▁vis 100
▁mboh 100
▁space 100
▁tkejv 100
▁kids 100
uejt 100
fttfo 100
▁rncp 100
▁cfttfs 100
▁away 100
▁reas 100
▁sing 100
kun 100
kppgp 100
sam 100
▁cam 100
▁jogpsn 100
▁htcwgp 100
▁everything 100
hä 100
raft 100
anken 100
▁frauen 100
▁gsbvfo 100
▁ziemlich 100
▁ßjfnmjdi 100
jb 100
zin 100
▁always 100
▁believe 100
▁vojwfst 100
nen 100
▁gkigpvnkej 100
cular 100
▁open 100
▁chang 100
▁kphqto 100
finfo 100
▁uvct 100
▁sollte 100
▁schnell 100
licher 100
▁sollten 100
▁tpmmufo 100
▁uqnnvgp 100
cnu 100
▁ow 100
bi 100
▁bre 100
bojt 100
▁sign 100
▁tdiofmm 100
▁raum 100
▁country 100
joofo 100
▁qmbo 100
▁uejw 100
çpf 100
▁npo 100
cal 100
▁welche 100
▁hä 100
▁xfmdif 100
▁ygnejg 100
mvoh 100
▁ged 100
▁htcigp 100
nder 100
ischer 100
▁fragen 100
▁gsbhfo 100
▁/ 100
vdl 100
útv 100
kuejgt 100
▁meisten 100
ftw 100
▁gjo 100
▁xps 100
▁food 100
hlen 100
kgtg 100
▁ejs 100
▁fkt 100
iar 100
▁xpmmuf 100
▁yqnnvg 100
▁uejpgnn 100
áv 100
igy 100
isen 100
▁tqsfdifo 100
▁urtgejgp 100
agt 100
ngigp 100
urt 100
▁sprechen 100
▁math 100
tun 100
▁using 100
▁tztufn 100
▁lab 100
▁beste 100
gkpnkej 100
ßfju 100
▁bekommen 100
▁cflpnnfo 100
▁dgmqoogp 100
▁cfx 100
▁soz 100
off 100
▁wollte 100
▁jú 100
jtfo 100
▁kör 100
▁løs 100
▁nfjofo 100
▁ogkpgp 100
stand 100
▁darauf 100
▁ebsbvg 100
▁meinen 100
igu 100
kpiv 100
▁dguvg 100
▁teach 100
▁fctcwh 100
mmbs 100
▁fn 100
▁mútr 100
mwp 100
▁cap 100
▁hvuf 100
▁iwvg 100
▁wfstdi 100
▁ip 100
▁rich 100
emv 100
vogu 100
▁igf 100
▁pra 100
▁prof 100
vie 100
▁kor 100
jfsf 100
bolfo 100
cpmgp 100
qnnct 100
▁ging 100
▁versch 100
▁ßvl 100
▁hist 100
çu 100
jtuej 100
▁ipdi 100
▁jqej 100
▁meinem 100
▁nfjofn 100
▁ogkpgo 100
ág 100
ga 100
▁dgj 100
aufen 100
sehen 100
▁igjktp 100
nvt 100
▁mjo 100
▁nfej 100
hsb 100
▁cwv 100
istdifjo 100
asch 100
▁experien 100
cpu 100
▁cle 100
schied 100
dq 100
vern 100
unter 100
▁eqor 100
▁fssf 100
▁gttg 100
▁xgtçpfgt 100
▁under 100
▁hfijso 100
▁sbvn 100
ograph 100
▁kleinen 100
▁lmfjofo 100
▁mngkpgp 100
cts 100
jef 100
▁wpkxgtu 100
jd 100
kvvg 100
▁bnfs 100
▁cogt 100
gtuv 100
▁air 100
▁jgn 100
▁kun 100
▁nvu 100
kfg 100
▁ende 100
▁wpstuf 100
stru 100
bmt 100
mvwt 100
▁nkp 100
▁16 100
▁ifm 100
▁bedeute 100
▁cfefvuf 100
▁dgfgwvg 100
hvoh 100
▁hoch 100
▁col 100
bmu 100
xboe 100
▁cent 100
▁earth 100
▁joufso 100
jnv 100
▁oå 100
ustr 100
▁psh 100
legen 100
istdifjomjdi 100
jtuejgkpnkej 100
ych 100
cmjdi 100
▁took 100
hb 100
kgdgp 100
▁set 100
▁cwágt 100
cke 100
uvcpf 100
▁tfju 100
▁thinking 100
annt 100
▁ugkv 100
led 100
▁pop 100
▁hjoh 100
kunft 100
▁bvàfs 100
▁voufstdijf 100
▁wpvgtuejkg 100
çh 100
mgt 100
ork 100
▁nfu 100
▁ikpi 100
▁tfj 100
wvkqp 100
qpfgt 100
▁must 100
▁energy 100
▁außer 100
▁jcpf 100
▁future 100
▁walk 100
öt 100
▁pç 100
▁wpin 100
▁conne 100
▁arm 100
▁home 100
ört 100
▁china 100
▁means 100
▁ipg 100
poefs 100
▁create 100
▁dpnqvu 100
▁wfsxfo 100
▁xgtygp 100
mö 100
fuu 100
jçp 100
wpvgt 100
▁bab 100
▁uvc 100
▁interesting 100
▁bil 100
▁gpfg 100
▁hard 100
▁eigentlich 100
▁fjhfoumjdi 100
jhu 100
▁cvdi 100
eter 100
▁sin 100
▁rtql 100
▁xvoefs 100
▁ywpfgt 100
vir 100
▁hāph 100
gkdgp 100
▁fofshjf 100
▁ange 100
▁seit 100
bnjm 100
▁neur 100
▁gpgtikg 100
▁weniger 100
▁xfojhfs 100
▁ygpkigt 100
▁typ 100
jfcfo 100
scheinlich 100
▁nb 100
cokn 100
cover 100
▁tdiv 100
wie 100
▁bef 100
▁dwej 100
▁ighā 100
▁left 100
ktiv 100
▁dq 100
▁dgy 100
▁compan 100
▁schle 100
evoh 100
fjof 100
▁qticp 100
50 100
▁quite 100
▁ufdiopmphjf 100
▁vgejpqnqikg 100
ount 100
▁bgs 100
▁cht 100
▁become 100
▁glauben 100
▁hmbvcfo 100
▁incwdgp 100
çjp 100
tp 100
zo 100
▁los 100
▁elect 100
▁enough 100
▁eur 100
▁fqnnct 100
▁lgocpf 100
▁rct 100
▁foef 100
▁epmmbs 100
▁process 100
øs 100
▁expl 100
reiben 100
▁innov 100
▁90 100
▁bohf 100
▁mfsofo 100
▁ngtpgp 100
cer 100
pgg 100
▁buch 100
▁ejt 100
▁erinn 100
▁fsjoo 100
▁gtkpp 100
▁wunder 100
▁technologie 100
ågu 100
fwpi 100
iend 100
kgtvgp 100
ogt 100
▁ant 100
▁net 100
▁energie 100
kvà 100
vyqtv 100
▁comes 100
▁patient 100
bung 100
cppv 100
cvoh 100
ukejv 100
zlich 100
àgk 100
▁schu 100
ändern 100
åoefso 100
▁tqf 100
ention 100
jwf 100
eten 100
▁biolog 100
▁ganzen 100
▁hboßfo 100
▁icpàgp 100
▁probably 100
▁owv 100
▁chr 100
▁ljoe 100
▁govern 100
▁grou 100
▁half 100
▁sache 100
▁tbdif 100
▁ucejg 100
rum 100
press 100
▁jeden 100
▁kfefo 100
▁lgfgp 100
▁14 100
▁npn 100
▁oqo 100
ments 100
qtigp 100
▁qspk 100
▁uejng 100
▁fjot 100
▁says 100
▁sense 100
▁versuch 100
kip 100
mwphv 100
▁film 100
▁getting 100
jgu 100
▁phot 100
▁bedeutet 100
▁cfefvufu 100
▁dgfgwvgv 100
▁cý 100
jpot 100
▁spiel 100
▁großen 100
▁hspàfo 100
▁itqágp 100
▁xbistdifjomjdi 100
▁ycjtuejgkpnkej 100
gpà 100
▁heiß 100
▁ifjà 100
dlu 100
▁pcogp 100
▁social 100
▁bringen 100
▁csjohfo 100
▁dtkpigp 100
ouse 100
imu 100
ific 100
ierten 100
▁obnfo 100
▁hc 100
▁rep 100
▁read 100
▁må 100
▁without 100
vl 100
duc 100
cture 100
▁lernen 100
gte 100
▁kjo 100
▁uvwf 100
lly 100
▁ops 100
▁gbnjm 100
▁hcokn 100
çvgt 100
▁komple 100
▁mqorng 100
mn 100
åufs 100
▁jin 100
pnnfo 100
▁face 100
▁science 100
kgu 100
ommen 100
vkm 100
▁bü 100
▁ihm 100
kgigp 100
▁tcwo 100
▁york 100
ertain 100
jfsufo 100
▁fk 100
cuej 100
▁hftu 100
▁mann 100
▁begann 100
▁cfhboo 100
▁dgicpp 100
▁friend 100
mme 100
▁gn 100
btdi 100
ican 100
ories 100
▁jedes 100
▁kfeft 100
▁lgfgu 100
nfs 100
ennt 100
▁ris 100
▁city 100
▁kleine 100
▁lmfjof 100
▁mngkpg 100
uejchvnkej 100
äter 100
▁eqorwvgt 100
tufmmu 100
▁unseren 100
▁votfsfo 100
▁wpugtgp 100
ýu 100
▁month 100
ofo 100
gppv 100
▁prote 100
▁making 100
ctg 100
erne 100
▁stuff 100
▁gesund 100
▁hftvoe 100
äu 100
▁htā 100
hkp 100
▁tgi 100
▁test 100
▁beaut 100
nde 100
▁bring 100
▁invest 100
ek 100
rü 100
woh 100
usst 100
blich 100
▁gýog 100
▁uqàk 100
▁tdimf 100
▁gesehen 100
▁hftfifo 100
▁igugjgp 100
▁individ 100
fra 100
▁sit 100
vfs 100
▁gjm 100
qoogp 100
▁ebdiuf 100
bra 100
▁hkn 100
▁fcejvg 100
▁wahrscheinlich 100
ctive 100
▁brauchen 100
▁csbvdifo 100
▁dtcwejgp 100
▁pie 100
▁chem 100
▁iguv 100
▁ihrem 100
▁jisfn 100
▁kjtgo 100
▁dachte 100
kgd 100
▁betra 100
▁løsqfs 100
øsu 100
vttu 100
iting 100
▁team 100
▁mútrgt 100
▁dollars 100
xps 100
gtg 100
ime 100
ließ 100
▁speci 100
▁recht 100
!" 100
▁voll 100
▁körper 100
let 100
▁hfe 100
▁nä 100
▁nps 100
▁val 100
han 100
sbgu 100
▁entsche 100
▁foutdifj 100
▁gpvuejgk 100
ium 100
owu 100
ches 100
ctdgk 100
▁talking 100
kq 100
▁vq 100
▁schön 100
▁normal 100
▁wfsn 100
▁tdiøo 100
zq 100
johu 100
▁fig 100
▁business 100
▁wpmm 100
esten 100
▁contro 100
▁eins 100
▁itāp 100
▁psych 100
xbs 100
▁ncpi 100
cjm 100
kvkqp 100
▁seite 100
▁tfjuf 100
▁ugkvg 100
▁wfstvdifo 100
▁xgtuwejgp 100
▁antw 100
hkpfgp 100
▁zukunft 100
▁ßvlvogu 100
▁versuchen 100
▁xfjtf 100
▁young 100
▁body 100
▁ygkug 100
cfv 100
wuuv 100
rop 100
▁cou 100
▁weise 100
▁mod 100
▁head 100
jtt 100
▁kar 100
ters 100
▁att 100
▁africa 100
▁happened 100
gew 100
itet 100
▁hil 100
▁top 100
▁eben 100
▁yktv 100
▁ijoufs 100
▁jkpvgt 100
▁wonder 100
▁htgk 100
achsen 100
bditfo 100
cejugp 100
▁archite 100
ppen 100
▁pggfo 100
▁qhhgp 100
fsof 100
ices 100
koov 100
▁fcfo 100
▁gdgp 100
af 100
com 100
▁ga 100
▁besond 100
hhgpvnkej 100
beu 100
xqn 100
emat 100
▁room 100
▁cftpoefs 100
iere 100
▁dguqpfgt 100
mmvoh 100
▁wirtschaft 100
▁xjsutdibgu 100
▁& 100
cj 100
▁side 100
ness 100
▁wind 100
llig 100
▁menge 100
▁nfohf 100
▁ogpig 100
ellschaft 100
fmmtdibgu 100
ngt 100
▁spr 100
xg 100
▁17 100
ator 100
▁ocpp 100
adt 100
▁frü 100
▁gsý 100
▁licht 100
▁njuuf 100
▁else 100
▁simple 100
▁tpßjbm 100
cnku 100
line 100
▁lan 100
▁coming 100
▁hinter 100
▁fal 100
▁gru 100
▁jkn 100
▁danke 100
▁ebolf 100
▁fcpmg 100
▁rq 100
viron 100
▁gftu 100
▁indem 100
▁joefn 100
▁kpfgo 100
vgvg 100
▁nkejv 100
do 100
▁au 100
▁kop 100
red 100
▁ijm 100
▁sjf 100
▁build 100
▁sound 100
stdi 100
ister 100
änder 100
▁ßfjhu 100
▁àgkiv 100
▁environ 100
▁prin 100
▁dpnqvufs 100
▁anything 100
▁ü 100
vànkej 100
çpp 100
▁hguv 100
▁unterschied 100
▁dcw 100
▁ict 100
bsufo 100
▁verg 100
nq 100
▁vtg 100
vdifo 100
▁seem 100
▁bar 100
▁six 100
▁tran 100
hmf 100
▁70 100
ined 100
▁fünf 100
▁nboo 100
▁wenig 100
▁xfojh 100
▁ygpki 100
ruck 100
▁absol 100
▁scient 100
▁unglau 100
▁vohmbv 100
voef 100
▁rgt 100
▁fest 100
▁gsfj 100
▁essen 100
▁fstdi 100
▁oknnk 100
▁àwmwphv 100
spq 100
tty 100
dition 100
jbs 100
▁qfs 100
▁deci 100
▁problems 100
▁mid 100
▁makes 100
▁pretty 100
voufs 100
▁dijo 100
▁ufe 100
ash 100
erse 100
▁lives 100
esearch 100
åvn 100
fall 100
▁ejkp 100
ird 100
▁xqnn 100
▁wpincwd 100
▁research 100
fern 100
▁hol 100
▁mkpf 100
ock 100
ycu 100
▁xj 100
inen 100
jtufo 100
▁amaz 100
gpu 100
▁mct 100
▁pot 100
▁educ 100
▁frau 100
▁popul 100
▁relig 100
▁uejygt 100
gpf 100
▁anz 100
▁opt 100
▁vgf 100
▁gest 100
atur 100
▁goes 100
cur 100
▁bch 100
▁ersch 100
▁198 100
▁beim 100
▁cfjn 100
▁dgko 100
qpgp 100
hfx 100
wnvwt 100
▁nbs 100
itive 100
▁mathemat 100
▁across 100
ever 100
▁nbh 100
▁tuå 100
▁nvtjl 100
ßvt 100
▁cfm 100
▁seen 100
▁fslm 100
▁fttfo 100
▁guugp 100
▁ovußfo 100
▁pwvàgp 100
▁owukm 100
▁nutzen 100
▁fot 100
▁itwr 100
nnf 100
▁bad 100
▁hsvqq 100
▁eftjho 100
kuvgp 100
▁vcig 100
▁mb 100
▁cftuf 100
jng 100
mjfà 100
▁urg 100
ßp 100
kten 100
where 100
▁gsbv 100
▁gtmn 100
▁keinen 100
▁lfjofo 100
▁living 100
▁mgkpgp 100
ctf 100
▁htcw 100
▁cul 100
▁entde 100
▁fouef 100
▁gpvfg 100
▁told 100
▁reason 100
▁seiner 100
▁tfjofs 100
▁ugkpgt 100
ual 100
▁once 100
▁allow 100
▁xgtuej 100
khh 100
mboe 100
iver 100
▁super 100
wpfj 100
▁yet 100
ately 100
erence 100
gnn 100
▁parti 100
ane 100
▁ey 100
▁tqåufs 100
▁urçvgt 100
mfy 100
cuug 100
xpsu 100
▁saw 100
▁gbtu 100
▁freund 100
▁soc 100
▁fcpm 100
kgh 100
▁dank 100
uejchvgp 100
ktur 100
▁insp 100
▁countries 100
▁voufso 100
xpim 100
▁extre 100
▁später 100
▁picture 100
inf 100
alen 100
▁che 100
▁hqv 100
▁qtv 100
▁wom 100
▁gute 100
▁rqnkv 100
▁gesagt 100
oú 100
bme 100
äum 100
▁ca 100
dle 100
upt 100
▁nw 100
▁tem 100
guugp 100
▁ebol 100
▁yk 100
▁link 100
▁hftbhu 100
▁iguciv 100
▁basically 100
jfh 100
▁situ 100
▁musik 100
▁eigenen 100
▁fjhfofo 100
▁gkigpgp 100
wohl 100
▁dig 100
▁hcuv 100
▁cwuig 100
▁qpmju 100
cnf 100
▁music 100
▁uejwn 100
▁oqogpv 100
befo 100
leben 100
▁foh 100
bes 100
▁iåuuf 100
▁jçvvg 100
▁ble 100
▁psu 100
itten 100
mmufo 100
▁oper 100
▁pqto 100
▁uvgt 100
▁vtq 100
▁cfsf 100
▁gpvykemn 100
hftdi 100
▁kurz 100
▁imagine 100
▁oh 100
▁ding 100
▁npnfou 100
ighā 100
vtci 100
▁cbv 100
▁kppgt 100
▁njmmjbs 100
votu 100
▁gir 100
tellt 100
▁ways 100
▁job 100
▁xpdi 100
▁yqej 100
denken 100
mfcfo 100
fgpmgp 100
▁mutter 100
kgá 100
▁gbm 100
▁ort 100
yn 100
▁13 100
▁unt 100
▁hour 100
▁electr 100
▁tie 100
▁particular 100
bttf 100
pwpi 100
▁case 100
▁dist 100
▁bvhfo 100
▁cwigp 100
▁hätte 100
▁mjdiu 100
▁socie 100
▁nvuufs 100
▁owvvgt 100
▁oknnkct 100
nah 100
ighçjt 100
gtgp 100
▁mwtà 100
▁ungef 100
▁vohfg 100
▁happens 100
▁ern 100
ismus 100
▁erde 100
▁fsef 100
▁gtfg 100
▁keep 100
▁lvsß 100
▁pcvwt 100
einander 100
by 100
ibv 100
▁jede 100
▁kfef 100
▁lgfg 100
▁augen 100
▁while 100
▁gtmnçt 100
▁family 100
▁milliar 100
ftu 100
asse 100
àgkv 100
▁del 100
▁verk 100
▁igugnn 100
ark 100
▁days 100
▁emot 100
▁level 100
▁perfe 100
ýuß 100
▁vcw 100
li 100
ization 100
▁tdibggfo 100
▁uejchhgp 100
▁experience 100
nnvgp 100
▁move 100
qit 100
▁anders 100
▁bla 100
quugp 100
cus 100
▁tdixfs 100
▁environment 100
▁ba 100
▁wpighçjt 100
▁cnngt 100
▁later 100
▁remember 100
▁vohfgåis 100
▁having 100
▁ungefähr 100
▁experiment 100
kng 100
wpuv 100
ßbim 100
▁bmmfs 100
▁supp 100
kvg 100
▁result 100
▁gesellschaft 100
▁hftfmmtdibgu 100
iges 100
▁fäh 100
▁evolution 100
eft 100
most 100
▁sor 100
wpmvu 100
reichen 100
unk 100
▁sjdiujh 100
jfc 100
▁gbmm 100
▁inside 100
▁ußuvgo 100
▁discover 100
isse 100
agen 100
▁gåi 100
▁hçj 100
ament 100
▁pain 100
▁schaffen 100
vef 100
▁fm 100
▁bio 100
▁cal 100
▁gtp 100
▁inc 100
▁ideas 100
bse 100
fot 100
▁iv 100
ling 100
▁sah 100
▁exist 100
ufen 100
▁hsý 100
▁gboe 100
stellung 100
tgp 100
bsuf 100
ünst 100
▁hcnn 100
▁oçpp 100
xqnwvkqp 100
ml 100
ala 100
▁männ 100
▁aller 100
▁asked 100
jtgt 100
▁verst 100
isfs 100
ýotu 100
volution 100
hgtp 100
▁eas 100
▁pgu 100
▁ykejv 100
gem 100
jcp 100
ants 100
▁201 100
▁bez 100
▁funktioniert 100
▁gvolujpojfsu 100
▁hwpmvkqpkgtv 100
āpuv 100
▁mass 100
▁mole 100
▁extra 100
vis 100
uejp 100
ether 100
▁billion 100
▁iguwpfj 100
▁gesundheit 100
ying 100
▁kul 100
▁lvm 100
imes 100
ality 100
ngdgp 100
juufo 100
▁itúá 100
▁xpim 100
▁watch 100
dkn 100
ßftt 100
ifjut 100
▁schul 100
jdiuvoh 100
▁xgtm 100
▁nbufs 100
▁ocvgt 100
▁tdibvfo 100
▁uejcwgp 100
▁grü 100
▁oci 100
▁qså 100
ngmvt 100
▁erfol 100
▁fsgpm 100
▁gthqn 100
▁institu 100
▁richtig 100
jog 100
bmjt 100
zeich 100
▁share 100
nng 100
▁fund 100
▁kunst 100
▁schauen 100
gal 100
▁21 100
cvwt 100
▁gtn 100
▁hbs 100
▁xgtuv 100
▁certain 100
vàg 100
▁ujf 100
▁allen 100
▁single 100
gku 100
hc 100
pw 100
ejf 100
mmun 100
▁hcn 100
▁sex 100
▁obuvs 100
▁hfgýim 100
▁probleme 100
▁qspcmfnf 100
▁rtqdngog 100
▁lq 100
fmmf 100
hrer 100
▁ass 100
▁complete 100
▁rh 100
jhft 100
▁cdu 100
▁ý 100
▁both 100
▁spielen 100
▁self 100
▁mwpuv 100
ew 100
▁ā 100
▁states 100
▁pq 100
ousand 100
▁bevor 100
▁langu 100
▁boefst 100
usbh 100
gesch 100
▁line 100
▁cpfgtu 100
▁schwier 100
▁tdixjfs 100
▁tqjfmfo 100
▁uejykgt 100
gflu 100
uvqhh 100
▁konnten 100
▁lpooufo 100
▁mqppvgp 100
ily 100
fort 100
àcjn 100
▁urkgngp 100
bvtfo 100
▁fgkp 100
▁fyqfs 100
▁gzrgt 100
nø 100
ßfvh 100
▁fsl 100
▁oce 100
▁answer 100
▁contin 100
hö 100
kcn 100
▁transp 100
▁pshbojt 100
▁qticpku 100
▁sou 100
▁hear 100
▁everybody 100
çnv 100
▁tbi 100
▁ucj 100
▁krie 100
▁miss 100
▁lvotu 100
▁tkejvki 100
▁erzählen 100
▁fsßåimfo 100
▁gtàçjngp 100
ente 100
▁pgwgp 100
kgi 100
och 100
▁hy 100
ugkp 100
bujfo 100
cvkgp 100
▁elekt 100
▁market 100
▁schwer 100
fjn 100
ßvg 100
kgágp 100
▁opsnbm 100
▁cost 100
▁neuen 100
▁ofvfo 100
▁uejúp 100
ner 100
▁gkpu 100
cjtwpi 100
nkejgt 100
okvvgn 100
ún 100
cfgp 100
mflus 100
▁history 100
▁projekt 100
mjdifs 100
▁almost 100
▁fmflus 100
▁gngmvt 100
▁mā 100
▁usb 100
▁uvw 100
bisvoh 100
▁thousand 100
wtu 100
cjngp 100
▁jung 100
▁bmmfo 100
▁cnngp 100
▁equ 100
▁name 100
▁genug 100
▁hfovh 100
▁ncpig 100
chs 100
ndg 100
sfj 100
▁ident 100
▁saying 100
▁incredi 100
phsb 100
qtuej 100
▁sure 100
▁igpwi 100
▁stadt 100
▁mwnvwt 100
anding 100
▁looks 100
▁ifmgfo 100
▁jgnhgp 100
▁jcwu 100
uvgnnv 100
cft 100
oth 100
▁kpf 100
▁helfen 100
▁1, 100
cngt 100
▁ideen 100
▁jeffo 100
▁kfggp 100
▁whether 100
▁dna 100
▁qhv 100
gehen 100
sfjdi 100
▁cfwps 100
▁dgxqt 100
uq 100
xbt 100
▁sb 100
vvgt 100
▁dise 100
▁nothing 100
▁national 100
▁mqt 100
iving 100
ready 100
▁wfsl 100
▁heart 100
▁treat 100
icu 100
ahlen 100
ofinfo 100
▁tuboe 100
▁red 100
itcoo 100
▁nature 100
▁within 100
quen 100
▁ukv 100
▁var 100
▁ygkv 100
ahrung 100
▁heißt 100
▁ifjàu 100
▁jgkáv 100
▁nächsten 100
▁oåditufo 100
▁pçejuvgp 100
▁universe 100
kiv 100
▁herz 100
▁bmu 100
▁sfm 100
▁already 100
ße 100
qvol 100
wpmvujpo 100
sc 100
qvv 100
▁kill 100
▁tubeu 100
oof 100
tju 100
▁lps 100
▁tot 100
▁kvoh 100
▁ju 100
▁jqhh 100
▁krank 100
▁mqpvt 100
▁mtcpm 100
aur 100
ejoh 100
gpse 100
jttf 100
▁usp 100
isches 100
jtdift 100
▁lsbol 100
▁study 100
▁guy 100
qtfgt 100
▁lange 100
▁wrong 100
må 100
▁196 100
juufm 100
àf 100
ged 100
▁beauti 100
▁herum 100
▁tdivm 100
haft 100
lock 100
▁gps 100
▁cancer 100
kuu 100
kvvgp 100
uring 100
▁liebe 100
▁mjfcf 100
▁nkgdg 100
was 100
▁uvcfv 100
kpà 100
▁bal 100
▁vol 100
▁wes 100
erein 100
ugvàgp 100
▁bvthf 100
▁cells 100
▁punkt 100
▁revolution 100
ape 100
mittel 100
ttu 100
ygnv 100
▁500 100
kl 100
jgg 100
▁cfn 100
▁ogv 100
▁lmbs 100
▁visu 100
▁mbohf 100
▁rw 100
cing 100
▁suc 100
cnkvçv 100
▁inner 100
▁kennen 100
▁lfoofo 100
▁mgppgp 100
iker 100
▁cjmefs 100
eg 100
▁nbodi 100
▁ocpej 100
▁bisschen 100
▁cjttdifo 100
▁dkuuejgp 100
ßr 100
itz 100
▁itúágt 100
▁» 100
jcw 100
jqn 100
▁win 100
▁priv 100
▁robo 100
▁possible 100
fte 100
▁24 100
vtus 100
▁fso 100
bimfo 100
▁true 100
joß 100
aren 100
fufs 100
▁alt 100
▁demo 100
▁phil 100
▁seinen 100
▁tfjofo 100
▁ugkpgp 100
▁unserem 100
▁votfsfn 100
▁wpugtgo 100
fin 100
guugt 100
ivity 100
▁fing 100
▁richt 100
lose 100
▁rea 100
▁xgty 100
▁student 100
▁überall 100
▁ýcfsbmm 100
▁ādgtcnn 100
ips 100
újp 100
▁dgo 100
dchen 100
edifo 100
▁anal 100
vgnngp 100
▁class 100
fouf 100
rieben 100
çfejgp 100
▁ifsvn 100
▁order 100
öhn 100
▁fas 100
▁speak 100
▁matter 100
zuf 100
jlfs 100
▁wohl 100
▁front 100
▁organis 100
zess 100
▁manch 100
mens 100
▁hqnigp 100
guf 100
ield 100
jfmf 100
▁yqjn 100
▁beha 100
▁darum 100
▁ebsvn 100
▁fctwo 100
bringen 100
vcp 100
gang 100
▁engl 100
▁mess 100
▁exact 100
▁lpnqm 100
mqp 100
utes 100
▁mic 100
entur 100
▁cpàw 100
▁hmpc 100
▁inqd 100
▁group 100
▁« 100
geb 100
▁tý 100
▁law 100
▁hope 100
▁defin 100
▁verbind 100
▁community 100
öl 100
▁pgy 100
▁wjef 100
▁xkfg 100
icpi 100
▁euch 100
▁fvdi 100
▁gwej 100
bmjuåu 100
▁public 100
hol 100
▁300 100
▁run 100
oefsu 100
ßfous 100
▁train 100
▁ufdio 100
▁manchmal 100
▁nbodinbm 100
▁ocpejocn 100
ivoh 100
▁bsn 100
▁tele 100
jwpfgt 100
ende 100
▁nah 100
fmmfo 100
wmvwt 100
tungen 100
▁green 100
▁amazing 100
▁beautiful 100
▁nv 100
llow 100
▁gor 100
▁liter 100
▁looked 100
fle 100
▁ak 100
ages 100
▁dngk 100
▁heard 100
▁often 100
fsw 100
▁nåoo 100
vst 100
▁sü 100
▁bed 100
vàwpi 100
▁gmjf 100
▁qmbofufo 100
▁rncpgvgp 100
tem 100
fluf 100
ifjufo 100
▁gkpig 100
▁sjdiu 100
ctor 100
jwpi 100
àguu 100
▁arten 100
▁bsufo 100
▁ctvgp 100
▁figure 100
jgkvgp 100
▁gkpàgn 100
▁leuten 100
▁mfvufo 100
▁ngwvgp 100
pect 100
▁vjg 100
▁hqtv 100
xå 100
▁tz 100
▁age 100
imate 100
▁nein 100
▁reden 100
▁sfefo 100
▁tgfgp 100
gmvg 100
▁ofjo 100
▁pgkp 100
halt 100
▁197 100
▁ibv 100
dents 100
▁mnct 100
gangen 100
hbohfo 100
heiten 100
icpigp 100
▁cbvfo 100
▁dcwgp 100
▁planeten 100
▁united 100
izt 100
▁exc 100
▁bauen 100
hin 100
▁sei 100
fggfo 100
uvgnn 100
àgpvt 100
xgp 100
▁gå 100
▁gmv 100
▁xvt 100
▁someone 100
cle 100
iuv 100
bvfs 100
unch 100
▁months 100
wogp 100
▁dev 100
▁usa 100
▁argu 100
▁milliarden 100
▁njmmjbsefo 100
▁oknnkctfgp 100
▁sub 100
▁gott 100
ases 100
äche 100
ådif 100
çejg 100
▁uif 100
▁dich 100
▁kontro 100
▁lpousp 100
ßfj 100
▁sat 100
▁zer 100
▁india 100
juß 100
kwo 100
igo 100
▁rj 100
▁wus 100
▁resp 100
▁mädchen 100
▁nåedifo 100
▁oçfejgp 100
min 100
▁ywu 100
▁ries 100
▁interes 100
▁jouf 100
kgjv 100
zieh 100
▁dgf 100
ýdlfo 100
▁uejwng 100
▁challen 100
▁gwt 100
▁hfu 100
▁yes 100
stead 100
▁built 100
▁tfdit 100
▁qbujfo 100
▁rcvkgp 100
ja 100
▁pay 100
▁engine 100
▁forsch 100
welt 100
▁god 100
▁government 100
nboe 100
▁mode 100
▁middle 100
▁uā 100
▁until 100
▁cogtkmcp 100
ral 100
ired 100
▁cra 100
▁ret 100
mfhfo 100
▁wert 100
pa 100
quu 100
utzt 100
ential 100
▁amerikan 100
▁bnfsjlbo 100
▁dā 100
▁jt 100
vngt 100
▁schule 100
▁tdivmf 100
jhlfjufo 100
▁instead 100
àkp 100
ship 100
▁ofx 100
fjofo 100
▁klar 100
cpfgnp 100
▁behand 100
▁cfiboe 100
▁verhalten 100
▁wfsibmufo 100
▁xgtjcnvgp 100
cjp 100
▁nu 100
ieht 100
▁myself 100
jfiu 100
▁hsb 100
▁piece 100
▁couple 100
▁sometimes 100
dp 100
gb 100
xjo 100
åsfo 100
▁tat 100
▁since 100
▁wicht 100
▁xgtgkp 100
lbn 100
ateg 100
āemgp 100
▁niem 100
pped 100
▁dāt 100
▁fant 100
▁pkgo 100
▁afrika 100
▁ojfnboe 100
hqn 100
jßu 100
▁stop 100
▁itqáct 100
▁ofoofo 100
▁pgppgp 100
▁großart 100
▁hspàbsu 100
▁kpvgtpgv 100
▁gpvykemnwpi 100
▁hpu 100
▁flie 100
oowp 100
vußu 100
▁bgsjlb 100
▁chtkmc 100
▁fgukip 100
igkeiten 100
ina 100
hboh 100
ritt 100
▁jour 100
▁sens 100
▁seinem 100
▁tfjofn 100
▁ugkpgo 100
▁dcu 100
▁hct 100
▁isn 100
▁lin 100
▁bewusst 100
▁cfxvttu 100
▁education 100
▁lý 100
▁tusb 100
ames 100
▁tgn 100
ücken 100
▁sechs 100
▁stories 100
▁geschichten 100
▁hftdijdiufo 100
▁iguejkejvgp 100
▁frei 100
▁gesam 100
▁hftbn 100
▁house 100
▁iguco 100
▁rwpmv 100
▁words 100
▁follow 100
▁qspkflu 100
▁xgtçpfgtp 100
cwp 100
xfmu 100
▁gtuej 100
▁qvolu 100
▁works 100
ok 100
▁sfj 100
▁ubu 100
▁liegt 100
▁mjfhu 100
▁nkgiv 100
▁state 100
▁entire 100
▁nennen 100
jmf 100
kvkx 100
▁night 100
▁gehört 100
▁dgtgkvu 100
kb 100
wou 100
▁sinn 100
mgkvgp 100
▁hfiøsu 100
▁igjútv 100
▁universum 100
▁vojwfstvn 100
▁kü 100
efou 100
▁dep 100
▁vtb 100
hsbnn 100
tjdiu 100
▁hfcå 100
▁ygtv 100
▁joejfo 100
▁kpfkgp 100
▁stehen 100
▁tufifo 100
▁uvgjgp 100
äd 100
gtm 100
kpgp 100
stra 100
▁ann 100
▁tool 100
▁entwickelt 100
esvdl 100
▁pcfs 100
▁qdgt 100
▁large 100
▁moral 100
▁schla 100
▁erfolg 100
▁profess 100
eah 100
ivg 100
▁dgn 100
▁wuc 100
gende 100
▁dgit 100
▁besonders 100
▁cftpoefst 100
▁dguqpfgtu 100
bttu 100
▁issu 100
▁mqrh 100
▁uejā 100
▁fsgpmh 100
▁modern 100
▁situation 100
hvg 100
res 100
▁bro 100
▁dgywuuv 100
▁joufsofu 100
▁somebody 100
▁fouxjdlfmu 100
▁gpvykemgnv 100
ones 100
ßfjdi 100
kuejgu 100
hand 100
▁cpu 100
▁ähn 100
▁çjp 100
jußfo 100
▁lpnq 100
▁xgtvt 100
era 100
cuuv 100
▁won 100
àgkej 100
▁gjmn 100
▁sagten 100
▁tbhufo 100
▁ucivgp 100
▁pçejuvg 100
▁tubu 100
▁decided 100
ony 100
vtu 100
win 100
▁wø 100
▁hor 100
▁uvcpf 100
▁indust 100
▁control 100
▁language 100
ibmu 100
ivil 100
▁past 100
joevoh 100
undert 100
▁wfsus 100
▁mother 100
▁places 100
ump 100
▁det 100
kpfwpi 100
▁uejgkp 100
▁anderes 100
▁boefsft 100
▁cpfgtgu 100
øu 100
▁qbs 100
▁botu 100
øi 100
▁aufs 100
▁bvgt 100
▁taking 100
np 100
fsl 100
▁ofuß 100
▁species 100
▁verändern 100
▁wfsåoefso 100
vgfo 100
▁meet 100
▁netz 100
▁pgvà 100
▁jahrh 100
▁model 100
▁kbisiv 100
▁schein 100
▁lcjtjwpfgt 100
▁àg 100
▁møt 100
ußuvgo 100
ror 100
dien 100
▁núu 100
gress 100
▁news 100
▁kpvgtguucp 100
▁unternehmen 100
▁voufsofinfo 100
▁wpvgtpgjogp 100
fmt 100
ots 100
▁wi 100
asst 100
kmgt 100
▁cir 100
▁hören 100
▁iøsfo 100
▁jútgp 100
▁ugeju 100
▁rather 100
foou 100
well 100
enten 100
▁gkpàkig 100
par 100
▁adv 100
liches 100
ußmjdi 100
▁micro 100
▁ill 100
▁mem 100
▁lpnn 100
▁prot 100
▁west 100
▁gebäu 100
▁igdçw 100
csjohfo 100
▁though 100
▁rtqlgmv 100
▁et 100
cwgt 100
▁namens 100
▁pcogpu 100
wje 100
gkvg 100
▁bom 100
▁tgu 100
ctions 100
▁quick 100
▁obnfot 100
▁ka 100
▁qr 100
▁non 100
▁qv 100
tkejv 100
jnnfo 100
▁mult 100
▁vnhf 100
▁tgign 100
ba 100
▁npef 100
▁object 100
kre 100
etic 100
▁opp 100
zeug 100
licht 100
▁kinds 100
▁deshalb 100
▁eftibmc 100
▁fgujcnd 100
▁society 100
▁informationen 100
▁jogpsnbujpofo 100
▁kphqtocvkqpgp 100
▁fle 100
▁mov 100
▁sft 100
schaften 100
fjmf 100
▁mpt 100
▁igpgt 100
▁joofs 100
▁wfsfjo 100
▁bereits 100
▁cfsfjut 100
▁exactly 100
od 100
ders 100
ührt 100
▁jçp 100
▁anst 100
▁online 100
kàkp 100
onen 100
▁ocv 100
ugvàv 100
▁complex 100
▁lös 100
▁cwvq 100
▁ober 100
ikgp 100
ýisu 100
▁betr 100
dtkpigp 100
wejv 100
fjufs 100
vkuejg 100
▁labor 100
▁extrem 100
fjoboefs 100
▁ourselves 100
face 100
side 100
forder 100
▁tgejv 100
▁jg 100
vdiu 100
▁cbt 100
▁ner 100
▁hfxp 100
▁lpqg 100
▁lu 100
endet 100
▁conf 100
▁dest 100
▁oben 100
▁pcfo 100
▁qdgp 100
▁cfovußfo 100
▁dgpwvàgp 100
tfifo 100
▁erklä 100
acter 100
▁kopf 100
▁antwort 100
▁njovufo 100
▁okpwvgp 100
▁benutzen 100
▁fssfjdifo 100
▁gttgkejgp 100
vkiv 100
▁nbu 100
imgkv 100
innen 100
▁joej 100
▁appro 100
▁company 100
▁minuten 100
▁completely 100
bnn 100
qem 100
usch 100
▁mer 100
▁sun 100
▁cfßjf 100
▁dgàkg 100
▁erreichen 100
ett 100
ibo 100
ker 100
ocp 100
mmjh 100
▁focus 100
▁hfofs 100
0, 100
ffn 100
zept 100
▁game 100
▁cpvyqtv 100
▁everyone 100
▁students 100
vc 100
pofo 100
uejg 100
ände 100
▁fly 100
▁htci 100
▁uvtc 100
glichen 100
cwt 100
qnq 100
sbu 100
▁wasn 100
▁behavi 100
▁itself 100
▁entfern 100
▁gpvhgtp 100
▁fq 100
igpfg 100
▁nvttuf 100
▁owuuvg 100
▁bouxpsu 100
zw 100
gebn 100
jcnv 100
▁ejdi 100
▁fkej 100
▁ster 100
▁ukpp 100
▁cmvkx 100
▁woman 100
▁behind 100
▁centur 100
▁halten 100
▁ibmufo 100
▁jcnvgp 100
▁minutes 100
▁verschiedene 100
▁wfstdijfefof 100
▁xgtuejkgfgpg 100
hfco 100
▁redu 100
▁elektr 100
qmt 100
heim 100
nnki 100
sfjt 100
vluvs 100
▁inspir 100
▁musste 100
▁nbdiuf 100
▁ocejvg 100
kimgkvgp 100
▁themselves 100
hfc 100
qvolu 100
▁darin 100
▁ebsjo 100
▁fctkp 100
▁sfdiu 100
▁machte 100
▁ufjmfo 100
▁vgkngp 100
wä 100
cog 100
ggo 100
qtfgp 100
▁coll 100
▁ansch 100
▁künst 100
▁lýotu 100
▁māpuv 100
▁fslfoofo 100
▁gtmgppgp 100
urs 100
▁blujw 100
▁tuýdl 100
▁uvāem 100
▁teilen 100
▁animals 100
lc 100
▁became 100
▁komplex 100
▁lpnqmfy 100
▁mqorngz 100
▁institut 100
wand 100
wpmm 100
▁ftg 100
▁ghh 100
▁flug 100
▁word 100
▁botdi 100
fsxfjtf 100
ßx 100
ush 100
chan 100
ßfqu 100
cmvgt 100
istan 100
▁bsdi 100
▁plbz 100
▁qmcß 100
▁repr 100
ability 100
▁hätten 100
▁indien 100
▁iåuufo 100
▁jçvvgp 100
▁erkennen 100
dlf 100
htg 100
voll 100
▁gbs 100
grund 100
▁familie 100
▁gbnjmjf 100
▁hcoknkg 100
▁vohmbvcmjdi 100
▁uw 100
▁bel 100
▁orig 100
▁xgtt 100
▁dgikpp 100
▁learned 100
uvā 100
itte 100
▁goog 100
▁happy 100
▁america 100
▁programm 100
▁generation 100
▁oil 100
▁bilder 100
▁success 100
alten 100
▁gets 100
▁dknfgt 100
ös 100
spr 100
▁hiv 100
ffent 100
▁deal 100
▁xfsu 100
åiomjdi 100
▁along 100
sjdiufo 100
▁innovation 100
▁aw 100
work 100
ively 100
obach 100
▁ctej 100
▁clear 100
▁gbmtdi 100
▁niemand 100
iqu 100
pre 100
ians 100
arten 100
fmf 100
▁auss 100
cpfgnv 100
richten 100
▁gefühl 100
▁ighājn 100
àgrv 100
mvkqp 100
▁gsbh 100
▁turns 100
▁cftujnn 100
bte 100
àgwi 100
icn 100
kam 100
▁cool 100
▁qizt 100
▁rjßu 100
▁offen 100
▁steht 100
▁øggfo 100
qog 100
ibvt 100
▁fort 100
▁cffjo 100
▁dggkp 100
▁tufiu 100
▁uvgjv 100
▁hsvqqf 100
▁itwrrg 100
▁ykuugpuejchv 100
kon 100
cogt 100
▁cho 100
▁eth 100
ption 100
▁wand 100
▁gruppe 100
amm 100
▁fis 100
chter 100
kommt 100
▁bott 100
▁jgtwo 100
▁xgtcp 100
▁okvvgn 100
▁úhhgpvnkej 100
cz 100
ijm 100
▁cv 100
vyqt 100
▁lwp 100
▁tjoo 100
▁voufst 100
hftufmmu 100
▁dguvkoo 100
bel 100
bnf 100
bss 100
▁cy 100
▁fä 100
trag 100
▁uqh 100
▁cfpc 100
▁tufs 100
▁uifn 100
▁gerne 100
▁hfsof 100
▁igtpg 100
▁created 100
▁dgqd 100
▁reich 100
▁shows 100
▁bscfjuf 100
▁systems 100
▁happening 100
ief 100
▁lå 100
tdio 100
▁cflbo 100
▁south 100
▁hw 100
▁box 100
▁deep 100
▁huge 100
▁kosten 100
▁lptufo 100
▁mquvgp 100
▁sozial 100
imf 100
usb 100
jofo 100
▁rot 100
▁syn 100
▁uzq 100
cppvg 100
icken 100
csbdiu 100
here 100
vgkp 100
▁dgkp 100
▁hkno 100
hfn 100
hcnn 100
asure 100
▁verm 100
▁black 100
▁third 100
▁braucht 100
▁csbvdiu 100
▁dtcwejv 100
▁einzige 100
▁fjoßjhf 100
boou 100
immen 100
▁ocean 100
▁disease 100
aun 100
oejh 100
▁nqu 100
iguej 100
kuowu 100
▁ones 100
▁vjgo 100
iously 100
itting 100
▁wpvgtu 100
▁natural 100
eld 100
iet 100
tqs 100
çtg 100
schn 100
▁ball 100
▁taus 100
▁beobach 100
huf 100
kcp 100
▁kpuv 100
▁radi 100
▁sand 100
ftware 100
▁xfmdi 100
▁ygnej 100
▁irgendwie 100
▁jshfoexjf 100
▁ktigpfykg 100
., 100
less 100
wards 100
▁gýis 100
▁hājt 100
nu 100
▁free 100
▁full 100
▁hours 100
▁schre 100
▁friends 100
▁nfejßjo 100
▁ogfkàkp 100
▁unglaublich 100
▁wpincwdnkej 100
cks 100
bild 100
qogp 100
▁400 100
▁gtj 100
bmufo 100
diufs 100
▁view 100
▁wall 100
▁center 100
▁medizin 100
jvn 100
weit 100
▁squ 100
boßfo 100
▁uvwpfgp 100
▁joofsibmc 100
▁kppgtjcnd 100
▁guys 100
▁tqdq 100
dtcejv 100
▁cpuej 100
▁fyqfsjn 100
▁gzrgtko 100
▁tuvoefo 100
▁innerhalb 100
▁uvcv 100
▁dguejt 100
▁stunden 100
▁möglichkeit 100
▁sil 100
▁listen 100
bin 100
hau 100
qqf 100
kigu 100
ctvgp 100
ortun 100
▁jotu 100
▁jedem 100
▁kfefn 100
▁lgfgo 100
▁unters 100
tdibgufo 100
▁cfxfhfo 100
▁qspevlu 100
▁tl 100
ford 100
mals 100
▁gzvt 100
efolfo 100
gestellt 100
▁nøhmjdilfju 100
▁oúinkejmgkv 100
▁nçp 100
▁yeah 100
igdpku 100
▁dir 100
▁lim 100
▁mcr 100
▁ple 100
ished 100
únmgt 100
▁bvtt 100
▁bvup 100
kgánkej 100
▁transform 100
haps 100
▁gjs 100
▁hkt 100
ource 100
uvsfo 100
▁knew 100
▁umge 100
▁early 100
▁digital 100
▁gesicht 100
▁nbufsjbm 100
▁gpvykemgnp 100
▁ce 100
fjcu 100
▁wegen 100
ließlich 100
mjfàmjdi 100
cpàgp 100
▁2000 100
▁baby 100
▁jgtà 100
▁expla 100
▁krebs 100
▁xfhfo 100
▁ygigp 100
▁perhaps 100
▁population 100
▁interessant 100
ngu 100
▁vi 100
▁gol 100
anzen 100
tures 100
cmvkqp 100
▁bemer 100
▁besten 100
▁cftufo 100
▁dguvgp 100
▁bestimm 100
▁opportun 100
▁jahrhundert 100
fcu 100
▁vö 100
▁xú 100
esch 100
▁obs 100
istic 100
▁führ 100
ßfvhfo 100
▁aktiv 100
▁field 100
▁dgygigp 100
▁ov 100
▁bau 100
▁igk 100
▁kap 100
▁sug 100
immer 100
zeugen 100
▁couldn 100
▁relation 100
die 100
qjn 100
▁kä 100
▁qg 100
▁bereich 100
▁dgtgkej 100
▁personal 100
▁igugnnuejchv 100
qpg 100
bsfo 100
▁rtç 100
▁area 100
▁igukejv 100
stu 100
iste 100
annte 100
jnnfs 100
▁auto 100
▁death 100
▁worked 100
bsf 100
▁serv 100
▁sjft 100
▁tkgu 100
▁entscheid 100
zy 100
hgn 100
▁emp 100
▁njl 100
ciåoh 100
mpttfo 100
ologie 100
▁pkgocpf 100
▁questions 100
omes 100
çuuv 100
▁150 100
▁kil 100
mqoov 100
▁lsfct 100
vkuejgp 100
ima 100
▁ifsß 100
▁stell 100
▁bewegung 100
juå 100
▁gave 100
▁lpot 100
▁others 100
▁bewegen 100
▁fantast 100
änger 100
▁shar 100
▁eight 100
▁impro 100
air 100
ene 100
war 100
iofo 100
iåmu 100
krat 100
ither 100
▁igvt 100
▁seven 100
▁jwpfgt 100
▁joufsfttb 100
▁$ 100
hle 100
åohfs 100
▁hfus 100
▁wpdg 100
▁recent 100
zdi 100
▁zuf 100
▁ßvg 100
▁usfggfo 100
▁vtghhgp 100
▁american 100
▁learning 100
▁ergebn 100
▁gpstdi 100
▁moving 100
åvt 100
ared 100
ibgu 100
lpnnu 100
▁takes 100
▁ygugp 100
▁fshfco 100
▁hqtuej 100
▁tbdifo 100
▁against 100
▁sprache 100
▁tqsbdif 100
▁urtcejg 100
cbsf 100
iken 100
xfsl 100
rwpmv 100
▁cpuv 100
▁cwuàw 100
▁beiden 100
▁cfjefo 100
▁dgkfgp 100
▁sachen 100
▁ucejgp 100
iguvgnnv 100
▁jgtcwuh 100
ub 100
▁1. 100
urtq 100
▁cut 100
dd 100
ctgp 100
▁cann 100
▁hājtgp 100
ustellen 100
▁entwickeln 100
▁fouxjdlfmo 100
ipm 100
ows 100
jlfo 100
dyqjn 100
▁iqvv 100
▁google 100
▁hfnfjot 100
▁software 100
cuf 100
pol 100
pgjo 100
hsvoe 100
▁lots 100
▁verschiedenen 100
▁wfstdijfefofo 100
▁xgtuejkgfgpgp 100
▁metho 100
▁gýisfo 100
qw 100
otz 100
hält 100
druck 100
▁eltern 100
▁führen 100
zip 100
fsou 100
ußej 100
ächt 100
▁wjs 100
▁xkt 100
▁hpuu 100
▁vater 100
▁wbufs 100
▁xcvgt 100
▁obwohl 100
▁pcxpim 100
▁qdyqjn 100
▁vorstellen 100
▁wpstufmmfo 100
▁xqtuvgnngp 100
ples 100
▁dtw 100
▁lbo 100
gpàgp 100
▁präs 100
▁sftu 100
▁tguv 100
▁invol 100
▁during 100
▁kindern 100
▁ljoefso 100
▁mkpfgtp 100
▁cfhjoofo 100
▁dgikppgp 100
▁tas 100
▁john 100
▁vocf 100
▁least 100
▁gpmhfo 100
▁entwicklung 100
ops 100
▁pck 100
▁tqfßjf 100
ßvtufmmfo 100
▁erhalten 100
▁fsibmufo 100
▁geschäft 100
▁gtjcnvgp 100
▁sfhjfsvoh 100
lam 100
ney 100
▁npu 100
▁rqu 100
▁tut 100
gkhgp 100
▁qbujfoufo 100
▁rcvkgpvgp 100
dgn 100
blufs 100
icult 100
ident 100
▁uejp 100
▁gnvgtp 100
yu 100
gre 100
ýtt 100
apan 100
nbmt 100
▁eff 100
▁treffen 100
▁difficult 100
▁verwenden 100
▁wfsxfoefo 100
▁xgtygpfgp 100
wø 100
lpo 100
guug 100
ilen 100
jfmu 100
▁igpg 100
▁erlau 100
▁fsmbv 100
▁kreat 100
▁einigen 100
▁fjojhfo 100
▁gkpkigp 100
▁gleiche 100
▁hmfjdif 100
▁ingkejg 100
▁machine 100
▁qspßftt 100
▁patienten 100
▁mik 100
cpufs 100
▁poor 100
tkejvgp 100
▁mittel 100
ante 100
fgnn 100
ocnu 100
stüt 100
ådiu 100
akter 100
ature 100
ifnbu 100
jgocv 100
ßjfsfo 100
▁wjefp 100
▁ykuugpuejch 100
▁fv 100
▁bir 100
▁xku 100
▁sage 100
▁century 100
▁finally 100
▁outside 100
▁åiomjdi 100
dly 100
bare 100
icdg 100
fjefo 100
▁xkfgq 100
mufso 100
▁dgtā 100
lossen 100
alax 100
xqnn 100
▁ult 100
▁wou 100
▁àkgn 100
▁uvcvv 100
inkejgp 100
▁stellt 100
▁tufmmu 100
▁uvgnnv 100
▁menschlichen 100
▁nfotdimjdifo 100
▁ogpuejnkejgp 100
iti 100
fuuf 100
▁erle 100
▁post 100
▁zehn 100
▁fstubv 100
▁erstaun 100
▁gtuvcwp 100
dis 100
▁obv 100
▁sud 100
▁hnwi 100
▁pcvkqp 100
▁joufsfttbou 100
jch 100
fgpv 100
kuug 100
ogen 100
▁bank 100
▁japan 100
▁mtgdu 100
▁nämlich 100
▁oånmjdi 100
▁pçonkej 100
▁wonderful 100
kor 100
▁cnv 100
jtnvt 100
▁ucig 100
▁wfsgý 100
▁xgthā 100
▁dor 100
itwpf 100
▁needs 100
▁north 100
▁short 100
▁persön 100
▁tgikgtwpi 100
▁35 100
inal 100
jcwrv 100
▁tbhf 100
lligen 100
▁dijob 100
▁ejkpc 100
▁qfstø 100
▁rgtuúp 100
▁uvtwmvwt 100
▁regierung 100
ckp 100
psl 100
vin 100
wgt 100
▁ach 100
▁ßqt 100
haupt 100
ändig 100
çpfki 100
▁unbe 100
▁wort 100
ingkej 100
▁obujpo 100
▁voufstu 100
stuf 100
ugpv 100
werk 100
▁tuåe 100
▁uvçf 100
▁daher 100
▁ebifs 100
▁fcjgt 100
▁direkt 100
▁verbess 100
▁wfscftt 100
▁xgtdguugt 100
fmuf 100
ýußfo 100
▁step 100
▁close 100
erweise 100
▁verein 100
ides 100
▁anw 100
▁pap 100
▁pick 100
▁woygnv 100
fki 100
hbm 100
kgv 100
fuufo 100
ibvqu 100
▁clos 100
bujpot 100
▁angst 100
▁galax 100
▁haupt 100
ffentlich 100
▁xqtuvgnn 100
gtt 100
nju 100
▁web 100
▁conc 100
▁enor 100
▁ygtm 100
àkgtgp 100
▁grand 100
▁ocvgtkcn 100
cps 100
ught 100
▁neg 100
▁zuv 100
anger 100
▁nwhv 100
▁stück 100
▁schwar 100
mb 100
atic 100
▁jow 100
▁gmvh 100
▁wfss 100
▁xfsl 100
▁image 100
▁media 100
▁qptju 100
▁bezieh 100
àwuvgnngp 100
▁behavior 100
vsf 100
bnfs 100
dies 100
gten 100
posed 100
▁gtàgw 100
▁wollten 100
▁xpmmufo 100
▁yqnnvgp 100
▁nbuifnbu 100
▁ocvjgocv 100
tfou 100
vefo 100
▁werk 100
▁bohtu 100
úu 100
nbo 100
äten 100
çvgp 100
▁pur 100
▁ejsflu 100
▁verbra 100
▁culture 100
▁gtigdpku 100
øt 100
pdl 100
dctg 100
▁pen 100
▁week 100
▁spend 100
▁damals 100
▁ebnbmt 100
▁fcocnu 100
▁pattern 100
▁absolute 100
▁beginnen 100
▁wpvgtuvā 100
▁unterstüt 100
çor 100
▁oā 100
▁reco 100
▁npshfo 100
▁oqtigp 100
▁thousands 100
bor 100
tub 100
gwgt 100
vent 100
vtusjf 100
▁verfü 100
▁chance 100
▁xqtjgt 100
view 100
punkt 100
▁ubvtfo 100
▁vcwugp 100
ofs 100
dnkm 100
▁bat 100
jfefo 100
▁lage 100
▁mbhf 100
▁ncig 100
▁ßjfm 100
▁david 100
▁recor 100
▁tdixbs 100
▁uejyct 100
▁igogkpu 100
▁powerful 100
völ 100
wøml 100
▁àgp 100
▁zpsl 100
▁cpiuv 100
▁gtuejch 100
▁igdçwfg 100
tum 100
ýoh 100
cmjl 100
cpfn 100
ordin 100
▁gfim 100
mmjhfo 100
▁masch 100
▁wpvgtuejkgfnkej 100
qpu 100
▁45 100
tete 100
▁san 100
▁okmt 100
▁ādgtt 100
▁street 100
▁gebäude 100
▁difference 100
dgu 100
fic 100
▁qj 100
kmgp 100
xguv 100
▁dad 100
qmtcv 100
qppgp 100
▁hgtp 100
▁qtzdi 100
▁tdifjo 100
▁ufdiopmph 100
sein 100
what 100
▁kid 100
igten 100
▁nbtdi 100
▁ocuej 100
▁taken 100
▁morgen 100
▁wpkxgtuwo 100
lic 100
oss 100
▁qdl 100
▁rhn 100
▁ugn 100
pggfo 100
▁fsmf 100
▁prim 100
▁àgjp 100
▁statt 100
▁ygnvy 100
cem 100
▁av 100
ison 100
▁plast 100
▁kommun 100
▁lpnnvo 100
▁mqoowp 100
▁oçppgt 100
▁present 100
▁versucht 100
▁wfstvdiu 100
▁xgtuwejv 100
how 100
ofu 100
ifen 100
▁tbv 100
cious 100
▁fehl 100
▁männer 100
▁nåoofs 100
igpqoogp 100
▁hfcåvef 100
eit 100
▁wt 100
este 100
çwog 100
jdlfo 100
pping 100
▁blue 100
bunden 100
cvoefo 100
▁rußej 100
schnitt 100
▁htgwpf 100
▁çpfgtp 100
▁whatever 100
ygtm 100
äume 100
åvnf 100
▁buy 100
▁low 100
▁qgm 100
▁ton 100
▁zent 100
▁hause 100
▁ibvtf 100
▁jcwug 100
▁yourself 100
▁schreiben 100
▁tdisfjcfo 100
▁uejtgkdgp 100
▁drug 100
▁gpin 100
evohfo 100
agn 100
urg 100
iben 100
jngt 100
ology 100
▁spez 100
▁bvghb 100
▁falls 100
▁gebra 100
▁robot 100
▁common 100
▁fktgmv 100
▁fmufso 100
lichkeit 100
àv 100
pvs 100
▁hof 100
▁pfl 100
▁sup 100
cting 100
▁aufga 100
▁ofcfo 100
▁pgdgp 100
▁fouxjdlmvoh 100
mvqt 100
▁20. 100
▁fern 100
▁xboe 100
fgpvgp 100
hājtgp 100
▁neben 100
▁parts 100
▁virus 100
hlt 100
oph 100
gppg 100
▁hfubo 100
▁brauch 100
▁turned 100
▁ändern 100
▁åoefso 100
▁nachdem 100
▁obdiefn 100
▁pcejfgo 100
▁überhaupt 100
bre 100
jor 100
qtg 100
▁dcd 100
▁esf 100
anten 100
ising 100
▁eyes 100
▁meer 100
▁getan 100
▁njlsp 100
▁reach 100
▁partic 100
▁ýcfsibvqu 100
▁ādgtjcwrv 100
csbv 100
▁foe 100
ering 100
▁fand 100
▁surpr 100
▁nächste 100
▁oådituf 100
▁perform 100
kü 100
▁ty 100
kgnv 100
kpiu 100
▁hcpf 100
nkejgu 100
▁solar 100
▁uspuß 100
ca 100
▁vú 100
▁cbc 100
▁tps 100
▁tru 100
lagen 100
tuåoe 100
▁dibs 100
▁kppq 100
▁luft 100
xúnmgt 100
▁terms 100
▁photograph 100
ards 100
kemgp 100
▁audi 100
▁ejct 100
verage 100
▁efnpl 100
▁hands 100
▁trotz 100
▁vtqvà 100
▁überr 100
▁måoefs 100
▁nçpfgt 100
▁fundament 100
ieg 100
jnvg 100
vvgp 100
▁oggt 100
uvohfo 100
zieren 100
▁break 100
▁igvcp 100
▁wider 100
▁seeing 100
▁vision 100
▁beginning 100
ufn 100
▁gjoh 100
▁cwhig 100
▁joopw 100
▁kppqx 100
▁sicht 100
▁gv 100
dtcw 100
▁gng 100
▁rei 100
▁sto 100
▁uvu 100
▁xpsu 100
▁given 100
▁ukejv 100
▁gleichen 100
▁hmfjdifo 100
▁ingkejgp 100
ging 100
orie 100
▁difn 100
▁länder 100
▁ngjtgt 100
▁spcpufs 100
▁tqdqvgt 100
cuvt 100
emgt 100
foof 100
ikum 100
▁hcu 100
▁vwv 100
▁ejgo 100
▁ýcfss 100
▁mfisfs 100
▁umwelt 100
idi 100
iou 100
▁çt 100
▁eher 100
▁fifs 100
▁gjgt 100
▁zwar 100
▁ßxbs 100
▁àyct 100
iziert 100
▁cannot 100
▁lehrer 100
cker 100
elte 100
psjf 100
▁njm 100
gmvkx 100
kgfgp 100
▁rtqh 100
hnçejg 100
▁cjuuf 100
▁dkvvg 100
▁local 100
▁anfang 100
▁ment 100
▁pgwt 100
▁kraft 100
▁milit 100
▁leiden 100
▁mfjefo 100
▁ngkfgp 100
cx 100
oms 100
▁uø 100
▁oqt 100
▁ukp 100
▁uejú 100
▁prozess 100
gjß 100
enne 100
fous 100
▁spa 100
▁easy 100
▁nffs 100
▁qspg 100
▁bitte 100
▁leave 100
▁ßxfjuf 100
▁communic 100
qbo 100
bggu 100
ielt 100
▁boo 100
▁okn 100
qhhgp 100
▁simp 100
▁yqtv 100
▁major 100
▁pract 100
▁tjdiu 100
▁rtqàguu 100
afft 100
jcwu 100
jwfo 100
ängt 100
gpfgp 100
ients 100
▁brit 100
mjfàfo 100
▁cwhàw 100
▁lsbgu 100
tuboefo 100
▁gsfvoe 100
▁ifsbvtgpse 100
jgk 100
baren 100
▁access 100
▁changed 100
▁verändert 100
lin 100
▁tö 100
ased 100
▁mcv 100
▁mob 100
▁cjmm 100
▁fish 100
tztufn 100
▁mechan 100
imp 100
qjs 100
▁ziel 100
fwpigp 100
▁predi 100
▁wfsåoefsu 100
▁xgtçpfgtv 100
▁interested 100
mufs 100
ovoh 100
qtkg 100
▁ess 100
▁lbu 100
joefu 100
omjdif 100
system 100
▁began 100
▁paper 100
▁qsphsbnn 100
ban 100
cri 100
mvg 100
▁kv 100
▁erre 100
fläche 100
▁ngvàvg 100
▁audience 100
son 100
eder 100
foefo 100
▁tier 100
▁allem 100
▁bmmfn 100
▁cnngo 100
▁optim 100
▁xfmux 100
▁consum 100
▁tjfcfo 100
▁ukgdgp 100
oq 100
sk 100
eum 100
▁ve 100
▁jçw 100
▁dknn 100
▁ßbim 100
vkimgkv 100
▁dingen 100
▁ejohfo 100
▁fkpigp 100
▁kpxguv 100
▁international 100
bere 100
diut 100
▁hab 100
zentr 100
▁fyus 100
▁mvgu 100
▁bmufs 100
▁ground 100
▁schlecht 100
▁menschliche 100
▁nfotdimjdif 100
▁ogpuejnkejg 100
tfjo 100
▁iqn 100
▁lgf 100
▁ncd 100
▁uejç 100
sjfcfo 100
▁unten 100
▁amount 100
▁kultur 100
▁individu 100
▁intelligen 100
sm 100
anc 100
vcw 100
▁ox 100
ässt 100
▁tcw 100
▁tit 100
▁àwp 100
bujwf 100
cvkxg 100
▁europe 100
cigt 100
▁dom 100
jfhfo 100
jhufo 100
▁near 100
▁size 100
▁falsch 100
▁sieben 100
ior 100
▁acc 100
▁cfe 100
▁hgt 100
bmmfo 100
▁boßv 100
▁east 100
▁gtng 100
▁àcjn 100
▁voufo 100
▁wpvgp 100
▁hcnuej 100
▁region 100
▁ún 100
aden 100
▁oze 100
▁pßf 100
▁qàg 100
fjgfo 100
▁press 100
▁bringt 100
▁csjohu 100
▁dtkpiv 100
▁letzte 100
▁mfußuf 100
▁herausforder 100
gul 100
▁cop 100
▁efg 100
▁sal 100
▁gene 100
▁kamen 100
▁lässt 100
▁måttu 100
▁nçuuv 100
▁gýimfo 100
▁hājngp 100
▁vorher 100
▁bsdijuf 100
▁ctejkvg 100
▁roboter 100
vgo 100
mmfs 100
mvgp 100
qpsu 100
▁sea 100
▁sfe 100
▁ucw 100
pcjog 100
xjttfo 100
▁visual 100
▁hftdiågu 100
▁sjdiuvoh 100
▁foot 100
gmådif 100
▁usbot 100
▁value 100
▁dessen 100
▁efttfo 100
▁fguugp 100
▁fühlen 100
▁jowftu 100
▁worden 100
▁xpsefo 100
▁yqtfgp 100
▁xqtvtci 100
▁ygkvgtg 100
▁mj 100
year 100
▁gas 100
▁tin 100
uvtkg 100
▁fore 100
▁lmjn 100
▁tradition 100
you 100
cdgp 100
▁tjo 100
▁kont 100
▁mnko 100
▁surv 100
cuejgp 100
▁geist 100
▁effect 100
▁arbeite 100
▁weitere 100
▁xfjufsf 100
▁hftvoeifjut 100
wg 100
bert 100
raum 100
ücke 100
▁tcf 100
igigp 100
qitch 100
▁junge 100
▁kvohf 100
▁lwpig 100
▁tujnn 100
▁lvmuvs 100
▁cfsfjdi 100
▁economic 100
▁hfebolfo 100
▁igfcpmgp 100
da 100
jot 100
luf 100
put 100
tuv 100
zug 100
iale 100
hfhfo 100
▁gpvu 100
▁cduqn 100
▁cfefv 100
ama 100
imuf 100
phfo 100
pose 100
▁gfs 100
▁tubs 100
bouxps 100
btdifo 100
ykuugp 100
▁hfjtu 100
▁needed 100
▁gedanken 100
▁betrachten 100
▁cfusbdiufo 100
▁dgvtcejvgp 100
ars 100
but 100
ftdi 100
▁bege 100
▁ujfs 100
▁vkgt 100
▁decis 100
▁sfmjh 100
▁tgnki 100
▁gewalt 100
▁leicht 100
▁longer 100
hç 100
cpig 100
ures 100
▁fgw 100
▁dgig 100
▁mftfo 100
▁ngugp 100
▁uejyg 100
▁jedoch 100
▁kfepdi 100
▁lgfqej 100
▁possib 100
▁simply 100
kxg 100
▁wu 100
▁çn 100
ager 100
joou 100
stoff 100
ziehen 100
▁cnvgt 100
▁inclu 100
▁uejcw 100
▁hervor 100
▁perspe 100
▁vertra 100
▁wochen 100
▁xpdifo 100
▁yqejgp 100
ichtlich 100
▁zweiten 100
▁ßxfjufo 100
▁àygkvgp 100
20 100
bon 100
cin 100
cbsfo 100
▁ther 100
antwor 100
▁hilfe 100
▁jknhg 100
▁eigene 100
▁fjhfof 100
▁gkigpg 100
▁jgtxqt 100
▁qvcmjl 100
▁rwdnkm 100
▁rtqitcoo 100
cb 100
icks 100
xjsl 100
yktm 100
▁sam 100
vnfou 100
wogpv 100
▁gone 100
▁tages 100
▁lpoßfous 100
▁mqpàgpvt 100
▁realized 100
▁gbt 100
▁kfo 100
▁lgp 100
▁xft 100
▁ermö 100
▁fsnø 100
▁gtoú 100
▁dream 100
▁ngkejv 100
▁staaten 100
▁tubbufo 100
▁uvccvgp 100
▁demokrat 100
▁sicherheit 100
▁àgt 100
▁stay 100
▁lesen 100
▁ubhft 100
▁bereit 100
▁urgàkg 100
gkpcpfgt 100
▁ktigpfg 100
▁erfahrung 100
▁fsgbisvoh 100
ugh 100
bohf 100
▁lead 100
▁tgik 100
▁ijmgf 100
▁father 100
das 100
▁bor 100
vgvgp 100
▁statist 100
▁welches 100
▁xfmdift 100
▁ygnejgu 100
▁position 100
▁gthcjtwpi 100
▁jgtcwuhqtfgt 100
gå 100
iff 100
▁kat 100
▁ßqtm 100
efoufo 100
▁lbnfo 100
▁mcogp 100
▁sudden 100
▁perfect 100
▁yktvuejchv 100
▁hç 100
joef 100
▁rcr 100
▁sau 100
koogp 100
▁stimm 100
▁tdixf 100
▁parents 100
▁special 100
▁gemeinsam 100
ejvu 100
▁key 100
dnkem 100
ledge 100
▁sfjdi 100
▁cphcpi 100
▁expect 100
ykp 100
▁är 100
▁vog 100
▁xfj 100
▁fert 100
ources 100
▁force 100
▁ßfous 100
▁àgpvt 100
▁meines 100
▁nfjoft 100
▁ogkpgu 100
▁schließlich 100
▁tdimjfàmjdi 100
▁uejnkgánkej 100
jfu 100
urkt 100
▁int 100
▁auth 100
▁tage 100
▁mikro 100
▁white 100
▁humans 100
nkejmgkv 100
qj 100
cwuq 100
fgvg 100
▁csp 100
▁dro 100
▁sho 100
▁rock 100
▁städ 100
▁ubhf 100
igogkp 100
▁either 100
▁itwpfg 100
▁lwpigp 100
▁iguwpfjgkv 100
▁kphqtocvkqp 100
lag 100
▁sn 100
qqfo 100
▁qmø 100
▁rnú 100
▁tpo 100
▁wjt 100
fghan 100
▁plöt 100
▁spent 100
▁tiere 100
▁ujfsf 100
▁vkgtg 100
▁hfobvt 100
▁kvohfo 100
▁wfshmf 100
▁verschw 100
pof 100
qug 100
▁dtq 100
▁mis 100
▁rele 100
ctdgkv 100
▁bvghf 100
▁virtu 100
▁cfsfju 100
▁genaus 100
▁grunde 100
▁jungen 100
▁temper 100
▁vnxfmu 100
▁quickly 100
▁gvolujpojfsfo 100
▁hwpmvkqpkgtgp 100
eks 100
fmcf 100
åohu 100
▁uwr 100
cbvfo 100
dcwgp 100
indet 100
vtcigp 100
▁bekam 100
▁markt 100
▁bogboh 100
▁einzel 100
▁hnkgigp 100
▁igpcwuq 100
▁mussten 100
▁nvttufo 100
▁owuuvgp 100
fme 100
row 100
▁wtu 100
▁fahr 100
▁gren 100
▁tjuv 100
▁ukvw 100
▁hftjdiu 100
▁lsbolfo 100
▁mtcpmgp 100
▁support 100
▁konzentr 100
bhfs 100
cmjdl 100
icity 100
lbnfo 100
▁text 100
▁xjefs 100
▁ykfgt 100
▁zeich 100
▁àgkej 100
▁general 100
▁kranken 100
sto 100
dwpi 100
ites 100
jußf 100
▁main 100
▁gtncw 100
▁tried 100
▁publikum 100
▁qvcmjlvn 100
ball 100
▁hop 100
▁ßfs 100
foßfo 100
▁scale 100
▁fjoßfm 100
▁hsvoef 100
▁solche 100
▁tpmdif 100
▁uqnejg 100
▁hfobvtp 100
▁incredible 100
▁kpvgtguucpv 100
fkg 100
▁pi 100
iele 100
▁vst 100
▁feet 100
▁gbis 100
▁hcjt 100
▁inse 100
▁zahl 100
▁rncvà 100
izieren 100
▁folgen 100
▁gtkppgtp 100
ebt 100
fsb 100
▁ku 100
▁gjt 100
cejuv 100
cpsfo 100
▁dunk 100
▁qbsu 100
hcjtgp 100
ßfmmfo 100
▁detail 100
▁bscfjut 100
▁version 100
▁erinnern 100
▁fsjoofso 100
▁structure 100
vw 100
ktor 100
part 100
richt 100
cially 100
▁dgogt 100
▁college 100
▁genauso 100
ake 100
bauen 100
ently 100
mbhfo 100
ygugp 100
▁cdig 100
▁scre 100
kàkgtv 100
usbhfo 100
▁cfnfs 100
▁mtchv 100
▁pgwgu 100
▁museum 100
▁efnplsbu 100
▁fgoqmtcv 100
▁voufstdijfe 100
▁wpvgtuejkgf 100
cou 100
qpv 100
ouch 100
zung 100
▁log 100
bditu 100
itgkej 100
▁dnkem 100
▁afghan 100
▁mfjdiu 100
▁gmjfhfo 100
▁surface 100
anda 100
dlfs 100
▁cdi 100
▁tfl 100
achst 100
▁hosp 100
▁raus 100
▁sbvt 100
▁tbnn 100
▁ufbn 100
bdiufu 100
▁alter 100
hmjdifo 100
▁growth 100
▁zellen 100
▁ßfmmfo 100
▁àgnngp 100
ktu 100
rift 100
usion 100
▁feed 100
▁samm 100
zeichn 100
▁cmjdl 100
qnqikgp 100
▁cities 100
▁companies 100
▁funktionieren 100
▁vs 100
ther 100
▁hoh 100
izing 100
tupgg 100
▁jobs 100
▁vill 100
annten 100
cejvgv 100
cppvgp 100
▁europ 100
bly 100
oud 100
▁lb 100
▁lbq 100
cpvcu 100
▁lost 100
▁pull 100
▁gewor 100
▁zahlen 100
▁ßbimfo 100
▁àcjngp 100
▁sitting 100
wtg 100
ains 100
▁pal 100
▁caus 100
▁fwpm 100
▁risk 100
mjdift 100
▁deren 100
▁efsfo 100
▁fgtgp 100
▁ywuuvg 100
▁möglichkeiten 100
▁nøhmjdilfjufo 100
▁oúinkejmgkvgp 100
pse 100
▁flu 100
▁jqn 100
▁ugm 100
▁berü 100
▁cfsý 100
▁vkgh 100
▁wfstuf 100
▁ability 100
▁99 100
chsel 100
ially 100
▁girl 100
▁hfmf 100
idence 100
▁books 100
▁zerst 100
▁zuvor 100
▁àwxqt 100
▁recogn 100
▁measure 100
▁reality 100
kfo 100
rct 100
efso 100
ndgp 100
▁hon 100
▁lik 100
▁vßr 100
▁cpefo 100
▁dqfgp 100
▁platz 100
▁qmbuß 100
▁ßvwps 100
omjdifo 100
▁wpsifs 100
▁cjmevoh 100
▁product 100
ana 100
▁ec 100
gtpv 100
orgt 100
▁dgà 100
▁hom 100
kraft 100
nning 100
▁igng 100
▁block 100
▁boden 100
jßjfsfo 100
▁møtvoh 100
▁schwierig 100
crj 100
▁sjt 100
▁übr 100
▁ýcs 100
▁ādt 100
cpvgp 100
fluss 100
itter 100
▁plat 100
▁port 100
▁seku 100
▁slow 100
▁vgng 100
▁efgjo 100
▁fghkp 100
▁qàgcp 100
▁ßfstu 100
bdituvn 100
▁fougfs 100
▁jotqjs 100
▁kpurkt 100
▁lösung 100
▁npobuf 100
▁sollen 100
▁tpmmfo 100
▁uqnngp 100
▁xvttuf 100
dfo 100
rieb 100
▁jct 100
ejhfo 100
utdis 100
▁disp 100
▁magn 100
▁àgtuv 100
achstum 100
kàkgtgp 100
▁fragte 100
▁gsbhuf 100
▁htcivg 100
▁núuwpi 100
vgnnkigp 100
▁entscheiden 100
▁foutdifjefo 100
▁gpvuejgkfgp 100
rab 100
ernt 100
dctgp 100
ejugn 100
mvoht 100
▁path 100
▁absch 100
▁color 100
▁mboht 100
▁njuufm 100
▁sterben 100
▁tufscfo 100
▁uvgtdgp 100
▁tdixjfsjh 100
oy 100
pnf 100
jttu 100
▁qsb 100
ators 100
kvàgp 100
▁fear 100
ierend 100
pcjogp 100
▁lösen 100
▁møtfo 100
▁núugp 100
▁pßfbo 100
▁wären 100
▁xåsfo 100
▁yçtgp 100
▁animal 100
▁gpvuvg 100
▁wouldn 100
tufmmvoh 100
▁verwand 100
▁wfsxboe 100
▁verbunden 100
▁wfscvoefo 100
▁xgtdwpfgp 100
ßvh 100
rote 100
▁xgto 100
▁autos 100
▁stage 100
▁strong 100
▁zweite 100
▁bildung 100
dvg 100
itze 100
▁eat 100
flufo 100
itzen 100
ograf 100
▁acht 100
▁prom 100
▁rein 100
urkgng 100
▁mitte 100
▁ncpiu 100
▁neues 100
▁dgtgkv 100
▁lbvgfo 100
▁mcwhgp 100
▁nation 100
pression 100
▁economy 100
▁strateg 100
▁wpsusbh 100
▁university 100
▁technologies 100
mä 100
▁flo 100
lujpo 100
tqjfm 100
▁xgtf 100
ighājn 100
▁beein 100
▁kaufen 100
▁consider 100
▁gemeinschaft 100
▁hfnfjotdibgu 100
erte 100
çpfg 100
▁koh 100
▁pqu 100
▁wal 100
zeuge 100
ßfvhf 100
▁rand 100
▁führt 100
▁guten 100
▁gýisu 100
▁hājtv 100
▁motiv 100
▁danach 100
▁ebobdi 100
▁fcpcej 100
▁schritt 100
▁rnúvànkej 100
cine 100
lter 100
▁fjt 100
▁ipm 100
gjogp 100
zeigt 100
▁hoffn 100
▁ipggo 100
▁known 100
▁tuvej 100
▁wusste 100
▁àygkvg 100
▁uejykgtki 100
ugg 100
ilar 100
tens 100
xgtu 100
▁mbv 100
▁hall 100
▁hast 100
▁autom 100
▁nimmt 100
▁ojnnu 100
▁pkoov 100
▁vcigu 100
▁besteht 100
▁brought 100
▁cftufiu 100
▁dguvgjv 100
▁fliegen 100
▁rwdnkmwo 100
cnngp 100
ßphfo 100
àgwig 100
▁born 100
ustain 100
▁gwtqr 100
▁entste 100
▁monate 100
▁oqpcvg 100
▁freunde 100
▁gsfvoef 100
▁htgwpfg 100
▁fstdibggfo 100
▁gtuejchhgp 100
amer 100
ival 100
text 100
▁hbm 100
zogen 100
▁aben 100
▁requ 100
assion 100
àgnngp 100
▁gbmmt 100
▁hcnnu 100
▁hvufo 100
▁iwvgp 100
▁weeks 100
▁hfxbmu 100
▁plötzlich 100
▁qmøußmjdi 100
▁erschaffen 100
ckg 100
alle 100
wtgp 100
bvàfo 100
cwágp 100
hören 100
▁bcfo 100
▁cdgp 100
▁vtcp 100
njuufm 100
▁fvspq 100
▁ofvft 100
▁10.000 100
▁vortrag 100
▁individual 100
så 100
içp 100
digk 100
ills 100
▁eis 100
cnvgt 100
jútgp 100
ßfjhu 100
àgkiv 100
▁draw 100
▁morn 100
▁verbindung 100
▁wfscjoevoh 100
▁xgtdkpfwpi 100
app 100
sta 100
▁iz 100
book 100
kvàg 100
vàvg 100
iøsfo 100
▁deut 100
▁dgpú 100
▁tvdi 100
▁uwej 100
hfgýim 100
ließen 100
▁benöt 100
▁blood 100
▁cfoøu 100
▁fyjtu 100
▁gzkuv 100
▁islam 100
▁uejch 100
▁woche 100
▁xpdif 100
▁yqejg 100
▁bottom 100
zz 100
ufm 100
▁hig 100
▁tal 100
ehmen 100
jekte 100
zeugt 100
▁affe 100
▁cwvqu 100
▁infra 100
arbeitet 100
▁fähigkeit 100
▁hçjkimgkv 100
▁political 100
▁opportunity 100
kd 100
▁lw 100
ußen 100
joßjq 100
kpàkr 100
▁ibtu 100
▁viol 100
ßjfifo 100
bscfjufu 100
ctdgkvgv 100
▁climate 100
▁ādgtàgw 100
▁gåijhlfju 100
ex 100
mus 100
▁jā 100
elbe 100
kpfg 100
▁hea 100
▁hqt 100
▁opu 100
▁rom 100
▁2008 100
▁felt 100
▁bvupt 100
▁ihres 100
▁jisft 100
▁kjtgu 100
▁thema 100
▁uifnb 100
▁vjgoc 100
▁xjdiu 100
▁offens 100
▁uqàkcng 100
▁religion 100
▁xgtcpvyqtv 100
yl 100
ßt 100
mor 100
vvg 100
▁lä 100
gjgp 100
uvtw 100
hcnnu 100
▁jcuv 100
▁bevöl 100
▁fight 100
▁miles 100
▁write 100
▁cfwøml 100
uvgnnwpi 100
▁gxqnwvkqp 100
emg 100
ähn 100
mosp 100
alien 100
cnkgp 100
gmvtt 100
ouble 100
stein 100
▁iran 100
▁kpfw 100
ejujpo 100
▁bleiben 100
▁cmfjcfo 100
▁dngkdgp 100
▁gegenüber 100
▁hfhfoýcfs 100
▁igigpādgt 100
▁potential 100
,5 100
jpu 100
▁hp 100
▁led 100
bmufs 100
phsbg 100
ächst 100
åditu 100
▁efjo 100
▁farm 100
▁tvqfs 100
▁growing 100
▁starting 100
▁joufmmjhfo 100
▁kpvgnnkigp 100
ka 100
urj 100
uejw 100
çejuv 100
▁cfjo 100
▁mars 100
igdwpi 100
igyújp 100
▁based 100
▁tvdifo 100
▁uwejgp 100
▁morning 100
▁hmýdlmjdi 100
yct 100
▁cu 100
jähr 100
ndon 100
ynam 100
▁civil 100
▁langsam 100
▁respons 100
▁aussehen 100
▁bvttfifo 100
▁cwuugjgp 100
▁patients 100
▁ināemnkej 100
▁vergleich 100
pi 100
dcw 100
zer 100
ends 100
jçnv 100
wirk 100
▁mitt 100
▁park 100
▁sýdl 100
▁tāem 100
▁areas 100
▁wrote 100
▁instrum 100
▁glücklich 100
bvs 100
åuß 100
ised 100
kåis 100
▁sym 100
falls 100
▁njuf 100
▁tdio 100
▁links 100
▁anyone 100
▁draußen 100
▁esbvàfo 100
▁feeling 100
▁ftcwágp 100
▁developed 100
▁wissenschaftler 100
▁xjttfotdibgumfs 100
▁ykuugpuejchvngt 100
▁75 100
hood 100
ýhfo 100
bmjfo 100
▁tgkp 100
▁bvtßv 100
▁altern 100
▁theory 100
▁völlig 100
▁gbnjmjfo 100
▁hcoknkgp 100
jbo 100
nkp 100
ttf 100
▁öl 100
haus 100
ring 100
▁194 100
▁bür 100
▁qbq 100
emjdif 100
▁modell 100
▁okvgkp 100
▁anderer 100
▁boefsfs 100
▁cpfgtgt 100
▁mtgcvkx 100
▁tdisjuu 100
▁familien 100
▁iý 100
tusb 100
fmufo 100
kivgp 100
▁hung 100
▁perio 100
▁images 100
▁njufjo 100
▁philos 100
▁suchen 100
▁wømmjh 100
▁lsfbujw 100
ukejvnkej 100
▁dgygiwpi 100
▁gefunden 100
▁hfgvoefo 100
▁ighwpfgp 100
2- 100
nt 100
cbv 100
▁23 100
▁bur 100
▁ice 100
▁gele 100
arbeit 100
gefühl 100
ygkugp 100
▁bmmfjo 100
▁hsøàuf 100
▁impact 100
▁itúávg 100
▁xúnnki 100
lei 100
abil 100
bten 100
ügen 100
sjdiu 100
▁spir 100
zellen 100
▁genet 100
▁allein 100
▁cnngkp 100
▁größte 100
▁überleben 100
▁ýcfsmfcfo 100
▁ādgtngdgp 100
▁compassion 100
▁vgk 100
hnwuu 100
▁ejfo 100
▁fkgp 100
▁fyusfn 100
▁mbvgfo 100
▁ncwhgp 100
▁beginnt 100
▁cfhjoou 100
▁changes 100
▁dgikppv 100
▁program 100
xúnmgtwpi 100
▁approach 100
▁cfxfhvoh 100
▁interact 100
bau 100
dia 100
foe 100
çiv 100
ived 100
kgvgp 100
osaur 100
spiel 100
▁road 100
▁bedeu 100
▁gives 100
▁tgkej 100
▁nbodif 100
▁ocpejg 100
▁development 100
kxk 100
vci 100
▁uj 100
lant 100
ltbn 100
feren 100
lungs 100
onnen 100
uvgog 100
▁sent 100
▁tools 100
▁tubsl 100
▁dgfgwv 100
mjo 100
uren 100
▁cmv 100
▁gku 100
icdgp 100
igung 100
lsbgu 100
xftfo 100
▁blog 100
▁itwp 100
▁nbsl 100
▁unge 100
▁klima 100
▁namen 100
▁smart 100
▁average 100
▁explain 100
▁tdifjou 100
▁knowledge 100
icy 100
qtp 100
▁lay 100
▁ufm 100
▁vkg 100
gegen 100
jfufo 100
▁nice 100
▁favor 100
▁åoefs 100
▁forward 100
▁scheint 100
▁uejgkpv 100
ejo 100
mar 100
wen 100
idge 100
blick 100
ieten 100
ragen 100
▁cfhs 100
▁webs 100
▁begin 100
prochen 100
qspdifo 100
ppm 100
flus 100
▁bol 100
ejvgt 100
mtchv 100
▁vtcf 100
▁wachsen 100
▁xbditfo 100
▁ycejugp 100
▁positive 100
▁richtung 100
▁tqb 100
▁ejoh 100
▁vohf 100
kerung 100
▁kolle 100
hfopnnfo 100
▁fouefdl 100
▁gpvfgem 100
▁numbers 100
▁similar 100
▁umgebung 100
▁vnhfcvoh 100
▁scientists 100
ote 100
àwi 100
ints 100
ogpv 100
ufuf 100
nahme 100
▁gbou 100
▁tusf 100
▁blick 100
▁lpmmf 100
▁mqnng 100
▁atmosp 100
xjsutdibgu 100
▁literally 100
ott 100
tup 100
cufo 100
ückg 100
▁hng 100
▁cejv 100
▁ßfio 100
▁mount 100
▁octmv 100
▁verbre 100
▁zuerst 100
▁ßvfstu 100
▁àwgtuv 100
▁größten 100
▁hsøàufo 100
▁itúávgp 100
▁produkt 100
tjdiumjdi 100
▁discovered 100
mat 100
psh 100
elten 100
▁lmjnb 100
▁npmfl 100
▁oqngm 100
▁schwe 100
▁çpfgt 100
▁hkpcpà 100
▁npefmm 100
▁unseres 100
▁votfsft 100
▁wpugtgu 100
▁jgtcwuàw 100
▁lýotumfs 100
▁māpuvngt 100
▁attention 100
0. 100
▁ç 100
kvß 100
▁2. 100
▁est 100
▁bvgßv 100
▁npsbm 100
▁obdiu 100
isieren 100
▁oqfgnn 100
▁tatsache 100
▁ubutbdif 100
▁vcvucejg 100
zv 100
nal 100
weg 100
spro 100
▁hör 100
ýshfs 100
▁rede 100
forsch 100
▁oqtcn 100
▁hcpvcu 100
▁manche 100
▁bekannt 100
▁dguejçh 100
▁beschäft 100
▁cftdiågu 100
▁erklären 100
▁fslmåsfo 100
▁gtmnçtgp 100
▁nachdenken 100
▁obdiefolfo 100
▁pcejfgpmgp 100
▁iguwpfjgkvu 100
iant 100
▁code 100
▁gewesen 100
▁hfxftfo 100
▁igygugp 100
▁ländern 100
▁måoefso 100
▁nçpfgtp 100
▁künstler 100
▁hqtuejwpi 100
▁kbisivoefsu 100
▁lcjtjwpfgtv 100
cl 100
nå 100
cpe 100
juz 100
rael 100
rich 100
wfst 100
▁600 100
▁ncw 100
fjmfo 100
▁fair 100
▁hine 100
▁dynam 100
▁ijofjo 100
▁integr 100
▁jkpgkp 100
▁möchten 100
▁nødiufo 100
▁oúejvgp 100
▁challenge 100
▁computers 100
▁ukejgtjgkv 100
▁understanding 100
ils 100
lgp 100
ric 100
ýdlf 100
āemg 100
▁jcn 100
▁tum 100
produ 100
▁bist 100
▁seems 100
▁anzahl 100
▁boßbim 100
▁cpàcjn 100
▁ifswps 100
▁tkejvwpi 100
▁technologien 100
▁ufdiopmphjfo 100
▁vgejpqnqikgp 100
kul 100
por 100
ygi 100
jggu 100
ances 100
▁cars 100
▁fire 100
jßjfsu 100
▁shape 100
▁giving 100
wirtschaft 100
▁blut 100
▁xbim 100
▁nbslu 100
▁ogfkm 100
▁reihe 100
▁sfjif 100
▁tgkjg 100
▁gzvtgo 100
▁minute 100
▁english 100
▁medical 100
▁vgejpkm 100
iot 100
zus 100
▁bun 100
▁fse 100
▁fur 100
cvvgp 100
▁2007 100
▁rate 100
ijoefs 100
▁christ 100
▁daraus 100
▁ebsbvt 100
▁fctcwu 100
▁anstatt 100
▁botubuu 100
▁cpuvcvv 100
▁ufdiojl 100
▁movement 100
xfh 100
▁eg 100
▁ejh 100
▁fki 100
▁leg 100
▁map 100
▁mqu 100
▁vng 100
▁cjtu 100
▁dark 100
▁dkuv 100
bscfju 100
▁guess 100
▁krieg 100
▁pcejv 100
▁größer 100
▁hsøàfs 100
▁gelernt 100
▁hfmfsou 100
▁igngtpv 100
▁technik 100
ßý 100
ifft 100
ivgp 100
khhv 100
ygtv 100
▁aspe 100
▁bdiu 100
▁aufge 100
▁bctpm 100
▁beide 100
▁cfjef 100
▁dgkfg 100
vnkejgp 100
▁gebaut 100
▁london 100
▁sustain 100
▁bedeutung 100
▁cfefvuvoh 100
▁krankheit 100
▁miteinander 100
▁njufjoboefs 100
▁okvgkpcpfgt 100
ues 100
lçjt 100
▁tfy 100
▁mtgk 100
▁rctv 100
▁sell 100
▁bctdi 100
▁except 100
▁muster 100
▁erzählt 100
▁fsßåimu 100
▁gtàçjnv 100
▁geworden 100
▁hfxpsefo 100
▁igyqtfgp 100
▁evsditdio 100
▁fwtejuejp 100
▁vergangen 100
▁wfshbohfo 100
▁xgticpigp 100
uejchvnkejgp 100
gpsu 100
ncpf 100
gbmmt 100
▁aren 100
▁wpsb 100
▁npefs 100
▁åmufs 100
▁çnvgt 100
▁gsýifs 100
▁htājgt 100
entially 100
▁cflboou 100
gor 100
sum 100
wem 100
jubm 100
▁ufn 100
▁umf 100
buufo 100
ester 100
qejgp 100
▁obin 100
▁pcjo 100
emjdifo 100
▁laufen 100
▁stelle 100
▁tufmmf 100
▁uvgnng 100
▁uejtkvv 100
▁infrastru 100
vß 100
cfm 100
cjo 100
qjp 100
gpst 100
lauf 100
▁dgh 100
▁úhh 100
digen 100
inder 100
▁bobm 100
▁cpcn 100
▁nahm 100
▁ernst 100
▁fkikv 100
hftfußu 100
▁ogfkgp 100
▁playing 100
▁anfangen 100
▁bogbohfo 100
▁cphcpigp 100
▁designer 100
▁gpstdivoh 100
ij 100
lear 100
lfoou 100
▁cwuu 100
▁fohm 100
▁öffn 100
▁øggo 100
àkgjgp 100
▁ausge 100
▁nacht 100
▁table 100
▁nfejfo 100
▁meaning 100
▁passieren 100
▁qbttjfsfo 100
▁rcuukgtgp 100
▁durchschnitt 100
fä 100
çá 100
ipp 100
qrr 100
▁hü 100
▁ßå 100
aged 100
▁hgn 100
▁joh 100
▁poe 100
▁suf 100
kgnng 100
obinf 100
▁blau 100
▁dein 100
▁toll 100
▁aufre 100
▁boxfo 100
▁cpygp 100
▁meter 100
▁regul 100
▁formen 100
▁island 100
▁jemals 100
▁kfnbmt 100
▁lgocnu 100
▁realize 100
▁fwpmvujpo 100
▁tgxqnwvkqp 100
head 100
çwhv 100
ýdlu 100
āemv 100
▁kan 100
▁crit 100
▁curr 100
stellt 100
▁bvgsf 100
▁cwhtg 100
▁finan 100
▁refle 100
▁touch 100
åhu 100
cvqt 100
onom 100
▁mcn 100
iforn 100
▁uvctm 100
▁finger 100
mjdilfju 100
▁journal 100
▁running 100
met 100
isst 100
racy 100
ucom 100
vsfo 100
▁dct 100
▁ira 100
▁pgt 100
organ 100
qvkqp 100
▁hold 100
▁song 100
▁stär 100
▁tuås 100
▁uvçt 100
▁fsotu 100
▁girls 100
digkeit 100
▁bouxps 100
▁gpsnfo 100
▁hqtogp 100
▁nvtufs 100
▁owuvgt 100
▁cffjogm 100
▁connect 100
▁dggkphn 100
▁genannt 100
▁hfoboou 100
▁recently 100
▁absolutely 100
gsb 100
ried 100
▁mcp 100
▁egal 100
▁gerä 100
hfttfo 100
iguugp 100
▁fguki 100
▁gkpàw 100
▁medien 100
▁igpcppv 100
▁hftvoeifju 100
▁td 100
gkvgv 100
round 100
▁flow 100
▁ycjn 100
nahmen 100
▁mtkgi 100
▁faszin 100
▁gbtßjo 100
▁hcuàkp 100
▁repres 100
▁terror 100
▁tpoofo 100
▁industr 100
▁physical 100
▁developing 100
nqu 100
▁øm 100
xkgn 100
▁din 100
▁icn 100
▁trut 100
curity 100
gbisfo 100
▁cover 100
▁demon 100
▁regen 100
erungen 100
kmcvkqp 100
möglich 100
▁cpvyqt 100
▁uqppgp 100
▁kleiner 100
▁kontroll 100
bed 100
fsuf 100
hājt 100
lage 100
dlich 100
▁qsjw 100
▁rtkx 100
dimens 100
obinfo 100
▁avail 100
▁benef 100
▁okmtq 100
▁tgkug 100
▁worth 100
▁dknfwpi 100
▁einzeln 100
▁fjoßfmo 100
arm 100
▁mü 100
boht 100
nehm 100
yktv 100
▁jút 100
▁gfsu 100
▁rück 100
▁sfjo 100
▁intro 100
▁teile 100
▁ufjmf 100
▁vgkng 100
▁xgtng 100
▁direct 100
▁mqpvtqnn 100
▁wahrheit 100
inge 100
joht 100
reds 100
riff 100
tdif 100
▁000 100
▁boy 100
▁lbm 100
øggfo 100
▁mache 100
▁ncdqt 100
▁nobody 100
▁tradit 100
▁travel 100
urtgejgp 100
▁creating 100
▁verloren 100
▁wfsmpsfo 100
▁xgtnqtgp 100
▁tuvefoufo 100
▁uvwfgpvgp 100
▁ken 100
▁qual 100
blujpo 100
▁alone 100
▁phone 100
▁antwor 100
▁network 100
▁entfernt 100
▁millions 100
▁studenten 100
▁afghanistan 100
isf 100
jlp 100
mut 100
kuvg 100
kvgt 100
mguf 100
▁obo 100
▁sehe 100
▁tfif 100
▁ugjg 100
▁brill 100
▁nbdif 100
▁ocejg 100
ssystem 100
▁lmfjofs 100
▁mngkpgt 100
▁transport 100
wuv 100
▁ed 100
lern 100
▁eye 100
icans 100
àqigp 100
▁disk 100
▁fhbm 100
▁gicn 100
▁hqvq 100
▁lsjfh 100
▁nfuip 100
▁ogvjq 100
▁preis 100
▁qsfjt 100
▁reise 100
▁nfjovoh 100
▁prinzip 100
▁qsjoßjq 100
▁rtkpàkr 100
▁soziale 100
▁hundreds 100
▁industry 100
kum 100
▁tä 100
eles 100
lfte 100
tufu 100
▁urc 100
çnhvg 100
▁fnpu 100
▁send 100
▁soon 100
▁hfcbvu 100
▁igdcwv 100
▁bekommt 100
▁cflpnnu 100
▁chinese 100
▁dgmqoov 100
▁forschung 100
use 100
zte 100
▁bon 100
▁hit 100
ellow 100
gkngp 100
▁vorh 100
▁sfjtf 100
▁uvccv 100
▁nçpigt 100
▁gezeigt 100
▁telling 100
▁solution 100
▁ycjtjgkv 100
▁verwendet 100
eq 100
lb 100
bodf 100
ploy 100
▁fem 100
kogpu 100
änden 100
▁qijm 100
▁rjkn 100
▁knows 100
▁goqvkqp 100
▁kilomet 100
▁lpouspmm 100
▁xbisifju 100
▁wfsxfoefu 100
▁xgtygpfgv 100
▁relationship 100
btf 100
vko 100
▁arr 100
▁nuc 100
▁rul 100
▁meta 100
fahren 100
zeitig 100
▁frank 100
▁objekt 100
▁kleines 100
▁lmfjoft 100
▁mngkpgu 100
▁niemals 100
▁ojfnbmt 100
▁pkgocnu 100
▁materials 100
▁vç 100
çtgp 100
merks 100
vàvgp 100
▁cmvu 100
▁diagn 100
▁mjolt 100
▁rtgku 100
▁sonst 100
▁tpotu 100
▁uqpuv 100
agieren 100
bhjfsfo 100
umjdifo 100
▁hinaus 100
▁israel 100
▁hfßfjhu 100
▁igàgkiv 100
mā 100
wa 100
ceg 100
iki 100
mfj 100
wjev 100
çnng 100
▁pun 100
asing 100
kxkfw 100
▁ujfg 100
▁wash 100
▁jefou 100
▁sever 100
▁action 100
▁ijobvt 100
▁proper 100
▁showed 100
▁demonstr 100
▁tdimfdiu 100
▁dgfgwvwpi 100
foß 100
kmq 100
rat 100
vkp 100
jchv 100
xbsf 100
▁iøs 100
▁kal 100
▁aids 100
▁tdiý 100
▁chris 100
▁haven 100
▁sfhfm 100
▁tdibv 100
▁lieben 100
▁mjfcfo 100
▁nkgdgp 100
▁fougfsou 100
▁uejngejv 100
▁incredibly 100
2, 100
aul 100
▁lt 100
rückt 100
▁espe 100
▁gpup 100
▁pack 100
▁verö 100
▁xgtú 100
cmjdif 100
▁regel 100
▁cwhogt 100
▁früher 100
▁tqsbdi 100
▁benutzt 100
▁cfovußu 100
▁dgpwvàv 100
▁partner 100
▁produce 100
▁tpßjbmf 100
▁unglaub 100
▁jqhhpwpi 100
▁hfnfjotbn 100
▁gthqnitgkej 100
▁igogkpuejchv 100
kug 100
▁tå 100
gkdv 100
uern 100
▁eob 100
▁fpc 100
▁tfo 100
▁ugp 100
teilt 100
▁band 100
▁schü 100
roffen 100
▁blind 100
▁enorm 100
▁gtpuv 100
▁iguvg 100
▁erzähl 100
▁urtcej 100
▁anybody 100
▁meinung 100
▁obviously 100
uejchvnkejg 100
▁sfwpmvujpo 100
▁wpstufmmvoh 100
tj 100
ày 100
ipku 100
qwte 100
wood 100
▁pse 100
dnung 100
▁impl 100
▁austr 100
▁gfsot 100
▁graph 100
▁bvgnfs 100
▁dimens 100
▁gefähr 100
▁joejwjev 100
▁kpfkxkfw 100
▁tusvluvs 100
▁especially 100
qb 100
rän 100
lang 100
mmet 100
vide 100
▁gtf 100
▁mex 100
▁nar 100
▁cwut 100
▁foto 100
▁save 100
▁pcejàw 100
▁stellte 100
▁tufmmuf 100
▁uvgnnvg 100
▁aufmerks 100
▁gpvhgtpv 100
▁betrachte 100
nkpg 100
▁zug 100
ftwem 100
kuvgt 100
▁fail 100
▁fnqg 100
▁geor 100
▁sfef 100
kejvgv 100
▁igkuv 100
▁bsdijufl 100
▁struktur 100
▁tjuvbujpo 100
▁ukvwcvkqp 100
kpu 100
juvu 100
kehr 100
mvkx 100
ufou 100
▁rat 100
ßfvhu 100
▁tcwu 100
isiert 100
vnkejg 100
▁neigh 100
fsvohfo 100
ktionen 100
▁talked 100
▁wfsøggfo 100
▁tdimfdiuf 100
▁uejngejvg 100
vmu 100
▁ehr 100
koogt 100
mtcpm 100
▁igdg 100
bracht 100
ejhlfju 100
▁fahren 100
▁fggflu 100
▁histor 100
▁ighçjt 100
▁ivoefs 100
▁amerika 100
▁bnfsjlb 100
▁cogtkmc 100
▁dgmcppv 100
▁ogkpwpi 100
▁suggest 100
▁gzrgtkogpv 100
esp 100
zehn 100
ätze 100
åußf 100
ually 100
vgknv 100
▁fctu 100
▁lpog 100
▁norm 100
ending 100
▁okvvg 100
ination 100
▁bigger 100
▁dātigt 100
▁fanden 100
▁gboefo 100
▁hcpfgp 100
▁office 100
genommen 100
▁aufgabe 100
▁bvghbcf 100
▁cwhicdg 100
▁fyqfsjnfou 100
owv 100
▁db 100
cpeg 100
oose 100
▁jen 100
ufjmu 100
▁ejtl 100
▁empf 100
▁yguv 100
vumjdi 100
øhmjdi 100
▁ebstuf 100
▁findet 100
▁gjoefu 100
▁hkpfgv 100
▁sprach 100
▁richtige 100
▁sjdiujhf 100
▁tkejvkig 100
▁bvgnfsltbn 100
ptf 100
ativ 100
xfsu 100
▁ufs 100
boufo 100
phone 100
kvçvgp 100
mbttfo 100
▁bohft 100
▁niger 100
▁carbon 100
▁cýshfs 100
gh 100
ami 100
bvgu 100
jwfs 100
åohf 100
▁echt 100
▁prop 100
▁tiny 100
▁vari 100
▁xftu 100
▁among 100
▁games 100
▁igjgk 100
▁stark 100
▁bürger 100
▁fortsch 100
▁gpsutdis 100
▁hqtvuejt 100
▁pqtocngt 100
▁aufmerksam 100
bsn 100
cum 100
ejn 100
kel 100
çhv 100
ston 100
àgjp 100
▁pan 100
cogpv 100
▁infe 100
▁spre 100
▁issue 100
▁tubuu 100
▁gbisfo 100
▁hcjtgp 100
▁sofort 100
▁tpgpsu 100
▁bctpmvu 100
▁available 100
▁resources 100
▁vtcfkvkqp 100
oon 100
ram 100
ygku 100
▁ugt 100
▁type 100
ichtet 100
▁jkpcwu 100
▁becomes 100
▁entdeck 100
▁training 100
▁woigdwpi 100
gue 100
ley 100
mbh 100
▁uå 100
oognp 100
▁dead 100
juåufo 100
▁alten 100
▁bmufo 100
▁cnvgp 100
▁drive 100
▁kpuvkv 100
▁stimme 100
▁tujnnf 100
▁uvkoog 100
øse 100
▁27 100
bups 100
stre 100
yond 100
▁pil 100
▁pom 100
▁tod 100
▁wish 100
jdiufu 100
▁strom 100
▁tuspn 100
▁ādgty 100
fnkejgp 100
▁finanz 100
▁absolut 100
▁jemanden 100
▁kfnboefo 100
▁lgocpfgp 100
▁security 100
▁usbejujpo 100
iko 100
▁sv 100
auft 100
wjfm 100
▁11. 100
▁21. 100
▁hot 100
▁dnwv 100
▁roll 100
▁vgco 100
▁yqjp 100
itäten 100
▁trust 100
▁hsýoef 100
zufinden 100
▁concept 100
▁subject 100
▁designed 100
▁conscious 100
vqp 100
cwhv 100
xbtt 100
▁las 100
▁sky 100
▁uýs 100
▁vāt 100
wpmvg 100
▁fkum 100
▁öffent 100
▁changing 100
▁einfache 100
▁erreicht 100
▁fjogbdif 100
▁fssfjdiu 100
▁gkphcejg 100
▁gttgkejv 100
▁komplett 100
oct 100
okp 100
qpm 100
▁tür 100
▁nine 100
gemein 100
gliche 100
▁erwar 100
▁größe 100
▁hsøàf 100
▁itúág 100
▁total 100
▁vstqs 100
▁wturt 100
cpfnwpi 100
▁hfgåis 100
▁passion 100
▁schrieb 100
▁tdisjfc 100
▁uejtkgd 100
▁argument 100
ada 100
ilt 100
abet 100
abor 100
iled 100
itch 100
▁lif 100
▁tku 100
jhvoh 100
krank 100
tqflu 100
▁2005 100
▁vern 100
▁uwrgt 100
▁beyond 100
▁einsch 100
▁fjotdi 100
▁sfdiut 100
▁geboren 100
▁hfcpsfo 100
▁igdqtgp 100
▁jogpsnbujpo 100
30 100
▁fi 100
hmer 100
uvsf 100
▁ljm 100
▁mkn 100
▁ofsw 100
pcvkqp 100
▁mbcps 100
▁motor 100
▁schmer 100
▁tdinfs 100
▁uejogt 100
isierung 100
▁gegeben 100
▁hfhfcfo 100
▁igigdgp 100
▁reasons 100
▁schools 100
▁versuche 100
▁wfstvdif 100
▁xgtuwejg 100
▁vorstellung 100
▁xqtuvgnnwpi 100
2. 100
9, 100
wj 100
bew 100
gej 100
jút 100
dvgp 100
kvgp 100
ieden 100
tkgdgp 100
uejchvu 100
▁gjoboß 100
▁gthqni 100
▁xftfou 100
▁tusbàfo 100
▁uvtcágp 100
▁progress 100
▁mitgefühl 100
bj 100
pv 100
bgg 100
njo 100
▁cj 100
▁ue 100
sprü 100
ties 100
▁fix 100
▁fqt 100
▁sle 100
jujpo 100
▁heim 100
▁remo 100
▁wfsx 100
▁achie 100
▁basis 100
▁schüt 100
ucomgkv 100
▁hälfte 100
▁iåmguf 100
▁jçnhvg 100
ßvgjoefo 100
▁hundred 100
▁putting 100
▁straßen 100
▁njuhfgýim 100
▁okvighājn 100
abh 100
erv 100
yçt 100
▁lbs 100
alter 100
fnfou 100
isvoh 100
▁mjfg 100
▁verd 100
▁nkpmu 100
▁fehler 100
▁tjdifsifju 100
▁[" 100
gpvg 100
wärt 100
▁250 100
▁wahl 100
▁mögen 100
▁nøhfo 100
▁oúigp 100
▁voice 100
▁spread 100
▁happiness 100
hör 100
▁ren 100
asser 100
ctors 100
kgign 100
lsbol 100
▁bctu 100
ington 100
ycuugt 100
▁kompl 100
▁mcogt 100
▁mqorn 100
▁solve 100
ighājtv 100
▁dcmvgt 100
▁pflanzen 100
▁qgmboßfo 100
▁rhncpàgp 100
▁extraordin 100
▁interessiert 100
▁joufsfttjfsu 100
▁kpvgtguukgtv 100
▁blo 100
▁nbà 100
sicht 100
▁nutz 100
▁ozean 100
▁stick 100
▁bakter 100
▁cblufs 100
▁gfimfs 100
▁brachte 100
▁csbdiuf 100
▁dtcejvg 100
▁involved 100
▁scientific 100
▁hb 100
cnng 100
rage 100
▁àgw 100
ified 100
▁arab 100
▁corn 100
▁foug 100
▁king 100
▁mcor 100
▁ovuß 100
▁pqfs 100
setzen 100
wissen 100
úinkej 100
▁radio 100
rtqejgp 100
▁device 100
▁hgjngt 100
▁ansehen 100
▁botfifo 100
▁cpugjgp 100
▁çjpnkej 100
▁dinosaur 100
▁pictures 100
▁voufstdi 100
▁vereinigten 100
▁wfsfjojhufo 100
▁xgtgkpkivgp 100
▁fouxjdlmvoht 100
ngp 100
qpf 100
▁àç 100
adem 100
hufo 100
yqjn 100
▁gvà 100
▁lfs 100
▁maß 100
▁ocá 100
utage 100
xqnng 100
▁died 100
▁hfcf 100
▁ngjt 100
jfsfoe 100
▁uqhqtv 100
▁xgtuejy 100
▁ähnlich 100
▁fstdifjo 100
▁function 100
▁gtuejgkp 100
▁hfopnnfo 100
▁igpqoogp 100
▁offensichtlich 100
▁pggfotjdiumjdi 100
▁qhhgpukejvnkej 100
ibr 100
wtv 100
cngu 100
ffee 100
twej 100
çhvg 100
▁eps 100
▁ykn 100
gkugp 100
àkgtv 100
▁fkpi 100
▁gefü 100
àgkvki 100
▁leist 100
▁secre 100
▁eventu 100
▁genommen 100
▁cfxvttutfjo 100
▁dgywuuvugkp 100
▁erfolgreich 100
▁fsgpmhsfjdi 100
▁wfsåoefsvoh 100
amp 100
ubm 100
ßfs 100
opsn 100
yqjp 100
▁19. 100
▁lop 100
▁ske 100
▁tar 100
fully 100
vkigt 100
xfhfo 100
ziert 100
▁gpsu 100
▁lsjf 100
▁mist 100
▁fisch 100
▁rolle 100
▁sonne 100
▁speed 100
▁spmmf 100
▁tpoof 100
▁tqnng 100
▁uqppg 100
▁cduqnwv 100
▁richard 100
▁spricht 100
▁tqsjdiu 100
▁urtkejv 100
▁erschein 100
▁veränderung 100
bnb 100
cgn 100
rel 100
chgp 100
▁ere 100
ooper 100
wegen 100
utions 100
vgkngp 100
▁democ 100
▁rules 100
▁gingen 100
▁hjohfo 100
▁ikpigp 100
▁necess 100
▁several 100
▁towards 100
▁xgtçpfgtwpi 100
psf 100
mboh 100
▁hpp 100
▁hwá 100
▁tor 100
▁anzu 100
▁wfso 100
enigen 100
indern 100
kgtgpf 100
▁iøifs 100
▁jújgt 100
▁letzt 100
▁tells 100
kfojhfo 100
lgpkigp 100
▁bacter 100
▁cýdifs 100
▁dāejgt 100
▁groups 100
▁sounds 100
▁symbol 100
▁voraus 100
▁restaur 100
▁rqukvkx 100
ta 100
gru 100
lim 100
▁ut 100
gnvg 100
øsfo 100
▁mpl 100
▁nqm 100
arily 100
aster 100
cwgtp 100
▁dien 100
▁qrgt 100
▁rqvgp 100
▁attack 100
▁mjfhfo 100
▁writing 100
▁hospital 100
jy 100
esh 100
hçj 100
etdi 100
gbmm 100
serv 100
▁bee 100
▁lok 100
▁wild 100
▁basic 100
▁cflbn 100
▁tfußfo 100
▁ugvàgp 100
▁hu 100
ered 100
vàwv 100
åguf 100
▁gpu 100
▁tpc 100
▁usf 100
tural 100
vubhf 100
▁ejbh 100
▁ight 100
uchten 100
▁hoffe 100
▁ipggf 100
▁jqhhg 100
cejuvwo 100
hfgýisu 100
vàwvcig 100
▁princi 100
▁setzen 100
▁sorgen 100
▁tpshfo 100
▁uqtigp 100
▁verurs 100
▁wfsvst 100
▁xgtwtu 100
▁xqtcwu 100
utzutage 100
vußvubhf 100
▁element 100
▁erkennt 100
▁fslfoou 100
▁einzelne 100
▁fjoßfmof 100
▁gkpàgnpg 100
▁lpnqmfuu 100
▁mqorngvv 100
▁philosoph 100
no 100
lsf 100
qbs 100
qså 100
ugk 100
ique 100
▁cit 100
▁fuß 100
▁iqq 100
▁uqt 100
▁wil 100
techn 100
▁dete 100
▁tgfg 100
▁wjtv 100
▁xkuw 100
▁const 100
▁tgejvu 100
▁gesamte 100
▁hftbnuf 100
▁evidence 100
▁teachers 100
▁trotzdem 100
▁uspußefn 100
▁vtqvàfgo 100
▁cfßjfivoh 100
▁erwachsen 100
▁fsxbditfo 100
▁gtycejugp 100
▁oberfläche 100
▁pcfsgmådif 100
▁qdgthnçejg 100
hi 100
come 100
jufo 100
▁sbv 100
cdjçp 100
vgejp 100
▁mtkg 100
▁vguv 100
lassen 100
▁vtcpur 100
▁convers 100
▁further 100
▁gtmgppv 100
▁igucovg 100
▁facebook 100
▁beziehung 100
▁heutzutage 100
▁ifvußvubhf 100
▁jgwvàwvcig 100
job 100
vert 100
▁deb 100
▁tex 100
cpfgo 100
koogn 100
▁bald 100
▁cdàw 100
▁late 100
▁nbst 100
▁octu 100
▁sold 100
gorith 100
urjçtg 100
▁dgmco 100
▁lived 100
cikgtgp 100
▁irgende 100
▁website 100
▁einfluss 100
▁hoffnung 100
▁ipggovoh 100
▁maschine 100
▁nbtdijof 100
▁suddenly 100
▁mtcpmjgkv 100
▁particularly 100
▁herauszufinden 100
▁ifsbvtßvgjoefo 100
▁jgtcwuàwhkpfgp 100
cen 100
eed 100
mbn 100
tex 100
çig 100
▁mu 100
häng 100
▁uqd 100
▁asking 100
▁vtcigp 100
▁gboubtu 100
▁schulen 100
▁tdivmfo 100
▁uejwngp 100
▁fjogmvtt 100
▁igogkpuco 100
idem 100
inkg 100
room 100
▁mfs 100
▁ucp 100
fjhfo 100
fsfoß 100
kuvcp 100
ygigp 100
ßfjujh 100
▁aufzu 100
▁jkpàw 100
▁sfhfo 100
▁tgigp 100
▁issues 100
▁übrigen 100
▁ýcsjhfo 100
▁ādtkigp 100
▁certainly 100
▁character 100
▁dgàkgjwpi 100
▁joevtusjf 100
▁fähigkeiten 100
▁gåijhlfjufo 100
▁hçjkimgkvgp 100
gkd 100
hre 100
back 100
ykpf 100
▁oqv 100
▁yút 100
kejgt 100
vision 100
ulation 100
▁pomjof 100
▁qpnkpg 100
▁usbhfo 100
▁ziehen 100
▁ßjfifo 100
▁àkgjgp 100
▁zurückg 100
zustellen 100
▁geschieht 100
▁hftdijfiu 100
▁iguejkgjv 100
▁ök 100
häre 100
▁cpn 100
▁jou 100
▁lpq 100
gnvgp 100
▁okuu 100
sequen 100
▁liber 100
▁tdisf 100
▁truth 100
▁uejtg 100
▁länger 100
▁måohfs 100
▁bestimmt 100
▁emotional 100
▁itqáctvkig 100
▁geschrieben 100
▁hftdisjfcfo 100
▁iguejtkgdgp 100
cug 100
irm 100
▁úm 100
fjho 100
gkug 100
lied 100
lups 100
▁wol 100
kàkgp 100
▁früh 100
▁poll 100
▁rtcm 100
▁rund 100
▁traum 100
ikation 100
▁starts 100
▁stimmt 100
▁städte 100
▁tuåeuf 100
▁uvçfvg 100
▁herausf 100
▁ifsbvtg 100
▁village 100
▁lsbolifju 100
▁joufsfttbouf 100
▁kpvgtguucpvg 100
ify 100
nvu 100
ieso 100
ikel 100
ofin 100
▁cvt 100
auten 100
vgkng 100
▁zero 100
▁clean 100
▁qspuf 100
▁zeige 100
▁ßfjhf 100
▁àgkig 100
▁compet 100
▁danger 100
▁indeed 100
▁tragen 100
▁präsent 100
▁chemical 100
▁projects 100
▁weltweit 100
▁xbdituvn 100
▁normalerweise 100
▁opsnbmfsxfjtf 100
▁pqtocngtygkug 100
▁herausforderung 100
▁ifsbvtgpsefsvoh 100
▁jgtcwuhqtfgtwpi 100
wfo 100
ösen 100
øtfo 100
úugp 100
iegen 100
▁cond 100
▁grün 100
▁hfcv 100
▁breat 100
▁einge 100
▁nennt 100
▁ofoou 100
▁pgppv 100
▁anyway 100
▁bewegt 100
▁cfxfhu 100
▁dgygiv 100
▁capital 100
▁mbohtbn 100
▁intellig 100
▁wachstum 100
"] 100
gng 100
ores 100
uchs 100
▁ijw 100
jdifs 100
āuugn 100
▁bmmhfn 100
▁qsåtfou 100
▁rtçugpv 100
▁cnnigogkp 100
▁ykejvkigt 100
▁gesprochen 100
▁hftqspdifo 100
▁igpgtcvkqp 100
▁igurtqejgp 100
xq 100
hki 100
lfs 100
reg 100
turn 100
▁gmf 100
▁jkx 100
▁som 100
▁vqv 100
pkuug 100
▁cýsp 100
▁upmm 100
▁warm 100
abhäng 100
▁nachzu 100
▁nkgigp 100
▁search 100
▁tfjufo 100
▁ugkvgp 100
▁message 100
lfm 100
xfm 100
▁sä 100
hmjf 100
gkfgp 100
jtubo 100
▁asso 100
▁wann 100
bciåoh 100
gjßjfo 100
▁cross 100
▁ogvgt 100
▁track 100
▁liegen 100
▁seiten 100
▁hundert 100
▁machten 100
▁nbdiufo 100
▁ocejvgp 100
▁rqnkvkm 100
▁voufstuýuß 100
▁joufsobujpo 100
▁kpvgtpcvkqp 100
ägt 100
▁nq 100
pnfo 100
▁inf 100
▁upe 100
▁ßvh 100
▁bang 100
▁dcnf 100
▁lauf 100
▁verh 100
▁xqtj 100
▁firma 100
▁gjsnb 100
▁hktoc 100
▁nfufs 100
▁hinein 100
▁qpmjujl 100
▁ocuejkpg 100
▁wfshfttfo 100
▁xgtiguugp 100
▁qh 100
kvàv 100
▁sus 100
▁swe 100
▁tro 100
ýisfo 100
▁cbme 100
▁jcwr 100
▁nahe 100
▁pcjg 100
dessen 100
qnqigp 100
▁esvdl 100
▁jcwrv 100
▁separ 100
▁spezie 100
tuåoeojt 100
▁vergessen 100
▁hfofsbujpo 100
na 100
▁36 100
▁xq 100
çvàg 100
▁cto 100
▁nan 100
tufot 100
uvgpu 100
▁dght 100
▁herr 100
▁regeln 100
▁sfhfmo 100
▁tgignp 100
▁verlet 100
▁politik 100
▁bemerken 100
▁cfnfslfo 100
▁dgogtmgp 100
ron 100
bald 100
jlfm 100
setz 100
▁195 100
▁adu 100
▁cvo 100
ously 100
▁gang 100
▁prakt 100
▁qsblu 100
▁trial 100
øiomjdi 100
▁bücher 100
▁papier 100
▁qbqjfs 100
▁rcrkgt 100
▁xgtfkgp 100
▁obdisjdiufo 100
▁pcejtkejvgp 100
rm 100
ejt 100
hfu 100
hqp 100
jfg 100
nny 100
ored 100
otdi 100
▁bqq 100
aring 100
kvvgt 100
åußfo 100
üssel 100
▁burn 100
▁büro 100
▁cwun 100
▁igur 100
▁ycpp 100
▁dachten 100
▁ebdiufo 100
▁fcejvgp 100
▁ykejvkig 100
▁anschauen 100
▁botdibvfo 100
▁cpuejcwgp 100
asa 100
wel 100
jußu 100
▁add 100
dings 100
ivers 100
juufs 100
vkmgn 100
ätzen 100
▁neun 100
▁xboo 100
▁posit 100
▁choice 100
▁fsgpst 100
▁gründe 100
▁gthqtu 100
▁ipggfo 100
▁source 100
▁examples 100
▁exciting 100
▁everywhere 100
▁nachrichten 100
-, 100
dom 100
uså 100
▁jß 100
buvs 100
▁ref 100
▁xqn 100
uvgtp 100
▁gern 100
▁hell 100
▁hfso 100
▁hsýo 100
▁igtp 100
▁pgwp 100
▁prev 100
fttpvs 100
cjmevoh 100
guuqwte 100
▁kannst 100
▁lbootu 100
▁mcppuv 100
kgtwpigp 100
▁fshfcojt 100
▁vonøhmjdi 100
▁wpoúinkej 100
coc 100
ete 100
jkn 100
khv 100
▁rg 100
▁vj 100
kpig 100
qgfs 100
ären 100
▁qtf 100
▁vqf 100
aking 100
ienen 100
kgpgp 100
åohfo 100
▁cwuf 100
▁mine 100
▁qvol 100
▁beach 100
▁gjoef 100
▁hkpfg 100
▁vtcpu 100
▁ßfjdi 100
tuåoejh 100
▁europa 100
▁tujnnu 100
▁uvkoov 100
▁xgthqn 100
▁xqtdgk 100
▁xjdiujhf 100
▁industrie 100
▁cfpcbdiufo 100
▁dgqdcejvgp 100
▁dgxúnmgtwpi 100
sz 100
àgt 100
cuss 100
legt 100
ören 100
flict 100
çwuej 100
▁glob 100
▁hftq 100
▁onto 100
▁check 100
▁domin 100
agement 100
▁sobald 100
▁straße 100
▁tpcbme 100
▁tusbàf 100
▁uqdcnf 100
▁uvtcág 100
▁verfol 100
▁wfsgpm 100
ctdgkvgp 100
ierungen 100
jfsvohfo 100
▁arbeits 100
▁ergebnis 100
▁wichtige 100
▁beobachten 100
▁cfwømlfsvoh 100
▁uk 100
▁ykp 100
fuufs 100
icher 100
ktive 100
▁diej 100
▁russ 100
▁skin 100
bildung 100
bscfjufo 100
▁showing 100
▁entdeckt 100
▁schneller 100
▁tdiofmmfs 100
▁uejpgnngt 100
itc 100
mfo 100
sfh 100
buuf 100
jufm 100
plan 100
▁ncu 100
essed 100
jtufs 100
▁impo 100
esehen 100
tember 100
▁finde 100
▁hfofu 100
▁moved 100
▁hgtvki 100
▁kbisßf 100
arbeiten 100
▁ncpiuco 100
▁walking 100
▁jahrzehn 100
▁lcjtàgjp 100
▁verständ 100
▁interview 100
▁gleichzeitig 100
▁hmfjdißfjujh 100
▁ingkejàgkvki 100
jmjt 100
vnfo 100
▁gmý 100
▁vqp 100
ricul 100
teten 100
▁bein 100
▁obif 100
▁ingen 100
▁oqpcv 100
▁wants 100
▁hfhfot 100
▁notice 100
▁period 100
▁cwhogtm 100
▁algorith 100
▁xfmuxfju 100
▁ygnvygkv 100
▁democracy 100
▁aufmerksamkeit 100
gth 100
sth 100
tfm 100
uvn 100
gfgt 100
pggf 100
rate 100
▁harv 100
▁himm 100
▁lapt 100
▁birth 100
▁oåifs 100
▁pçjgt 100
▁älter 100
▁rechts 100
▁screen 100
▁square 100
▁symmet 100
joevohfo 100
kpfwpigp 100
▁afrikan 100
▁bgsjlbo 100
▁chtkmcp 100
▁journey 100
▁mqpvtqnng 100
▁qfstøomjdi 100
ox 100
åsß 100
kvgn 100
pgvg 100
qgfo 100
▁etc 100
▁tjn 100
▁ubv 100
▁ibvq 100
▁ijnn 100
▁list 100
▁uftu 100
xfjtfo 100
▁mfjtu 100
▁ngkuv 100
▁peace 100
▁ýcfst 100
▁please 100
▁itwrrgp 100
▁nuclear 100
▁verrückt 100
▁kontrolle 100
▁lpouspmmf 100
ham 100
wjt 100
ifst 100
▁ker 100
▁oxy 100
▁spo 100
▁xjo 100
jfofo 100
▁kämp 100
▁mçor 100
▁sele 100
ändert 100
▁apart 100
▁fjotu 100
▁fopsn 100
▁ready 100
▁wichtiger 100
▁xjdiujhfs 100
mft 100
▁26 100
hnen 100
ingu 100
itwr 100
▁ebe 100
▁fcf 100
ables 100
▁gold 100
▁ifjn 100
▁lose 100
▁mqpu 100
▁tdiø 100
▁terr 100
hgtgpà 100
çpfpku 100
▁likely 100
▁biggest 100
▁mission 100
▁monaten 100
▁npobufo 100
▁oqpcvgp 100
▁cfefvufo 100
▁dgfgwvgp 100
▁gkphnwuu 100
▁medicine 100
▁realität 100
▁standard 100
▁fundamental 100
ara 100
dic 100
ifj 100
▁nk 100
ibvq 100
like 100
ojttf 100
ühren 100
guxbsf 100
▁plant 100
▁calcul 100
▁complic 100
▁quality 100
▁hqvqitch 100
▁wfsusbvfo 100
▁xgtvtcwgp 100
bof 100
ckn 100
qps 100
qvm 100
ejcp 100
more 100
mphfo 100
qspev 100
▁erfu 100
▁intu 100
▁phen 100
▁teen 100
lungen 100
▁angef 100
▁bohfg 100
ditions 100
▁geheim 100
▁100.000 100
▁gruppen 100
▁hfmfhfo 100
▁igngigp 100
▁pcjtwpi 100
▁demokratie 100
▁efnplsbujf 100
▁fgoqmtcvkg 100
▁kppqxcvkqp 100
iq 100
uvq 100
uert 100
ßrgp 100
▁foss 100
▁gesp 100
▁nord 100
▁schö 100
▁tgfw 100
▁näher 100
▁wpscfj 100
▁begannen 100
▁cfhboofo 100
▁dgicppgp 100
ee 100
ike 100
àwu 100
knku 100
qtkgp 100
▁door 100
▁epsg 100
▁gehe 100
▁ncwh 100
▁ress 100
▁urcá 100
bujwfo 100
cvkxgp 100
ologen 100
▁auszu 100
▁cdigu 100
▁gutes 100
▁hvuft 100
▁iwvgu 100
▁monat 100
itgkhgp 100
▁entsch 100
▁activity 100
▁kbisivoefs 100
▁bvgnfsltbnlfju 100
▁cwhogtmucomgkv 100
1. 100
zü 100
mon 100
▁af 100
mbhf 100
▁eco 100
▁gal 100
▁ijs 100
▁jcd 100
▁jkt 100
çejgp 100
▁2004 100
▁base 100
▁baum 100
▁spaß 100
▁vqnn 100
teilen 100
▁carry 100
▁contr 100
▁tjußfo 100
▁ukvàgp 100
▁sozialen 100
▁tpßjbmfo 100
▁uqàkcngp 100
▁connected 100
▁gearbeitet 100
▁hfbscfjufu 100
▁igctdgkvgv 100
▁leidenschaft 100
▁mfjefotdibgu 100
bet 100
▁22 100
icle 100
owfs 100
▁abo 100
▁cat 100
▁ect 100
▁lau 100
▁fqth 100
▁heut 100
▁ifvu 100
▁tqbà 100
bttvoh 100
fguugp 100
indest 100
ivität 100
jwpigp 100
▁fjohf 100
▁glass 100
▁selts 100
▁tfmut 100
▁ugnvu 100
itation 100
▁großer 100
▁hspàfs 100
▁itqágt 100
▁multip 100
▁hsvqqfo 100
▁intelle 100
▁sfttpvs 100
▁ßvnjoef 100
▁àwokpfg 100
▁sfbmjuåu 100
▁tguuqwte 100
▁menschheit 100
▁bevölkerung 100
▁interessante 100
mtg 100
isis 100
vdit 100
▁uāf 100
▁ßvo 100
antly 100
verty 100
vyctg 100
▁dncw 100
ufjmfo 100
▁occur 100
▁batter 100
▁dwejuv 100
▁mental 100
▁molekü 100
▁ncpfgu 100
▁npmflý 100
▁oqngmā 100
▁sonnen 100
▁totally 100
▁wussten 100
▁xvttufo 100
▁ywuuvgp 100
▁creative 100
▁tgcnkvçv 100
▁übrigens 100
▁ýcsjhfot 100
▁ādtkigpu 100
▁möglichen 100
▁nøhmjdifo 100
▁oúinkejgp 100
▁passierte 100
▁qbttjfsuf 100
▁rcuukgtvg 100
▁extraordinary 100
bslu 100
ucvà 100
▁dqv 100
▁ibc 100
▁tur 100
▁dorf 100
▁freu 100
▁laut 100
▁lpss 100
ferenz 100
xbttfs 100
▁effic 100
▁xgtow 100
▁gfsujh 100
▁african 100
▁bessere 100
▁cfttfsf 100
▁dguugtg 100
▁obisvoh 100
▁pcejjcn 100
▁überras 100
uejnkgágp 100
▁nachhalt 100
▁obdiibmu 100
▁entscheidungen 100
▁foutdifjevohfo 100
▁gpvuejgkfwpigp 100
lå 100
āej 100
▁28 100
crib 100
iboh 100
ickt 100
tqiå 100
ändi 100
▁lat 100
▁rap 100
cmvkx 100
ßvefo 100
▁arme 100
▁cbvn 100
▁ctog 100
▁fill 100
▁orte 100
ivohfo 100
weisen 100
▁deine 100
▁efjof 100
▁fgkpg 100
▁schau 100
▁sport 100
▁tagen 100
▁trees 100
▁ubhfo 100
▁vcigp 100
▁landes 100
▁physik 100
▁studie 100
▁tuvejf 100
▁uvwfkg 100
ßvefolfo 100
▁deliver 100
▁serious 100
▁arbeitet 100
▁bscfjufu 100
▁ctdgkvgv 100
▁hfxjoofo 100
▁igykppgp 100
▁extremely 100
▁definition 100
▁fstubvomjdi 100
▁entwicklungs 100
amin 100
qjfm 100
nqgfo 100
ugndg 100
▁hero 100
▁mbvg 100
▁rain 100
▁wait 100
▁wfse 100
▁gerät 100
▁ibvqu 100
▁meist 100
▁named 100
▁uvtqo 100
▁wfstu 100
▁doctor 100
▁return 100
▁suffer 100
▁poverty 100
qnqikuejg 100
▁bestimmten 100
▁cftujnnufo 100
▁dguvkoovgp 100
bul 100
akes 100
cfsf 100
lier 100
ngiv 100
▁cha 100
▁ten 100
qsftt 100
▁ifjm 100
▁imme 100
▁nerv 100
▁ofvo 100
mvohfo 100
nehmer 100
ourcen 100
▁1.000 100
▁denkt 100
▁efolu 100
▁fgpmv 100
▁karte 100
▁lbsuf 100
▁trick 100
▁fvspqb 100
▁gwtqrc 100
▁qiztjl 100
▁rjßukm 100
▁objects 100
▁continue 100
▁gewinnen 100
▁richtigen 100
▁sjdiujhfo 100
▁tkejvkigp 100
▁verlieren 100
▁wfsmjfsfo 100
▁xgtnkgtgp 100
▁nbuifnbujl 100
▁ocvjgocvkm 100
stet 100
tdis 100
umqr 100
recht 100
▁gift 100
▁jgkn 100
▁psuf 100
▁qtvg 100
▁winz 100
▁xjoß 100
▁ykpà 100
ativen 100
▁urban 100
▁author 100
▁fertig 100
▁hftfuß 100
▁oqfgtp 100
▁profit 100
▁tdijdl 100
▁transl 100
▁uejkem 100
tusvluvs 100
▁teacher 100
▁collabor 100
▁universität 100
aup 100
sbe 100
çuk 100
▁65 100
ades 100
hcjt 100
pers 100
uejç 100
▁fab 100
▁lcr 100
▁týe 100
teile 100
▁tjho 100
wasser 100
▁analy 100
▁druck 100
▁appear 100
▁ernähr 100
▁gebiet 100
▁hsfoßfo 100
▁itgpàgp 100
▁tuvejfo 100
▁uvwfkgp 100
▁watching 100
▁einzelnen 100
▁fjoßfmofo 100
▁gkpàgnpgp 100
▁verlassen 100
▁wfsmbttfo 100
▁xgtncuugp 100
▁eventually 100
▁mathematik 100
▁öffentlich 100
▁øggfoumjdi 100
dll 100
ocv 100
ller 100
såol 100
▁prä 100
rible 100
▁hkpi 100
assung 100
vtgvgp 100
▁influ 100
▁stamm 100
▁tubnn 100
ruption 100
▁bleibt 100
▁cmfjcu 100
▁dngkdv 100
▁gewöhn 100
▁igycnv 100
▁igyújp 100
▁imposs 100
▁jkoogn 100
▁remark 100
▁respon 100
▁threat 100
▁auswirk 100
▁bvtxjsl 100
▁cwuyktm 100
▁dadurch 100
▁ebevsdi 100
▁fcfwtej 100
▁grenzen 100
▁largest 100
▁rtqfwmv 100
▁schreck 100
▁studien 100
▁zumindest 100
▁ßvnjoeftu 100
▁àwokpfguv 100
aly 100
bio 100
ses 100
åsu 100
spou 100
▁jki 100
fkigp 100
▁cart 100
▁fühl 100
▁opse 100
▁paul 100
▁quad 100
▁activ 100
▁njuum 100
▁spect 100
▁gesetz 100
▁iqqing 100
▁pckflu 100
▁plants 100
▁außerdem 100
▁bvàfsefn 100
▁cftujnnu 100
▁cwágtfgo 100
▁dguvkoov 100
▁verbessern 100
▁wfscfttfso 100
▁xgtdguugtp 100
ery 100
▁mc 100
asen 100
▁ijh 100
▁tkg 100
psjfo 100
vdlfo 100
wuugp 100
▁bchf 100
▁movie 100
▁brains 100
▁cjpmph 100
▁großes 100
▁hspàft 100
▁itqágu 100
▁mboeft 100
▁sitzen 100
▁service 100
▁tgcmvkqp 100
▁somewhere 100
dimensional 100
▁bewusstsein 100
1, 100
kpc 100
ests 100
führ 100
satz 100
tend 100
vqqf 100
▁ßjw 100
ächen 100
▁grew 100
▁komp 100
▁tdin 100
▁gfvfs 100
▁hgwgt 100
▁usbjo 100
▁vtckp 100
tunately 100
▁private 100
▁somehow 100
▁diejenigen 100
▁ejfkfojhfo 100
▁fkglgpkigp 100
xjttfotdibgu 100
bit 100
fon 100
usf 100
▁mr 100
hvgp 100
johf 100
schu 100
▁efu 100
▁mgt 100
▁nci 100
▁zun 100
front 100
▁astr 100
▁gpvn 100
▁heil 100
▁svoe 100
▁uvtg 100
hkpfgv 100
▁dgjcw 100
▁feuer 100
▁magic 100
▁mctvg 100
▁shift 100
▁staat 100
▁cfibvq 100
▁darwin 100
▁higher 100
▁immedi 100
▁tdisfdl 100
▁uejtgem 100
▁supposed 100
▁buildings 100
▁versuchte 100
▁wfstvdiuf 100
▁xgtuwejvg 100
▁washington 100
vj 100
bod 100
col 100
gos 100
lpq 100
cvvg 100
xpio 100
▁dcv 100
ufjmf 100
▁clin 100
▁lehr 100
▁xfct 100
führen 100
▁talks 100
▁taten 100
▁ubufo 100
▁vcvgp 100
jlbujpo 100
▁behaup 100
▁camera 100
▁hpphmf 100
▁member 100
▁zugang 100
▁install 100
▁ktigpfy 100
▁results 100
▁usually 100
▁fsßfvhfo 100
▁gtàgwigp 100
▁jotujuvu 100
cmv 100
uqp 100
▁py 100
fgtv 100
tqsp 100
▁igm 100
▁vnt 100
▁xjm 100
oming 100
uejwn 100
▁safe 100
gewöhn 100
▁armut 100
▁genes 100
▁kbqbo 100
▁lcrcp 100
▁older 100
▁hfcjfu 100
▁igdkgv 100
▁nachbar 100
▁nahrung 100
▁erzeugen 100
▁phenomen 100
▁professor 100
▁veröffent 100
hng 100
▁jh 100
chhg 100
kuuv 100
mvtt 100
pond 100
qtdgp 100
tufso 100
uejkt 100
vttfo 100
äumen 100
åvnfo 100
▁haut 100
▁kern 100
▁push 100
▁ycpf 100
▁ygdu 100
hfoeft 100
tqiåsf 100
▁above 100
▁sahen 100
▁tbifo 100
▁ucjgp 100
kgtgpfg 100
▁contra 100
▁report 100
ological 100
sjdiuvoh 100
▁charles 100
▁erlaubt 100
▁fsmbvcu 100
▁gtncwdv 100
▁introdu 100
▁particip 100
▁products 100
▁essentially 100
▁qspevßjfsfo 100
▁rtqfwàkgtgp 100
erk 100
hgm 100
▁yā 100
btfo 100
āigp 100
▁mbh 100
▁wet 100
▁àkx 100
cient 100
çwogp 100
▁njtt 100
▁zufä 100
▁ßvgå 100
ission 100
▁franc 100
▁igycn 100
▁magaz 100
▁meant 100
erstoff 100
▁hunder 100
▁fouefdlfo 100
▁gpvfgemgp 100
▁individuals 100
▁produzieren 100
▁nachzudenken 100
▁obdißvefolfo 100
▁organization 100
▁pcejàwfgpmgp 100
emm 100
vtg 100
erei 100
lebr 100
wick 100
▁cbu 100
ielen 100
▁komm 100
endung 100
xfsgfo 100
▁cause 100
▁ejhju 100
▁fouxf 100
▁babies 100
▁igugvà 100
▁itāpfg 100
▁series 100
▁sfhjpo 100
▁tgikqp 100
▁emotion 100
▁konzept 100
▁theorie 100
▁uifpsjf 100
▁vjgqtkg 100
▁tausende 100
▁ubvtfoef 100
▁vcwugpfg 100
▁beispiele 100
▁cfjtqjfmf 100
▁dgkurkgng 100
▁nfejlbnfo 100
▁ogfkmcogp 100
▁represent 100
8, 100
ßj 100
kvw 100
lär 100
çto 100
rhgp 100
▁... 100
▁bib 100
▁hyp 100
atten 100
▁hfgs 100
▁page 100
▁rece 100
▁woig 100
cnvwpi 100
fußvoh 100
ncuugp 100
qitcrj 100
▁gradu 100
▁initi 100
▁npobu 100
▁xfdit 100
▁dijoft 100
▁ejkpgu 100
▁larger 100
tqsfdifo 100
▁biology 100
▁central 100
▁studies 100
▁original 100
▁impossible 100
▁nfotdiifju 100
▁ogpuejjgkv 100
▁electricity 100
kz 100
qvgp 100
▁cdy 100
▁vul 100
ilien 100
mmern 100
pscfo 100
▁2003 100
▁luck 100
▁minds 100
▁trade 100
▁epidem 100
▁sowohl 100
▁tpxpim 100
▁uqyqjn 100
▁aussieht 100
▁bvttjfiu 100
▁conflict 100
▁cwuukgjv 100
nner 100
oten 100
▁wör 100
qticp 100
▁atom 100
▁tqsf 100
▁urtg 100
pgjogt 100
vdiufo 100
▁igtçv 100
▁metaph 100
▁surger 100
▁allowed 100
▁gebracht 100
▁hfcsbdiu 100
▁igdtcejv 100
▁fwtejuejpkv 100
tß 100
kop 100
qrj 100
bmfs 100
fußf 100
▁ifj 100
▁múp 100
▁ran 100
▁tis 100
oogtp 100
øsufs 100
▁1990 100
▁goal 100
▁hgkp 100
ensive 100
gýisfo 100
▁adult 100
▁cdjçp 100
▁cpigh 100
▁sorts 100
▁zivil 100
ibility 100
▁bciåoh 100
▁bilden 100
▁cjmefo 100
▁dguejn 100
▁dknfgp 100
▁wechsel 100
▁entdecken 100
▁unmöglich 100
▁joopwbujpo 100
▁traditional 100
▁wirklichkeit 100
▁xjslmjdilfju 100
▁vergangenheit 100
fk 100
ih 100
xb 100
cvj 100
oej 100
úhh 100
cdgn 100
tusv 100
xjdl 100
▁kön 100
▁cmbv 100
▁cook 100
▁enjo 100
▁gewe 100
▁htgw 100
▁sohn 100
▁trag 100
▁ended 100
▁freed 100
▁gjtdi 100
dknfwpi 100
▁secret 100
▁england 100
▁francis 100
▁jshfoexp 100
▁ktigpfyq 100
▁geschehen 100
▁hftdififo 100
▁iguejgjgp 100
fi 100
gfm 100
▁wü 100
igte 100
qocv 100
weis 100
çpiv 100
▁lqd 100
dnkej 100
▁häuf 100
▁iåvg 100
▁para 100
▁ykpf 100
bujtdi 100
gendes 100
usfufo 100
▁fdiuf 100
▁gejvg 100
▁sleep 100
▁analys 100
▁intera 100
▁signal 100
▁taught 100
▁continu 100
▁discuss 100
▁yktmnkejmgkv 100
▁wfshbohfoifju 100
▁xgticpigpjgkv 100
500 100
vjg 100
▁çw 100
▁ban 100
▁era 100
▁fro 100
▁gzr 100
▁kla 100
▁kpc 100
▁tbo 100
▁äuß 100
▁åvà 100
▁1950 100
▁1960 100
▁fsiø 100
▁lsju 100
▁tboe 100
▁town 100
▁zeug 100
inkejg 100
▁ebwje 100
▁fcxkf 100
▁forms 100
▁fslbo 100
▁hbmby 100
▁icncz 100
▁orten 100
▁psufo 100
▁qtvgp 100
▁usbvn 100
▁erklär 100
▁fslmås 100
▁fsgbisfo 100
▁gthcjtgp 100
▁kpfwuvtkg 100
▁itwpfngigp 100
kvk 100
▁pm 100
ales 100
wort 100
itkhh 100
▁alte 100
▁mqod 100
▁role 100
▁stol 100
▁wife 100
▁wiki 100
fnkejg 100
wejvgp 100
▁bcfoe 100
▁hfsåu 100
▁hkuej 100
▁stars 100
▁synth 100
▁crisis 100
▁points 100
▁ufmfgp 100
zeichnet 100
▁leaders 100
▁tuåoejh 100
▁aufgrund 100
▁bvghsvoe 100
▁gekommen 100
▁hflpnnfo 100
▁igmqoogp 100
▁including 100
▁wfshmfjdi 100
▁xgtingkej 100
▁großartige 100
▁hspàbsujhf 100
▁krankheiten 100
▁lsbolifjufo 100
▁mtcpmjgkvgp 100
▁architecture 100
wd 100
vmf 100
àwp 100
▁jü 100
bcfm 100
kvcn 100
tuft 100
twem 100
öffn 100
øggo 100
▁chi 100
▁kür 100
▁lýs 100
▁māt 100
ahmen 100
eless 100
▁bmuf 100
▁site 100
▁tpio 100
▁tree 100
▁upon 100
▁uqjp 100
indung 100
▁fsxbs 100
hsfjgfo 100
▁beauty 100
▁erwähn 100
▁gjsnfo 100
▁gtyçjp 100
▁hktogp 100
▁models 100
▁thanks 100
▁schüler 100
▁tdiýmfs 100
▁uejāngt 100
uç 100
ael 100
ctk 100
▁lf 100
dium 100
hwpi 100
luss 100
ragt 100
▁dbs 100
▁lad 100
vygpf 100
▁hfsf 100
▁vofs 100
▁deter 100
▁ebvfs 100
▁fcjkp 100
▁truly 100
▁einges 100
▁firmen 100
▁hfifjn 100
▁àwicpi 100
▁ctdgkvu 100
▁lpoßfqu 100
▁spezies 100
▁theater 100
▁tqfßjft 100
▁urgàkgu 100
▁wpcdjçp 100
▁erfahren 100
▁gpuphsbg 100
▁personen 100
▁unabhäng 100
▁vobciåoh 100
▁conditions 100
▁communities 100
bil 100
inu 100
itú 100
ost 100
ßvo 100
àvg 100
publ 100
taus 100
xfjt 100
▁mqr 100
▁camp 100
▁octm 100
▁twpf 100
▁wohn 100
▁xgtà 100
▁ygkp 100
▁ßfvh 100
cuuwpi 100
▁dauer 100
▁ebijo 100
▁pqujn 100
▁kombin 100
▁konsum 100
▁lpncjo 100
▁mqodkp 100
▁policy 100
▁prison 100
▁therap 100
▁voller 100
▁wpmmfs 100
▁xqnngt 100
▁ßvhboh 100
▁gtkppgt 100
▁reading 100
▁wfstdix 100
▁ygejugn 100
▁cwhitwpf 100
▁rgtuqpgp 100
▁complicated 100
bgs 100
wür 100
▁gy 100
fahr 100
kict 100
ünft 100
ýogu 100
▁cfu 100
▁för 100
▁tzn 100
atory 100
uvoht 100
ütter 100
▁clim 100
▁cnvg 100
▁ofvs 100
▁tour 100
▁wpig 100
▁assum 100
▁crazy 100
▁shown 100
▁chines 100
▁führte 100
▁gýisuf 100
▁hājtvg 100
▁excited 100
▁tubujtu 100
▁uvcvkuv 100
▁entweder 100
▁favorite 100
▁fouxfefs 100
▁gpvygfgt 100
▁qfstpofo 100
▁sprachen 100
▁tpguxbsf 100
▁tqsbdifo 100
▁urtcejgp 100
ykpfkimgkv 100
▁arbeitete 100
▁bscfjufuf 100
▁ctdgkvgvg 100
▁nachricht 100
▁therefore 100
▁wfscjoefo 100
▁xgtdkpfgp 100
bdl 100
fre 100
ignp 100
▁cla 100
▁hút 100
▁loc 100
▁2006 100
▁jcnd 100
▁lwpi 100
altung 100
cuvtqr 100
▁cwágp 100
▁urgàk 100
▁killed 100
▁protot 100
ßfjdiofu 100
àgkejpgv 100
▁concern 100
▁express 100
▁finding 100
▁western 100
▁einstein 100
▁interpre 100
▁ifstufmmfo 100
▁jgtuvgnngp 100
▁perspective 100
ico 100
çvg 100
▁mg 100
ýdll 100
āemm 100
▁120 100
▁cmp 100
▁fgv 100
▁les 100
▁mix 100
opnfo 100
qthgp 100
usbvn 100
verse 100
▁erhö 100
▁gtjú 100
▁igyg 100
▁male 100
btuspq 100
fjtufs 100
▁außen 100
▁malar 100
▁nenne 100
▁ofoof 100
▁pgppg 100
▁unfor 100
▁bvttdi 100
▁convin 100
▁tqjfmu 100
▁xbsufo 100
▁yctvgp 100
▁written 100
▁fotograf 100
windigkeit 100
▁fantastic 100
▁obdisjdiu 100
▁pcejtkejv 100
▁herstellen 100
▁wpkxgtukvçv 100
▁entscheidung 100
cwn 100
igv 100
ogk 100
uvc 100
jsvs 100
qmbo 100
▁bru 100
▁tfs 100
igpkg 100
▁fine 100
▁lust 100
▁mamm 100
▁mgtp 100
▁mond 100
▁xjoe 100
▁brand 100
▁ermög 100
▁qsåtj 100
▁ukppg 100
▁constru 100
▁neighbor 100
xjoejhlfju 100
▁verbinden 100
▁foutdifjevoh 100
igr 100
āth 100
▁üb 100
qdgt 100
ochen 100
▁addr 100
▁cpvk 100
▁mnkp 100
▁tend 100
kgtvgt 100
vented 100
▁attra 100
▁rtçuk 100
▁sinne 100
▁tjoof 100
▁worte 100
▁xpsuf 100
▁yqtvg 100
▁explor 100
▁fascin 100
▁njmmjpo 100
▁oknnkqp 100
▁ständig 100
legenheit 100
antwortung 100
▁ejctcmvgt 100
▁dh 100
fojf 100
▁dcp 100
▁erd 100
▁tup 100
eller 100
jgtcr 100
ýttfm 100
▁hfxf 100
qogvgt 100
▁drugs 100
▁gtygk 100
▁aussch 100
▁cnvgtp 100
▁dgtājo 100
▁dritte 100
▁einzig 100
▁esjuuf 100
▁faster 100
▁fjoßjh 100
▁keiner 100
▁kohlen 100
▁lfjofs 100
▁lpimfo 100
▁mgkpgt 100
▁mqjngp 100
▁videos 100
▁uvçpfki 100
▁globalen 100
▁hmpcbmfo 100
▁inqdcngp 100
▁response 100
▁bakterien 100
▁cblufsjfo 100
ßjg 100
igtp 100
imin 100
itāp 100
ktwt 100
mann 100
▁fit 100
▁nut 100
▁pak 100
▁zit 100
impan 100
inken 100
ishing 100
▁alive 100
▁tumor 100
▁vtcwo 100
▁überw 100
▁abstra 100
▁hfcsbv 100
▁igdtcw 100
▁content 100
▁mqpàgrv 100
▁bacteria 100
▁iguejçhv 100
▁irgendwo 100
▁military 100
▁signific 100
▁standing 100
▁uqhvyctg 100
▁dcmvgtkgp 100
▁evsditdiojuu 100
hsø 100
juj 100
yle 100
äre 100
chem 100
▁lag 100
▁mph 100
▁upo 100
cjogp 100
itung 100
▁höch 100
▁ibvu 100
▁iødi 100
▁júej 100
▁wpgt 100
jfsufs 100
àkoogt 100
▁gewinn 100
▁notwen 100
▁opuxfo 100
orgtcvwt 100
▁himself 100
▁cfgjoefo 100
▁dghkpfgp 100
▁ugmwpfgp 100
▁treatment 100
▁cfusbdiufu 100
ibe 100
sbc 100
ette 100
juås 100
stes 100
▁nýt 100
▁qiå 100
▁whe 100
▁wün 100
▁yāp 100
wpmmf 100
▁mfis 100
▁oçej 100
▁phän 100
▁rjçp 100
▁àwhç 100
machen 100
▁citiz 100
▁ctowv 100
▁ebene 100
▁gross 100
mmvohfo 100
▁leader 100
▁ursprü 100
sprechen 100
▁berechn 100
▁pqvygpf 100
▁qspgftt 100
▁rtqhguu 100
▁wturtāp 100
▁befinden 100
▁sekunden 100
▁tflvoefo 100
▁vorstell 100
▁vstqsýoh 100
▁amerikanischen 100
▁bnfsjlbojtdifo 100
▁cogtkmcpkuejgp 100
ky 100
cdt 100
▁32 100
isms 100
kpfw 100
mfso 100
verst 100
volle 100
vqqfo 100
▁arzt 100
▁hnkg 100
nbdifo 100
▁fcfof 100
▁gdgpg 100
▁price 100
▁uvcoo 100
▁vielf 100
unehmen 100
▁networ 100
▁pieces 100
▁skills 100
▁michael 100
▁welcher 100
▁xfmdifs 100
▁ygnejgt 100
▁humanity 100
▁painting 100
yktvuejchv 100
▁betrachtet 100
▁dgvtcejvgv 100
ams 100
ftg 100
jsn 100
kur 100
sps 100
anke 100
cfsu 100
ften 100
lace 100
will 100
yctv 100
▁dkq 100
btdif 100
ctvgv 100
seite 100
xgtuv 100
▁1980 100
▁ökon 100
▁ølpo 100
▁úmqp 100
ements 100
ocejgp 100
ßbimfo 100
▁bunch 100
▁lower 100
▁wieso 100
▁xjftp 100
▁ykguq 100
haltung 100
▁celebr 100
▁urkgng 100
▁warten 100
▁ingenie 100
▁johfojf 100
▁kpigpkg 100
▁massive 100
▁materie 100
▁nbufsjf 100
▁schlimm 100
▁increasing 100
▁intelligent 100
cà 100
car 100
hme 100
rtç 100
abel 100
▁flü 100
▁spu 100
▁ups 100
sbufo 100
▁uner 100
▁respe 100
▁vqnng 100
▁waste 100
▁worse 100
▁intens 100
▁passen 100
izations 100
▁mention 100
▁wfsbouxps 100
▁throughout 100
▁wfstuåoeojt 100
crr 100
dro 100
▁km 100
mbvg 100
rene 100
schw 100
▁dwu 100
▁budg 100
▁jcwv 100
▁nfsl 100
▁pqtf 100
▁tief 100
▁bezug 100
▁bsnvu 100
▁ýcfsx 100
kvkqpgp 100
ätzlich 100
åußmjdi 100
▁igykpp 100
▁messen 100
▁runter 100
▁svoufs 100
▁twpvgt 100
▁cfsfdio 100
▁meeting 100
▁tguuqwtegp 100
▁verstanden 100
▁wfstuboefo 100
▁xgtuvcpfgp 100
wtp 100
åsf 100
dcnn 100
▁pet 100
▁zäh 100
attle 100
ittel 100
jfàfo 100
▁xýot 100
astrop 100
phsbqi 100
werfen 100
▁dahin 100
▁famous 100
▁ftkvvg 100
▁tkgukig 100
▁ucoognp 100
▁ressourcen 100
▁sfttpvsdfo 100
▁successful 100
▁ýcfssbtdifo 100
▁ādgttcuejgp 100
▁mqoowpkmcvkqp 100
bß 100
àç 100
cpn 100
ftq 100
jft 100
rep 100
ufj 100
gufo 100
igtg 100
ille 100
imal 100
▁yqn 100
board 100
rtqfw 100
▁bedr 100
▁cbcz 100
▁höhe 100
▁iøif 100
▁jújg 100
▁thom 100
inkejv 100
ughter 100
▁brust 100
▁hilft 100
▁igurt 100
▁ijmgu 100
▁jknhv 100
▁könig 100
▁simpl 100
▁genome 100
▁igdwtv 100
▁muslim 100
kogpukqp 100
▁qiåopnfo 100
▁industrial 100
▁xgtuvçpfpku 100
ya 100
zs 100
yāt 100
▁2, 100
bmft 100
etze 100
onic 100
pgkp 100
▁fkc 100
▁ujn 100
▁àkv 100
vtcwo 100
xfslf 100
▁diag 100
hmjdiu 100
uygkug 100
▁mqphn 100
▁çwágt 100
▁fcfotp 100
▁gdgpuq 100
▁myster 100
▁sequen 100
▁context 100
▁freedom 100
▁pseovoh 100
▁sammeln 100
▁tbnnfmo 100
▁tdimjnn 100
▁families 100
▁fouefdlu 100
▁gpvfgemv 100
▁entschieden 100
▁foutdijfefo 100
▁gpvuejkgfgp 100
ýoe 100
botq 100
cpmg 100
hang 100
ises 100
qfst 100
▁mel 100
▁ugz 100
▁1000 100
▁woàw 100
endent 100
pnfufs 100
▁hctdg 100
▁höher 100
▁konfl 100
▁lpogm 100
▁xftfo 100
▁bisher 100
▁cjtifs 100
▁dkujgt 100
▁fangen 100
▁gbohfo 100
▁geburt 100
▁hcpigp 100
▁meeres 100
▁satell 100
▁malaria 100
▁physics 100
▁solchen 100
▁strange 100
▁tpmdifo 100
▁uqnejgp 100
▁zustand 100
▁ßvtuboe 100
uejnquugp 100
▁straight 100
▁ygkvgtgp 100
▁ermöglicht 100
▁fsnøhmjdiu 100
▁gtoúinkejv 100
▁vojwfstjuåu 100
5, 100
rr 100
sue 100
vkh 100
ämp 100
öst 100
▁hq 100
dknf 100
pojf 100
▁imm 100
▁len 100
altet 100
jfhfm 100
light 100
uchte 100
uvgkp 100
ßvtdi 100
ängen 100
▁gøse 100
▁kept 100
▁mvtu 100
▁nwuv 100
▁farbe 100
▁gbscf 100
▁hyper 100
▁ofvsp 100
ilities 100
▁allows 100
▁associ 100
▁cfejoh 100
▁fallen 100
▁spiele 100
▁dasselbe 100
▁ebttfmcf 100
▁fcuugndg 100
▁cftujnnuf 100
▁dguvkoovg 100
▁amerikaner 100
▁bnfsjlbofs 100
▁cogtkmcpgt 100
duv 100
fel 100
rea 100
▁eh 100
auer 100
pcjm 100
▁191 100
▁cbs 100
▁gek 100
▁tgr 100
hnung 100
werke 100
▁abge 100
▁grav 100
▁lebt 100
▁mfcu 100
▁vgtt 100
▁àgwi 100
design 100
tufmmf 100
uvgjgp 100
▁bühne 100
▁cýiof 100
▁dājpg 100
▁fotos 100
▁gpupt 100
vgknwpi 100
▁beings 100
▁launch 100
▁nffsft 100
▁oggtgu 100
▁qdlgmv 100
kpiwpigp 100
▁clearly 100
▁details 100
▁neurons 100
▁riesige 100
▁sjftjhf 100
▁wfscsbv 100
▁xgtdtcw 100
▁decision 100
▁einander 100
▁fjoboefs 100
▁gkpcpfgt 100
▁igucovgp 100
▁bestimmte 100
▁hsvoemfhfo 100
▁surprising 100
▁gpvuejgkfwpi 100
ibu 100
ält 100
▁ck 100
▁hå 100
bolf 100
▁ubm 100
ießen 100
jgkvu 100
kiwpi 100
masch 100
▁dcdß 100
▁gere 100
▁ngdv 100
▁repl 100
▁dtwuv 100
▁hqvqu 100
▁rqnkà 100
▁subst 100
▁ebenso 100
▁foutuf 100
▁george 100
▁herzen 100
▁ifsßfo 100
▁jgtàgp 100
▁spielt 100
▁urkgnv 100
▁rctvpgt 100
▁smaller 100
▁tdinfsß 100
▁englisch 100
▁fohmjtdi 100
▁gesamten 100
▁gpinkuej 100
▁hftbnufo 100
▁patterns 100
▁president 100
▁vertrauen 100
▁grundlegen 100
▁architektur 100
▁ctejkvgmvwt 100
▁krankenhaus 100
▁lsbolfoibvt 100
▁environmental 100
hey 100
iøs 100
mmp 100
cugp 100
nein 100
ofjo 100
qpkg 100
uufs 100
vfso 100
äfte 100
▁fen 100
▁ibs 100
▁kol 100
▁oqd 100
▁sep 100
▁smo 100
itude 100
orben 100
▁bcßv 100
▁gfjo 100
▁lief 100
ängnis 100
▁cases 100
▁csvtu 100
▁oqvkx 100
▁qpmjß 100
▁qrvko 100
▁jcpfgn 100
▁nfttfo 100
▁oguugp 100
ingkejgp 100
▁earlier 100
▁genetic 100
▁qbsuofs 100
▁verantwortung 100
xýs 100
åuf 100
gejp 100
jhuf 100
bmufu 100
cnvgv 100
found 100
progra 100
though 100
zimmer 100
▁dgàwi 100
▁joofo 100
▁linie 100
▁mjojf 100
▁nkpkg 100
▁worry 100
▁bmufso 100
▁ijnnfm 100
▁record 100
▁tqjfmf 100
▁values 100
▁dritten 100
▁esjuufo 100
▁ftkvvgp 100
▁hfijsot 100
▁ordnung 100
▁plastic 100
▁bvàfshfx 100
▁flugzeug 100
▁machines 100
▁recognize 100
▁schönheit 100
arf 100
esf 100
ieb 100
tcf 100
úuv 100
cies 100
mode 100
ocpp 100
uvtg 100
zobn 100
ßpco 100
▁boe 100
▁vac 100
▁vcn 100
swgpà 100
ådifo 100
åvtdi 100
▁anti 100
▁lmjo 100
▁rule 100
▁vict 100
fjuvoh 100
▁kppgp 100
▁ojfes 100
▁pkgft 100
▁afford 100
▁collea 100
▁describ 100
▁erklärt 100
▁fslmåsu 100
▁greater 100
▁gtmnçtv 100
▁schwarz 100
▁familiar 100
▁antworten 100
▁bouxpsufo 100
▁cpvyqtvgp 100
▁großartig 100
▁hspàbsujh 100
▁wundersch 100
▁xvoefstdi 100
▁ywpfgtuej 100
ws 100
jçw 100
mng 100
rhn 100
stä 100
øtu 100
üss 100
āuu 100
pper 100
▁700 100
▁aid 100
▁erg 100
▁ivn 100
▁jul 100
riere 100
▁aust 100
▁ctàv 100
▁mtkv 100
▁qspu 100
▁uses 100
▁vtch 100
ierter 100
▁niedr 100
▁toile 100
▁tubbu 100
uvçpfki 100
▁choose 100
▁himmel 100
▁gefragt 100
▁handeln 100
▁iguejçh 100
▁jcpfgnp 100
▁seconds 100
▁twitter 100
▁uejogtà 100
▁although 100
▁differen 100
▁increase 100
▁americans 100
▁ergebnisse 100
▁fshfcojttf 100
▁gtigdpkuug 100
▁außergewöhn 100
▁cwágtigyújp 100
bvm 100
nam 100
uuv 100
▁3. 100
▁95 100
▁bj 100
▁pā 100
gbmu 100
größ 100
kvçt 100
scht 100
seit 100
twfs 100
▁cru 100
▁erh 100
▁rkn 100
cuejg 100
fußuf 100
çpfgp 100
▁bsßu 100
▁expe 100
▁klin 100
▁myth 100
uejkgf 100
åohojt 100
▁board 100
▁costs 100
▁employ 100
▁vorsch 100
▁frieden 100
▁gsjfefo 100
▁handelt 100
▁hfgsbhu 100
▁htkgfgp 100
▁iboefmu 100
▁ightciv 100
▁igjktpu 100
▁jcpfgnv 100
▁qtfpwpi 100
▁bestehen 100
▁cftufifo 100
▁dguvgjgp 100
▁violence 100
qnqikuejgp 100
▁itqáctvki 100
▁schlechte 100
licherweise 100
▁bsdijufluvs 100
▁untersuchen 100
▁voufstvdifo 100
▁wpvgtuwejgp 100
▁intelligence 100
fvn 100
cles 100
efuf 100
gkpg 100
pfen 100
spra 100
vykem 100
▁gblu 100
▁gras 100
▁gtgk 100
▁itcf 100
▁rncu 100
icians 100
sweise 100
▁gespr 100
▁ighçp 100
▁mächt 100
▁nådiu 100
▁schne 100
▁wpxgt 100
jfsfoef 100
▁actual 100
▁hkpigt 100
▁ovnnfs 100
▁ctdgkvg 100
▁healthy 100
▁befindet 100
▁cfgjoefu 100
▁dghkpfgv 100
▁allgemein 100
▁interesse 100
▁joufsfttf 100
▁kpvgtguug 100
▁listening 100
▁dgjcpfnwpi 100
cý 100
apt 100
cth 100
ibs 100
vcmv 100
▁tax 100
▁ßxf 100
ounds 100
ßjfsu 100
▁comb 100
▁crow 100
▁rise 100
▁shot 100
▁stim 100
▁tdiå 100
bmuvoh 100
▁brief 100
▁jçpfg 100
▁xkgnh 100
▁ereign 100
▁however 100
▁leisten 100
▁mfjtufo 100
▁ngkuvgp 100
▁verstand 100
▁wfstuboe 100
▁außerhalb 100
▁bvàfsibmc 100
▁cwágtjcnd 100
▁expensive 100
▁untersche 100
▁depression 100
▁wpvgtuejgk 100
▁kpuvkvwvkqp 100
▁qticpkucvkqp 100
mj 100
rj 100
dpn 100
wjf 100
iced 100
igug 100
viel 100
▁bcm 100
▁cpy 100
▁dog 100
▁fla 100
aging 100
iesen 100
▁cfhf 100
▁hole 100
umjdif 100
▁lbnqg 100
▁indian 100
▁address 100
▁fnpujpo 100
▁hsýoefo 100
▁iboefmo 100
▁itāpfgp 100
▁ivoefsu 100
▁waiting 100
▁herunter 100
▁jgtwpvgt 100
▁xgtuvcpf 100
▁september 100
▁production 100
▁verständnis 100
lex 100
pwp 100
erve 100
esth 100
nngt 100
▁cry 100
▁nüt 100
▁süd 100
▁àyg 100
ieben 100
jqngp 100
reten 100
▁ausz 100
▁dātq 100
▁fsof 100
▁glam 100
▁gtpg 100
▁hfof 100
▁hirn 100
▁hält 100
▁iåmu 100
▁jçnv 100
▁kpht 100
▁krit 100
▁qbsl 100
kturen 100
ßjnnfs 100
▁bedür 100
▁cfeýs 100
▁effiz 100
▁explo 100
▁hotel 100
▁iåoef 100
▁party 100
csfdifo 100
dtgejgp 100
entwick 100
isation 100
ständig 100
uejnwuu 100
▁artist 100
▁divers 100
▁hfcvsu 100
▁invent 100
▁leider 100
▁mfjefs 100
▁ngkfgt 100
ßvofinfo 100
àwpgjogp 100
▁ctvkmgn 100
▁existen 100
▁gründen 100
▁schmerz 100
▁wfsejfo 100
▁critical 100
▁fggjßjfo 100
▁ghhkàkgp 100
▁gmvhßfvh 100
▁ifsvoufs 100
▁ursprüng 100
▁zunächst 100
▁ßvoåditu 100
▁àwpçejuv 100
▁solutions 100
▁uejúpjgkv 100
que 100
vgf 100
ätz 100
çuv 100
ünd 100
▁dw 100
cogu 100
esse 100
gkgp 100
spre 100
vtkg 100
▁fat 100
ejnfo 100
holen 100
▁jump 100
▁kaum 100
▁lbvn 100
▁mcwo 100
▁nasa 100
▁qsjn 100
▁sche 100
gmvkxg 100
juufmo 100
▁bvàfo 100
▁drink 100
▁hörte 100
▁innen 100
▁iøsuf 100
▁jútvg 100
▁lines 100
▁qmbtu 100
▁vowfs 100
geführt 100
sfjdifo 100
▁cfhjoo 100
▁cfßbim 100
▁selben 100
▁tfmcfo 100
▁ugndgp 100
▁current 100
▁protect 100
▁wpsifst 100
▁anywhere 100
▁phänomen 100
▁rjçpqogp 100
▁teaching 100
▁behandlung 100
▁cfiboemvoh 100
▁mtcpmgpjcwu 100
9. 100
qy 100
sa 100
bui 100
dqq 100
▁så 100
▁bgh 100
▁clu 100
fgvgp 100
kpfgt 100
▁emer 100
▁enth 100
▁hart 100
▁hsbe 100
▁läch 100
▁mådi 100
▁nçej 100
▁traf 100
▁usbg 100
▁vert 100
cident 100
▁jgtcp 100
▁teles 100
▁uejgk 100
htkgfgp 100
reprene 100
▁bghibo 100
▁chijcp 100
▁retten 100
▁sfuufo 100
▁tgvvgp 100
▁weight 100
▁wörter 100
▁xøsufs 100
▁yútvgt 100
▁erzeugt 100
▁fgukipgt 100
▁invented 100
▁decisions 100
mäß 100
buch 100
coon 100
uvgu 100
vant 100
▁kir 100
▁vtw 100
▁åsß 100
boefo 100
▁cbmm 100
▁uvqn 100
ctures 100
▁encou 100
▁immun 100
▁rtqvg 100
▁rvbes 100
▁swcft 100
▁verme 100
▁abhäng 100
▁descri 100
▁mnkocy 100
▁nummer 100
▁pwoogt 100
▁random 100
▁zeigte 100
▁ßfjhuf 100
▁àgkivg 100
▁agricul 100
▁driving 100
▁ehrlich 100
▁methode 100
▁nfuipef 100
▁ogvjqfg 100
▁provide 100
▁surgery 100
▁pakistan 100
▁services 100
▁tdiøoifju 100
7, 100
jfà 100
trä 100
wtt 100
▁pf 100
cpfc 100
user 100
whgp 100
▁ext 100
▁uhr 100
▁wbs 100
gnngt 100
rtguu 100
stück 100
ugend 100
▁cwuy 100
▁gpse 100
▁ncwv 100
▁tanz 100
▁usbh 100
stelle 100
▁fcwgt 100
▁mcorh 100
▁spann 100
ibmuvoh 100
▁dgjcwr 100
▁rights 100
▁seines 100
▁tfjoft 100
▁ugkpgu 100
▁artikel 100
▁bsujlfm 100
▁bedeuten 100
▁freiheit 100
▁einkommen 100
▁fjolpnnfo 100
▁gkpmqoogp 100
▁klimawand 100
▁lmjnbxboe 100
▁wfslbvgfo 100
▁xgtmcwhgp 100
▁conversation 100
oçá 100
pqi 100
vso 100
▁oß 100
bnft 100
cpfu 100
plom 100
rncp 100
zahl 100
▁800 100
▁ngu 100
bvfso 100
mente 100
▁beit 100
▁chir 100
▁copy 100
▁dcwo 100
▁efol 100
▁fgpm 100
▁hfxå 100
▁kpio 100
▁lsfj 100
▁mfcf 100
▁ngdg 100
▁obnf 100
▁pcog 100
indust 100
▁ftwem 100
▁tisch 100
▁ujtdi 100
▁vkuej 100
▁patent 100
kgtgpfgp 100
▁balance 100
▁begeist 100
▁becoming 100
▁einfachen 100
▁fjogbdifo 100
▁gkphcejgp 100
▁interpret 100
▁verkaufen 100
▁conference 100
ims 100
▁iw 100
jcpi 100
jdlu 100
kemv 100
▁dür 100
▁qbm 100
bling 100
finfs 100
▁berg 100
▁incu 100
▁jack 100
▁lqjp 100
▁shap 100
gkvwpi 100
orgung 100
▁ifsbo 100
▁lsfjt 100
▁prior 100
▁range 100
▁akzept 100
▁blßfqu 100
▁cmàgrv 100
▁frustr 100
▁winter 100
▁anymore 100
▁nigeria 100
▁schafft 100
▁tdibggu 100
▁eftjhofs 100
▁gestellt 100
▁hftufmmu 100
▁iguvgnnv 100
▁dangerous 100
▁direction 100
▁getroffen 100
▁hfuspggfo 100
▁igvtqhhgp 100
▁geschaffen 100
▁hftdibggfo 100
▁iguejchhgp 100
▁remarkable 100
▁engineering 100
▁mnkocycpfgn 100
▁herausfinden 100
▁ifsbvtgjoefo 100
▁jgtcwuhkpfgp 100
▁landwirtschaft 100
▁mboexjsutdibgu 100
úug 100
cjme 100
cvdi 100
ikdv 100
▁eýs 100
▁lob 100
▁tpe 100
ergie 100
juboo 100
kvcpp 100
pedia 100
ygtmg 100
▁cold 100
▁gros 100
▁hair 100
▁npoe 100
▁owug 100
▁rctm 100
▁rtko 100
▁schm 100
▁vtci 100
▁cfßvh 100
▁final 100
▁floor 100
▁npujw 100
▁suche 100
▁tvdif 100
▁ultim 100
▁uwejg 100
▁xpijo 100
▁yqjkp 100
brechen 100
okvvgnp 100
qspcmfn 100
ttztufn 100
▁gjohfs 100
▁republ 100
▁schaut 100
hfcsbdiu 100
igdtcejv 100
▁fismjdi 100
▁gjtnkej 100
▁jwpfgtv 100
▁einzigen 100
▁fjoßjhfo 100
▁gkpàkigp 100
▁wunderbar 100
rä 100
lvm 100
osp 100
▁jwo 100
▁uqf 100
▁gall 100
▁hwpf 100
▁lpoh 100
dienen 100
rochen 100
spdifo 100
▁dance 100
▁store 100
▁urcpp 100
▁benutz 100
▁decade 100
▁kbisft 100
▁ojfefs 100
▁pkgfgt 100
▁slight 100
▁tdibvu 100
▁uejcwv 100
▁useful 100
▁walked 100
▁xgtjkp 100
▁uejyctà 100
dingungen 100
▁politics 100
▁schicken 100
▁tdijdlfo 100
▁uejkemgp 100
▁cputdibgu 100
▁wfsijoefs 100
▁xvoefscbs 100
▁ywpfgtdct 100
▁foundation 100
▁immediately 100
▁performance 100
▁auswirkungen 100
▁bvtxjslvohfo 100
▁cwuyktmwpigp 100
▁ngkfgpuejchv 100
▁voufstuýußfo 100
▁wpvgtuvāvàgp 100
vf 100
àā 100
ald 100
did 100
ober 100
vgpu 100
▁amp 100
▁bsh 100
▁hfl 100
▁que 100
▁tqp 100
▁veh 100
bewer 100
cfxfs 100
iling 100
jggfo 100
khhgp 100
kvvgn 100
mjdiu 100
poofo 100
▁1970 100
▁erne 100
gungen 100
▁indep 100
▁james 100
▁läuft 100
▁måvgu 100
▁nçwhv 100
▁tqboo 100
▁wesen 100
mitteln 100
▁bedroh 100
▁dibodf 100
▁diplom 100
▁ejcpeg 100
▁income 100
▁lcjtgu 100
▁photos 100
▁remind 100
▁robots 100
▁saving 100
▁erzählte 100
▁fsßåimuf 100
▁greatest 100
▁gtàçjnvg 100
▁following 100
▁überrasch 100
▁entreprene 100
▁unglaubliche 100
▁vohmbvcmjdif 100
▁wpincwdnkejg 100
va 100
▁lj 100
mend 100
qugp 100
vefs 100
wert 100
xfjm 100
▁jun 100
leist 100
▁dgcp 100
▁legs 100
▁task 100
▁enjoy 100
▁hände 100
▁løojh 100
▁whose 100
▁cfovuß 100
▁jahres 100
▁ocvgtkg 100
industrie 100
kpfwuvtkg 100
▁cjpmphjf 100
▁kollegen 100
▁lpmmfhfo 100
▁mqnngigp 100
▁ycejuvwo 100
▁operation 100
▁zeitpunkt 100
▁ßfjuqvolu 100
▁àgkvrwpmv 100
▁connection 100
▁fortschritt 100
-- 100
ays 100
ton 100
umb 100
zwe 100
øtf 100
dass 100
ilfe 100
izes 100
ugnp 100
xjmm 100
ycpf 100
yknn 100
▁hey 100
▁jon 100
▁mur 100
▁tes 100
jknhg 100
uvgou 100
▁isol 100
▁uifs 100
▁vere 100
▁xpio 100
▁dgfāth 100
▁rwpmvg 100
▁sftvmu 100
▁status 100
▁tguwnv 100
▁thomas 100
▁erstens 100
▁fstufot 100
▁gehirns 100
▁gtuvgpu 100
▁dkqnqikg 100
nkejgtygkug 100
▁experiments 100
bsg 100
eth 100
fjg 100
▁0, 100
▁dü 100
▁nj 100
▁qf 100
berg 100
boeb 100
ofuf 100
vtfs 100
weil 100
weju 100
▁fāt 100
▁gfo 100
▁mft 100
entie 100
▁gebe 100
▁none 100
iwpigp 100
pwpigp 100
tqejgp 100
▁chair 100
▁kampf 100
▁stock 100
ßvhfifo 100
▁desert 100
▁itwpfu 100
▁nieder 100
▁austral 100
▁automat 100
entlichen 100
▁hnwiàgwi 100
▁obujpobm 100
▁temperatur 100
▁unterstützen 100
kar 100
vqu 100
iles 100
jfuf 100
ygkn 100
▁mqn 100
▁wis 100
uster 100
▁frem 100
▁fuel 100
▁gsfn 100
▁hfgå 100
quence 100
tragen 100
▁lpnqp 100
▁unver 100
▁weren 100
ierende 100
vluvsfo 100
▁flying 100
▁forget 100
▁fsfjho 100
▁klasse 100
▁lmbttf 100
▁mncuug 100
▁qvoluf 100
▁westen 100
▁worten 100
▁xpsufo 100
▁yqtvgp 100
▁harvard 100
▁biologie 100
▁erwarten 100
▁fsxbsufo 100
▁gtyctvgp 100
▁specific 100
▁creativity 100
▁instrument 100
▁organisation 100
pot 100
..." 100
cbmm 100
krrg 100
▁ßju 100
fmmfs 100
rvfoß 100
turen 100
▁adop 100
▁htgo 100
▁mont 100
sjfefo 100
stoffe 100
▁bvupn 100
▁forth 100
▁jtmbn 100
▁raise 100
kamente 100
arbeiter 100
ctdgkvgt 100
▁comfort 100
▁letztes 100
▁mfußuft 100
▁ngvàvgu 100
▁protein 100
▁survive 100
▁cultural 100
▁deswegen 100
▁eftxfhfo 100
▁fguygigp 100
▁tgnkikqp 100
bct 100
öse 100
jcpf 100
last 100
▁jan 100
acity 100
kpfgv 100
ngkuv 100
nnfso 100
▁2010 100
▁ibsu 100
▁ivoh 100
▁moon 100
▁oýuß 100
▁uvcd 100
▁cpuvg 100
▁erfor 100
▁ignor 100
▁types 100
▁verbr 100
▁ygtvg 100
gtygkug 100
ßvtbhfo 100
▁wfstps 100
joevtusjf 100
▁erfunden 100
▁fsgvoefo 100
▁gthwpfgp 100
▁ifvujhfo 100
▁jgwvkigp 100
▁dgjcpfgnp 100
▁gefängnis 100
▁wikipedia 100
db 100
fy 100
jmu 100
key 100
nåà 100
qsý 100
ray 100
spl 100
tgk 100
vtq 100
ýtu 100
▁qn 100
dcjp 100
çjtv 100
▁10, 100
▁cpr 100
▁cti 100
▁mas 100
▁rob 100
ipmfo 100
tkgtg 100
▁docu 100
▁grad 100
▁hqtu 100
▁nvmu 100
annien 100
ejnfot 100
laufen 100
schirm 100
▁bohfo 100
▁slide 100
àwucigp 100
▁commer 100
▁dijsvs 100
▁ejktwt 100
▁mobile 100
▁wpstdi 100
hfgvoefo 100
ighwpfgp 100
▁predict 100
▁vgnghqp 100
▁heutigen 100
▁htgkjgkv 100
▁temperature 100
▁institutions 100
▁pshbojtbujpo 100
4. 100
abl 100
ifu 100
ord 100
ums 100
time 100
▁anp 100
▁hgp 100
▁qip 100
▁tom 100
aries 100
endes 100
▁ausl 100
▁darf 100
▁fgwv 100
▁jctv 100
▁jene 100
▁kfof 100
▁lgpg 100
▁tubc 100
▁armen 100
▁osten 100
▁react 100
▁spekt 100
uefttfo 100
▁bodies 100
▁dramat 100
▁ibvqut 100
▁lbnfsb 100
▁punkte 100
bscfjufs 100
▁qfsgflu 100
▁enormous 100
▁erinnere 100
▁fsjoofsf 100
▁gtkppgtg 100
▁networks 100
▁marketing 100
▁voufstvdi 100
▁wpvgtuwej 100
▁angefangen 100
▁bohfgbohfo 100
▁cpighcpigp 100
▁erstaunlich 100
▁gtuvcwpnkej 100
▁materialien 100
▁nbufsjbmjfo 100
▁ocvgtkcnkgp 100
▁unfortunately 100
zm 100
bej 100
ela 100
ius 100
lpt 100
pmß 100
▁bt 100
▁ic 100
gues 100
tgej 100
änge 100
▁efm 100
▁efv 100
vgnng 100
▁aktu 100
▁bluv 100
▁hang 100
▁heat 100
▁kpug 100
▁leid 100
▁àwuç 100
▁abend 100
▁manip 100
▁stren 100
▁throw 100
schiede 100
▁cftdis 100
▁gthcjt 100
▁landsc 100
▁police 100
▁sodass 100
▁tpebtt 100
▁uqfcuu 100
juboojfo 100
kvcppkgp 100
▁globale 100
▁inqdcng 100
▁mehrere 100
▁nfisfsf 100
▁ogjtgtg 100
▁ebenfalls 100
▁fcfogbmmt 100
▁gdgphcnnu 100
▁stattdessen 100
▁tubuuefttfo 100
▁uvcvvfguugp 100
▁konzentrieren 100
▁lpoßfousjfsfo 100
▁mqpàgpvtkgtgp 100
za 100
vsß 100
ejhu 100
mark 100
▁dur 100
▁ips 100
▁kut 100
▁lpp 100
▁mju 100
▁org 100
▁oçt 100
▁ywp 100
anter 100
cwdgt 100
gmvgp 100
qmbuß 100
ritte 100
ugkvg 100
▁cmvw 100
▁gvoe 100
tdijfe 100
vkqpgp 100
▁apple 100
▁coast 100
▁hftqs 100
▁steve 100
▁bvtesvdl 100
▁californ 100
▁gsfjifju 100
▁ivoefsuf 100
▁practice 100
iguejkejvg 100
▁understood 100
beb 100
ogv 100
xgn 100
▁ln 100
ense 100
lück 100
ugtp 100
çigt 100
▁fgn 100
▁boys 100
▁fsxå 100
▁golf 100
▁ktcp 100
ufncfs 100
vgodgt 100
▁bsnfo 100
▁ctogp 100
▁funny 100
▁werte 100
▁xfsuf 100
cmjdifo 100
▁cjpwpi 100
▁forces 100
▁fsgbis 100
▁kamera 100
▁stress 100
▁doctors 100
▁hmpcbmf 100
▁trouble 100
▁various 100
▁willing 100
▁ausdruck 100
▁cwuftwem 100
▁hunderte 100
▁jwpfgtvg 100
▁lösungen 100
▁møtvohfo 100
▁núuwpigp 100
▁ofußxfsl 100
▁kilometer 100
▁öffentlichen 100
▁øggfoumjdifo 100
▁úhhgpvnkejgp 100
▁eigenschaften 100
▁fjhfotdibgufo 100
▁gkigpuejchvgp 100
vú 100
?", 100
kgvg 100
loss 100
qtig 100
sfdi 100
▁hpm 100
▁mär 100
▁rcn 100
▁tqv 100
äsent 100
▁auge 100
▁bvhf 100
▁cwig 100
▁hfif 100
▁jsbo 100
▁nfub 100
▁hsptt 100
▁kunco 100
▁10,000 100
▁stunde 100
▁tuvoef 100
▁uvwpfg 100
▁kulture 100
▁stimmen 100
▁tujnnfo 100
▁uvkoogp 100
▁ßvsýdll 100
▁àwtāemm 100
▁pgvàygtm 100
▁schützen 100
▁tdiýußfo 100
▁uejāvàgp 100
▁wfssýdlu 100
▁xgttāemv 100
▁behandeln 100
▁cfiboefmo 100
▁cfnfslfot 100
▁dgogtmgpu 100
▁alternative 100
jk 100
bie 100
cto 100
ahlt 100
brit 100
eras 100
pmph 100
tech 100
tube 100
▁van 100
dgygt 100
▁cust 100
▁dcnn 100
▁igjg 100
▁nbtt 100
hvohfo 100
qbttfo 100
▁jotus 100
▁kpuvt 100
▁neuer 100
▁print 100
▁accept 100
▁erfahr 100
▁gbmmfo 100
▁hcnngp 100
▁mfsouf 100
▁mostly 100
▁uqàkcn 100
▁bedürfn 100
▁cfeýsgo 100
▁lvmuvsf 100
▁xgtukqp 100
▁directly 100
▁mountain 100
cnkukgtwpi 100
▁restaurant 100
▁television 100
▁herzustellen 100
▁ifsßvtufmmfo 100
▁jgtàwuvgnngp 100
bnj 100
cyc 100
muf 100
qbh 100
qfo 100
sbl 100
▁85 100
bahn 100
hjcu 100
itor 100
opdi 100
▁fer 100
▁irr 100
▁ogt 100
▁rec 100
ijmgf 100
▁bush 100
▁erfü 100
▁fsgý 100
▁gthā 100
▁nfdi 100
▁tgur 100
▁ukip 100
igdcwv 100
▁anges 100
▁apply 100
▁emerg 100
▁genom 100
▁mobil 100
▁partn 100
fouxjdl 100
gesetzt 100
qfsbuvs 100
▁selten 100
▁tfmufo 100
▁ugnvgp 100
▁unique 100
▁zeiten 100
▁ßfjufo 100
▁àgkvgp 100
▁rechten 100
▁sfdiufo 100
▁tgejvgp 100
▁ußuvgog 100
▁pcvkqpcn 100
▁societies 100
4, 100
bü 100
gbis 100
onie 100
ucig 100
▁fac 100
▁gpl 100
▁vko 100
jtups 100
kuvqt 100
▁hous 100
▁ogtm 100
atives 100
qtiwpi 100
reifen 100
tfmcfo 100
▁cwvqt 100
▁email 100
▁fällt 100
▁gåmmu 100
▁hçnnv 100
barkeit 100
qticpku 100
▁double 100
▁forest 100
▁german 100
▁jcwrvu 100
▁shared 100
▁vorbei 100
▁wfsgýh 100
▁gedacht 100
▁hfebdiu 100
▁igfcejv 100
▁respect 100
▁systeme 100
▁tdixbsß 100
▁tztufnf 100
▁produkte 100
▁profound 100
▁qspevluf 100
▁reaktion 100
▁rtqfwmvg 100
▁francisco 100
▁iguejçhvu 100
▁beziehungen 100
▁cfßjfivohfo 100
▁dgàkgjwpigp 100
▁medikamente 100
▁nfejlbnfouf 100
▁ogfkmcogpvg 100
▁kbisivoefsut 100
▁consciousness 100
ech 100
ogn 100
vbs 100
cipq 100
npef 100
wann 100
xboo 100
haben 100
ibcfo 100
inter 100
nisse 100
ufufo 100
unsch 100
▁cfmf 100
▁dopp 100
▁fcth 100
▁ahead 100
▁birds 100
▁event 100
▁valle 100
antwort 100
bssjfsf 100
cnkuowu 100
pshbojt 100
▁commit 100
▁farben 100
▁fsßåim 100
▁gbscfo 100
▁hctdgp 100
▁nahmen 100
▁obinfo 100
▁pcjogp 100
▁robert 100
▁summer 100
▁tkukmq 100
▁kontakt 100
▁militär 100
▁jemandem 100
▁kfnboefn 100
▁lgocpfgo 100
▁negative 100
▁netzwerk 100
▁projekte 100
▁qspkfluf 100
▁rtqlgmvg 100
csjuboojfo 100
dtkvcppkgp 100
▁condition 100
▁regierungen 100
▁sfhjfsvohfo 100
▁tgikgtwpigp 100
▁jahrhunderts 100
▁lcjtjwpfgtvu 100
cfc 100
mvn 100
qgm 100
uif 100
dwej 100
nboo 100
tion 100
wart 100
▁cpf 100
▁enc 100
▁epl 100
▁fok 100
▁fqm 100
▁hqm 100
▁lāp 100
▁pig 100
jolfo 100
lfjut 100
▁wire 100
fjufso 100
▁below 100
▁loved 100
▁mfhfo 100
aterial 100
▁ahnung 100
▁biovoh 100
▁ganzes 100
▁hboßft 100
▁hsvoet 100
▁icpàgu 100
▁levels 100
▁uqoogt 100
▁evolved 100
▁xgthāid 100
▁àwuvcpf 100
▁speaking 100
▁zweitens 100
▁ßxfjufot 100
▁àygkvgpu 100
▁financial 100
▁hfgåohojt 100
▁wichtigste 100
▁xjdiujhtuf 100
▁ykejvkiuvg 100
hp 100
oop 100
qqn 100
jpgp 100
māph 100
oepo 100
āign 100
▁mbt 100
▁ros 100
▁sar 100
▁ven 100
arter 100
cnkuv 100
kpmgp 100
▁alex 100
▁kfgp 100
▁kýoh 100
▁ocuu 100
ejhvoh 100
itcoog 100
▁autor 100
▁bvups 100
▁guter 100
▁hvufs 100
▁insel 100
▁iwvgt 100
▁mjfcm 100
▁nkgdn 100
▁stern 100
▁tests 100
▁democr 100
▁destro 100
▁helped 100
▁sfdiuf 100
▁strugg 100
▁tgejvg 100
▁tdimvtt 100
▁tremend 100
▁gkpàkict 100
▁größeren 100
▁hsøàfsfo 100
▁itúágtgp 100
▁brilliant 100
▁california 100
maß 100
qgf 100
why 100
yth 100
ärm 100
bufh 100
fnjf 100
pcfs 100
uejy 100
vàgt 100
▁qjm 100
bnfou 100
bvfsu 100
cwgtv 100
right 100
▁gpst 100
▁intr 100
▁itch 100
▁jüng 100
▁nqpf 100
▁weap 100
▁ygig 100
▁aware 100
▁cdgpf 100
▁hydro 100
▁legen 100
▁liste 100
▁mjtuf 100
▁river 100
▁surve 100
esýdlfo 100
vention 100
▁frühen 100
▁gsýifo 100
▁htājgp 100
▁ngtpvg 100
▁uvtcvg 100
position 100
▁dgtgejp 100
▁purpose 100
▁übersch 100
▁geograph 100
▁sfmjhjpo 100
▁effective 100
▁einzigart 100
▁entstehen 100
▁fjoßjhbsu 100
▁foutufifo 100
▁gpvuvgjgp 100
▁studieren 100
▁tdimýttfm 100
▁tuvejfsfo 100
▁yktvuejchvu 100
▁wfsbouxpsuvoh 100
▁xgtcpvyqtvwpi 100
ufe 100
xkg 100
dert 100
jfmt 100
wvàv 100
▁ame 100
▁bnf 100
▁fku 100
▁fsm 100
maßen 100
orgen 100
▁mand 100
▁term 100
▁vcpà 100
ashion 100
tuåoef 100
▁adapt 100
▁ideal 100
▁klass 100
▁lmbtt 100
▁sympt 100
bouxpsu 100
jcnvwpi 100
qurjçtg 100
▁causes 100
▁freude 100
▁gsfvef 100
▁htgwfg 100
▁lernte 100
▁lpoujo 100
▁nbttfo 100
▁ocuugp 100
▁supply 100
▁extreme 100
▁produced 100
▁challenges 100
▁verbringen 100
▁wfscsjohfo 100
▁xgtdtkpigp 100
▁wichtigsten 100
▁xjdiujhtufo 100
▁ykejvkiuvgp 100
▁gpvykemnwpiun 100
abs 100
dgf 100
fej 100
xås 100
▁ts 100
aper 100
ikgt 100
jggf 100
qágp 100
thin 100
usjf 100
▁cdn 100
▁cve 100
▁fsi 100
▁pqt 100
water 100
▁aufz 100
▁epqq 100
▁gefä 100
▁gent 100
▁join 100
▁lmfj 100
▁mcwh 100
▁sftq 100
▁wege 100
▁wett 100
▁xfhf 100
▁catch 100
▁echte 100
▁komme 100
▁lpnnf 100
▁mncuu 100
▁mqoog 100
▁nkuvg 100
▁pgwgt 100
▁photo 100
▁sorry 100
▁hypoth 100
▁massen 100
▁wenige 100
▁xfojhf 100
▁ygpkig 100
uejncigp 100
▁bestand 100
▁cftuboe 100
▁dgitkhh 100
▁njmjuås 100
▁respekt 100
▁schrift 100
▁tdisjgu 100
▁uejnwuu 100
▁wfstjpo 100
diopmphjf 100
▁effektiv 100
▁possibly 100
▁werkzeuge 100
▁xfslßfvhf 100
▁ygtmàgwig 100
▁inspiration 100
tv 100
gjo 100
mgn 100
erin 100
look 100
läss 100
pshf 100
▁cpv 100
cules 100
fgnng 100
jcdgp 100
paign 100
▁ausw 100
▁drop 100
▁weib 100
▁àwig 100
▁àwuv 100
cvkqpu 100
ielten 100
▁ijoßv 100
▁laden 100
▁rechn 100
nøhmjdi 100
rtçugpv 100
▁career 100
▁toilet 100
▁xftufo 100
▁yguvgp 100
minister 100
▁account 100
▁bringing 100
▁feedback 100
▁gegangen 100
▁großbrit 100
▁hfhbohfo 100
▁igicpigp 100
▁biological 100
▁governments 100
▁veränderungen 100
▁wfsåoefsvohfo 100
▁xgtçpfgtwpigp 100
▁xgtúhhgpvnkej 100
kle 100
ubh 100
ukg 100
▁hi 100
▁ti 100
ikas 100
▁dol 100
frika 100
laden 100
orien 100
xåsut 100
▁glas 100
▁hing 100
▁jcnn 100
▁oqpf 100
bgsjlb 100
chtkmc 100
cwtkgt 100
▁5.000 100
▁jogsb 100
▁kreis 100
▁veran 100
▁wfsbo 100
hājtwpi 100
ptqiåsf 100
▁cooper 100
▁decide 100
▁effects 100
▁explore 100
▁popular 100
▁prevent 100
cuvtwmvwt 100
▁campaign 100
▁citizens 100
▁terrible 100
▁maschinen 100
▁verfügung 100
▁kreativität 100
▁kommunikation 100
3. 100
prü 100
chhv 100
eful 100
iete 100
tusf 100
▁bdi 100
▁roh 100
▁usw 100
hçnng 100
jgpso 100
khqtp 100
▁fyqm 100
▁gzrn 100
▁kauf 100
▁ucpf 100
▁wood 100
anning 100
jwjuåu 100
▁sfdio 100
▁zusch 100
ception 100
qsåtfou 100
▁gering 100
▁haupts 100
▁hfsjoh 100
▁laptop 100
▁ogejcp 100
▁rechte 100
▁romant 100
▁wealth 100
▁ancient 100
▁conserv 100
▁eigenes 100
▁erleben 100
▁fjhfoft 100
▁fsmfcfo 100
▁gkigpgu 100
▁gtngdgp 100
▁obvious 100
▁sharing 100
▁metaphor 100
▁folgendes 100
▁gpmhfoeft 100
▁hqnigpfgu 100
▁institute 100
▁wfsgýhvoh 100
▁xgthāiwpi 100
▁sicherlich 100
▁tjdifsmjdi 100
▁ukejgtnkej 100
mú 100
ino 100
ufa 100
åtu 100
▁55 100
atte 100
jlbt 100
okay 100
umen 100
vgit 100
wise 100
▁10- 100
▁mqo 100
▁ski 100
▁sla 100
arian 100
dingt 100
etzte 100
pttfo 100
sfdiu 100
sfjtf 100
▁biom 100
▁eqqn 100
▁flex 100
▁hört 100
▁iøsu 100
▁jútv 100
▁mpdi 100
▁nqej 100
▁stan 100
achten 100
pmphjf 100
qejvgt 100
rieden 100
▁könnt 100
▁ngigp 100
▁simul 100
zugehen 100
▁beeind 100
▁bought 100
▁compon 100
▁cwugkp 100
▁dgàcjn 100
▁flight 100
▁jugend 100
▁mcogtc 100
▁ýcfsmf 100
▁focused 100
▁fsßfvhu 100
▁gpfnkej 100
▁gtàgwiv 100
▁lopdifo 100
▁dibsblufs 100
▁jshfoefjo 100
▁ktigpfgkp 100
▁nbtdijofo 100
▁komplexität 100
▁sustainable 100
▁zusammenhang 100
▁großbritannien 100
▁hspàcsjuboojfo 100
▁itqádtkvcppkgp 100
mü 100
elf 100
jlu 100
qvjg 100
▁cej 100
ejoht 100
fgpsn 100
fkpiu 100
gaben 100
hbcfo 100
polit 100
▁aufw 100
▁dppm 100
▁fett 100
▁lbvg 100
▁note 100
jfmufo 100
kgnvgp 100
selben 100
uejkto 100
wpmmfo 100
xqnngp 100
▁brown 100
▁hfopn 100
▁match 100
▁typen 100
▁uzqfo 100
▁vßrgp 100
▁weiss 100
▁50.000 100
▁golden 100
▁honest 100
▁langen 100
▁mbohfo 100
▁ncpigp 100
▁qijmpt 100
▁rjknqu 100
▁studio 100
▁tdimbh 100
▁tdivuß 100
▁uejwvà 100
▁úhhpgp 100
▁größere 100
▁hsøàfsf 100
▁itúágtg 100
▁inspired 100
▁designers 100
▁entschied 100
▁uejnāuugn 100
▁complexity 100
▁profession 100
▁xgtjcnvgpu 100
▁bvtfjoboefs 100
▁cwugkpcpfgt 100
▁erfahrungen 100
▁fsgbisvohfo 100
▁gthcjtwpigp 100
▁bh 100
▁mw 100
▁mç 100
▁sø 100
aker 100
ires 100
sbfm 100
ährt 100
▁dcn 100
▁dwf 100
▁joy 100
▁wid 100
bvcfs 100
orted 100
▁bsnf 100
▁gorh 100
▁hsbg 100
▁sboe 100
▁cyber 100
▁dçwog 100
▁twice 100
▁xfjtt 100
▁ygkuu 100
btdijof 100
fstupgg 100
oúinkej 100
▁dunkel 100
▁empath 100
▁evolfm 100
▁fühlte 100
▁gýimuf 100
▁hājnvg 100
▁nvtfvn 100
▁schutz 100
▁tieren 100
▁tpnnfs 100
▁trifft 100
▁ujfsfo 100
▁usjggu 100
▁vkgtgp 100
▁vtkhhv 100
▁wjfsuf 100
▁øggofo 100
▁kapital 100
▁knochen 100
▁markets 100
▁qmbtujl 100
▁ßjwjmjt 100
▁àkxknku 100
▁diseases 100
▁instance 100
▁sfblujpo 100
geschichte 100
▁botschaft 100
▁foutdijfe 100
▁gpvuejkgf 100
▁scientist 100
:" 100
dz 100
det 100
hip 100
ikt 100
iqt 100
nkg 100
olo 100
angt 100
kmcu 100
rect 100
▁bac 100
▁dgv 100
▁rqr 100
▁tib 100
ocuej 100
örung 100
▁htāj 100
imeter 100
▁bäume 100
▁cpigd 100
▁cåvnf 100
▁wfscm 100
▁budget 100
▁pgtxgp 100
▁qpufou 100
▁öffnen 100
▁dguvcpf 100
▁gfotufs 100
▁hgpuvgt 100
▁perfekt 100
ßvcsjohfo 100
▁begonnen 100
▁cfhpoofo 100
▁dgiqppgp 100
▁ocuejkpgp 100
▁experimente 100
▁fyqfsjnfouf 100
▁lpnqmfyjuåu 100
▁lsfbujwjuåu 100
▁mqorngzkvçv 100
▁mtgcvkxkvçv 100
tc 100
åo 100
200 100
cpg 100
ejl 100
gsf 100
hāt 100
ios 100
ngtp 100
qspk 100
sfäh 100
uvci 100
āuug 100
psgfo 100
warum 100
xbsvn 100
yctwo 100
øsvoh 100
▁2009 100
▁abzu 100
▁fqrr 100
foovoh 100
gppwpi 100
▁tpxjf 100
▁uqykg 100
▁active 100
▁coffee 100
▁gtàçjn 100
▁usbotq 100
▁definit 100
▁fqtvjkp 100
▁kbisßfi 100
▁youtube 100
▁charakter 100
▁irgendein 100
▁molecules 100
▁communication 100
8. 100
rc 100
āuv 100
anne 100
esis 100
kejg 100
wgtp 100
▁htw 100
▁qjo 100
ships 100
▁alph 100
▁beat 100
▁cfgs 100
▁hmbt 100
▁laws 100
cjfsfo 100
ennung 100
flusst 100
hfcbvu 100
utlich 100
▁aster 100
▁gpqto 100
▁pshbo 100
▁seien 100
▁shock 100
▁teams 100
▁tfjfo 100
▁ugkgp 100
▁determ 100
▁manufa 100
▁medium 100
▁mpoepo 100
▁nqpfqp 100
▁reform 100
▁remain 100
▁valley 100
▁vulner 100
▁yellow 100
▁endlich 100
▁epsuijo 100
▁fenster 100
▁foemjdi 100
▁privile 100
▁respond 100
▁fgwvnkej 100
▁leistung 100
▁mfjtuvoh 100
▁beeinflus 100
▁mcvcuvtqr 100
▁wfsibmufot 100
dk 100
fa 100
xo 100
fit 100
pft 100
rom 100
tjf 100
xis 100
iftf 100
▁lfo 100
▁ofh 100
▁pgk 100
▁tbm 100
▁tip 100
▁zuh 100
vkigu 100
▁bupn 100
▁mbvu 100
▁nýmm 100
▁summ 100
▁verr 100
▁desto 100
▁eftup 100
▁fguvq 100
▁frame 100
▁gmvtt 100
▁moder 100
▁rgtur 100
▁smell 100
▁traff 100
vvdgygt 100
çpfnkej 100
▁closer 100
▁hunger 100
▁iåvgjh 100
▁kutcgn 100
▁oxygen 100
▁played 100
▁spitze 100
▁stabil 100
▁tqjußf 100
▁urkvàg 100
fuucfxfs 100
verständ 100
▁artists 100
▁dorthin 100
▁geschah 100
▁hftdibi 100
▁iguejcj 100
▁mpqejgp 100
▁cfbouxps 100
▁spending 100
▁lbubtuspq 100
▁ßvtbnnfoiboh 100
acy 100
ags 100
ahn 100
gin 100
tes 100
zed 100
ancy 100
cpiv 100
ctvg 100
jgug 100
jqqf 100
▁saf 100
cuvgt 100
gency 100
nkejv 100
ossen 100
útwpi 100
▁bele 100
▁dgng 100
▁jgtt 100
▁vgor 100
ession 100
▁broad 100
▁ejtku 100
▁horiz 100
▁wohin 100
▁20.000 100
▁analog 100
▁atlant 100
▁breast 100
▁distri 100
▁iguejn 100
▁joufhs 100
▁kpvgit 100
▁memory 100
▁resist 100
▁sommer 100
▁devices 100
▁gefühle 100
▁hfgýimf 100
▁ighājng 100
▁tochter 100
▁updiufs 100
▁vqejvgt 100
▁brauchte 100
▁csbvdiuf 100
▁dtcwejvg 100
▁fmfluspo 100
▁gngmvtqp 100
▁qfstqflu 100
▁einfacher 100
▁existiert 100
▁fjogbdifs 100
▁fyjtujfsu 100
▁gkphcejgt 100
▁gzkuvkgtv 100
▁repräsent 100
▁verantwort 100
▁infrastructure 100
yc 100
zn 100
spu 100
çuu 100
▁fā 100
bohu 100
cpfg 100
fgpm 100
hfiu 100
hguv 100
tubh 100
wenn 100
xfoo 100
ygpp 100
▁cbm 100
▁daß 100
▁ebà 100
▁ejn 100
▁fcá 100
aling 100
bmjtu 100
point 100
wärts 100
▁desp 100
▁ebsg 100
▁held 100
▁lack 100
▁lfso 100
▁nftt 100
▁ritu 100
▁sjdi 100
▁tkej 100
▁ygkd 100
blemen 100
ejfsfo 100
umjdiu 100
vnkejv 100
▁fühle 100
▁gýimf 100
▁hājng 100
▁offic 100
▁polio 100
▁ptufo 100
▁quvgp 100
▁astero 100
▁custom 100
▁erstes 100
▁fstuft 100
▁fällen 100
▁garden 100
▁grunds 100
▁gtuvgu 100
▁gåmmfo 100
▁häufig 100
▁hçnngp 100
▁waffen 100
▁wählen 100
▁xbggfo 100
▁xåimfo 100
▁ychhgp 100
▁yçjngp 100
▁foumboh 100
▁mqpvcmv 100
▁nations 100
▁telefon 100
▁capacity 100
▁elektron 100
▁pressure 100
▁beeinflusst 100
▁cffjogmvttu 100
▁dggkphnwuuv 100
▁àwucoogpjcpi 100
7. 100
àß 100
fuf 100
sst 100
▁jw 100
bing 100
ctej 100
ench 100
fsjo 100
hung 100
outh 100
▁gig 100
▁sir 100
▁ucn 100
csvdi 100
jttfs 100
markt 100
tgejv 100
xfdit 100
▁denk 100
▁müll 100
schutz 100
uvqhhg 100
vguvgp 100
▁degre 100
▁ofvfs 100
▁tolle 100
▁upmmf 100
llywood 100
▁jçwhki 100
▁nerven 100
▁verfüg 100
▁wpsbvt 100
▁ycpfgn 100
▁dgigkuv 100
▁konstru 100
▁mqpuvtw 100
▁vorhers 100
▁zentrum 100
▁ßfousvn 100
▁dggkpftw 100
▁riesigen 100
▁rqukvkqp 100
▁sjftjhfo 100
▁tkgukigp 100
▁schlüssel 100
▁atmosphere 100
▁verursacht 100
▁wfsbouxpsu 100
▁wfsvstbdiu 100
▁xgtwtucejv 100
▁joufsfttboufs 100
▁kphtcuvtwmvwt 100
▁kpvgtguucpvgt 100
80 100
fz 100
mvh 100
pou 100
rad 100
ubv 100
wfm 100
bewe 100
cell 100
digt 100
hjfs 100
inct 100
term 100
üsse 100
▁bos 100
▁ipn 100
▁obt 100
▁ofu 100
▁vwo 100
boouf 100
ogvgt 100
▁2050 100
▁fdiu 100
▁gejv 100
▁harm 100
▁mart 100
▁plus 100
▁qfsg 100
▁sick 100
▁trip 100
illion 100
lieben 100
treten 100
▁dokum 100
▁fluss 100
▁fsxåi 100
▁fühlt 100
▁gýimu 100
▁hnwuu 100
▁hājnv 100
▁somit 100
▁tgejp 100
▁titel 100
▁tpnju 100
▁uqokv 100
▁beteil 100
▁cftvdi 100
▁cfufjm 100
▁dguwej 100
▁dgvgkn 100
▁eating 100
▁kostet 100
▁lptufu 100
▁mquvgv 100
▁norden 100
▁decades 100
▁entlang 100
▁gpvncpi 100
▁igjgkop 100
▁lpnqmjß 100
▁mqornkà 100
▁oknkvçt 100
▁tgurgmv 100
▁ucwgtuv 100
▁workers 100
▁erlauben 100
▁fsmbvcfo 100
▁gtncwdgp 100
▁qptjujpo 100
▁slightly 100
▁fernsehen 100
▁gfsotfifo 100
▁hgtpugjgp 100
▁ighçpipku 100
▁psycholog 100
▁published 100
fq 100
tä 100
dnā 100
gev 100
iop 100
nbà 100
ocá 100
quß 100
uls 100
ühr 100
stag 100
▁bci 100
▁jqo 100
crrgp 100
▁anth 100
▁dnqá 100
▁loch 100
▁paid 100
▁span 100
mvqtgp 100
vcwugp 100
▁appar 100
▁digit 100
▁disjt 100
▁gtúhh 100
▁legal 100
▁nehme 100
▁ofinf 100
▁pgjog 100
▁sbejp 100
▁zelle 100
▁àgnng 100
▁academ 100
▁bitten 100
▁lights 100
▁master 100
▁rücken 100
▁sýdlfo 100
▁tāemgp 100
▁degrees 100
▁lpoublu 100
▁sftqflu 100
▁verhält 100
▁wfsiåmu 100
▁xgtjçnv 100
▁xqtuejn 100
▁freunden 100
▁gsfvoefo 100
▁htgwpfgp 100
▁mqphgtgpà 100
▁gelegenheit 100
▁gesundheits 100
▁verbindungen 100
▁wfscjoevohfo 100
▁xgtdkpfwpigp 100
6, 100
nc 100
lmb 100
qpi 100
sie 100
irne 100
▁ejg 100
▁kph 100
▁nfy 100
▁ogz 100
▁stä 100
▁ycn 100
cript 100
efufo 100
mtgdu 100
▁koll 100
▁lpmm 100
▁mqnn 100
▁race 100
▁subt 100
▁urgm 100
▁wouv 100
stände 100
▁hielt 100
▁kennt 100
▁lfoou 100
▁mgppv 100
▁ßfmmf 100
▁ßvtdi 100
ibution 100
vàwpigp 100
▁bridge 100
▁eröffn 100
▁fsøggo 100
▁fwpmgn 100
▁gentle 100
▁gotten 100
▁pollen 100
▁cfhfjtu 100
▁depress 100
▁einsatz 100
▁fjotbuß 100
▁gkpucvà 100
▁hearing 100
▁dgcpvyqt 100
▁erinnert 100
▁fsjoofsu 100
▁gtkppgtv 100
▁ljmpnfufs 100
▁mknqogvgt 100
▁weiterhin 100
▁xfjufsijo 100
▁ygkvgtjkp 100
▁produziert 100
▁qspevßjfsu 100
▁rtqfwàkgtv 100
▁kontrollieren 100
▁lpouspmmjfsfo 100
▁geschwindigkeit 100
▁hftdixjoejhlfju 100
▁iguejykpfkimgkv 100
aps 100
blü 100
edy 100
frv 100
jtg 100
nfu 100
rtā 100
unt 100
ypt 100
▁33 100
bank 100
bsdi 100
bvsb 100
cked 100
gpfg 100
igjv 100
sbuf 100
çpig 100
üben 100
ýcfo 100
ādgp 100
▁sfg 100
achte 100
fjujh 100
vguvg 100
▁cfmp 100
▁hgvv 100
▁prec 100
efully 100
kament 100
▁todes 100
▁upeft 100
▁wjsvt 100
▁worst 100
▁ärzte 100
▁åsßuf 100
▁çtàvg 100
▁applic 100
▁demand 100
▁explos 100
▁gather 100
▁schöne 100
▁tdiøof 100
▁tissue 100
▁uejúpg 100
▁collect 100
▁spreche 100
▁tqsfdif 100
▁urtgejg 100
▁astronom 100
▁cftdisfj 100
▁daughter 100
▁differences 100
▁hfmfhfoifju 100
▁igngigpjgkv 100
▁intelligenz 100
▁unterschiede 100
▁voufstdijfef 100
▁wpvgtuejkgfg 100
▁mqpvtqnnkgtgp 100
5. 100
cmg 100
fjc 100
hib 100
ros 100
ury 100
uvw 100
bmmf 100
mptt 100
▁asp 100
▁ält 100
dtwej 100
eding 100
eline 100
icket 100
▁cboe 100
▁fell 100
▁seas 100
dieren 100
▁bread 100
▁itquu 100
▁leads 100
▁octmg 100
▁quant 100
▁stolz 100
▁tqocp 100
▁wirst 100
▁xjstu 100
▁yktuv 100
uejcwgp 100
▁begegn 100
▁ofswfo 100
▁tgkejv 100
gefunden 100
okpkuvgt 100
▁illustr 100
▁lmbttfo 100
▁mncuugp 100
▁plastik 100
▁àgpvtwo 100
▁beantwor 100
▁erforsch 100
▁modernen 100
▁neuronen 100
▁npefsofo 100
▁ofvspofo 100
▁oqfgtpgp 100
▁geschafft 100
▁hftdibggu 100
▁iguejchhv 100
▁lpogfsfoß 100
▁sfqsåtfou 100
▁untersuch 100
▁überzeugt 100
▁allerdings 100
▁bmmfsejoht 100
▁cnngtfkpiu 100
▁rtqfwmvkqp 100
▁chijcpkuvcp 100
▁ermöglichen 100
▁gpsutdisjuu 100
▁gtoúinkejgp 100
▁joufmmjhfoß 100
bob 100
pfe 100
rik 100
tgv 100
▁ux 100
▁uç 100
dete 100
uejv 100
vycu 100
ware 100
▁ast 100
▁ikn 100
yçtvu 100
▁ließ 100
▁mjfà 100
▁nkgá 100
▁puzz 100
▁qmbu 100
▁scha 100
▁tuvg 100
▁xfjo 100
alität 100
vollen 100
åisvoh 100
▁emiss 100
▁ijfmu 100
▁jkgnv 100
▁mnkoc 100
gnitive 100
vtkgdgp 100
▁ejbhop 100
▁physic 100
▁seemed 100
▁sjtjlp 100
▁ucwdgt 100
ßfjdiofo 100
àgkejpgp 100
▁british 100
▁creates 100
▁farmers 100
▁genutzt 100
▁hfovußu 100
▁igpwvàv 100
▁klassen 100
▁lpotusv 100
▁spiritu 100
▁station 100
▁karriere 100
▁nächstes 100
▁oådituft 100
▁pgwtqpgp 100
▁prototyp 100
▁pçejuvgu 100
▁hftdiågut 100
▁konferenz 100
▁tgrtçugpv 100
▁tremendous 100
▁bghibojtubo 100
▁fsnøhmjdifo 100
▁hcpvcuvkuej 100
▁entwicklungsl 100
▁fouxjdlmvohtm 100
], 100
keg 100
xim 100
▁dm 100
dluf 100
lfis 100
pagn 100
▁50% 100
▁lpt 100
▁mgp 100
fjgkv 100
jcwug 100
krieg 100
stadt 100
swers 100
▁bous 100
▁jqnà 100
▁mitg 100
▁naja 100
▁obkb 100
▁oåif 100
▁pclc 100
▁pçjg 100
▁urāt 100
▁bewer 100
▁cfxfs 100
▁cheap 100
▁masse 100
▁oqvqt 100
▁phase 100
▁tupmß 100
▁uvqnà 100
▁vqfgu 100
▁xgtmg 100
drücken 100
kukgtgp 100
schrift 100
▁ansatz 100
▁botbuß 100
▁cpucvà 100
▁jtsbfm 100
▁origin 100
▁sfjtfo 100
▁tgkugp 100
▁wjtjpo 100
▁xkukqp 100
njojtufs 100
▁answers 100
▁foreign 100
▁igykuug 100
ejnfotjpo 100
▁benötigt 100
▁controll 100
▁magazine 100
▁fsgpstdifo 100
▁gthqtuejgp 100
▁irgendwann 100
▁jshfoexboo 100
▁ktigpfycpp 100
▁ucwgtuvqhh 100
▁vgorgtcvwt 100
▁hoffentlich 100
▁ipggfoumjdi 100
▁jqhhgpvnkej 100
▁xjsutdibgut 100
▁gesellschaften 100
▁hftfmmtdibgufo 100
▁igugnnuejchvgp 100
iw 100
iat 100
▁ci 100
▁gk 100
cbio 100
hqtf 100
iest 100
▁nfs 100
▁uçw 100
▁wow 100
bruch 100
gthgp 100
icles 100
istry 100
krebs 100
kuugt 100
▁ipmß 100
▁nähe 100
▁stuf 100
▁tens 100
hcnngp 100
▁agree 100
▁cwuvt 100
▁distr 100
▁giant 100
▁haiti 100
▁múpki 100
▁npups 100
▁xktwu 100
osystem 100
▁bienen 100
▁fernse 100
▁fkcipq 100
▁hgtpug 100
▁highly 100
▁kompon 100
▁vgttqt 100
▁weltwe 100
▁wunsch 100
▁xvotdi 100
▁improve 100
▁lånqgfo 100
▁mçorhgp 100
▁mcttkgtg 100
▁partners 100
▁erforschen 100
▁politische 100
▁qpmjujtdif 100
▁rqnkvkuejg 100
▁überzeugen 100
▁ýcfsßfvhfo 100
▁aufgenommen 100
▁bvghfopnnfo 100
▁cwhigpqoogp 100
▁institution 100
▁investieren 100
▁jowftujfsfo 100
▁kpvgnnkigpà 100
▁kpxguvkgtgp 100
my 100
bsb 100
igf 100
kmv 100
ume 100
wpo 100
yer 100
gere 100
gust 100
ipmu 100
kfgp 100
leun 100
mfvo 100
ngwp 100
wohn 100
▁vgz 100
house 100
idung 100
setzt 100
ätsel 100
▁feld 100
▁geme 100
▁habt 100
▁holz 100
▁ibcu 100
▁jcdv 100
▁tqýs 100
fußufo 100
▁calls 100
▁count 100
▁dgtwh 100
▁fragt 100
▁gsbhu 100
▁htciv 100
▁ojhfs 100
▁paris 100
▁pkigt 100
▁prize 100
▁prost 100
▁roten 100
▁shoot 100
▁spufo 100
▁tqvgp 100
▁belohn 100
▁boston 100
▁broken 100
▁cjuufo 100
▁corner 100
▁dgnqjp 100
▁dkvvgp 100
▁qbttfo 100
▁rcuugp 100
▁target 100
▁verwir 100
jfsfoefo 100
▁kämpfen 100
▁urkgign 100
cnkukgtgp 100
fkogpukqp 100
▁minister 100
▁studying 100
▁benötigen 100
▁cfoøujhfo 100
▁dgpúvkigp 100
▁präsident 100
▁rtçukfgpv 100
▁ausbildung 100
▁universums 100
▁vojwfstvnt 100
▁wpkxgtuwou 100
▁communicate 100
▁neighborhood 100
ceed 100
deut 100
hsøà 100
istr 100
jfmm 100
sfoß 100
▁kit 100
▁pgi 100
▁sku 100
dient 100
hqnig 100
pgvgp 100
sbhfo 100
tuýdl 100
▁flor 100
▁gain 100
▁ifss 100
▁ille 100
▁ivoe 100
▁jkij 100
▁stri 100
▁ußod 100
dkgtgp 100
uejnci 100
vkiwpi 100
▁1,000 100
▁displ 100
▁enter 100
▁ezobn 100
▁fßpco 100
istisch 100
▁cfsýin 100
▁dkgpgp 100
▁mqpvkp 100
▁polize 100
▁switch 100
▁window 100
▁ywpuej 100
lptztufn 100
zwischen 100
àykuejgp 100
øiomjdif 100
▁cjmetdi 100
▁helping 100
▁njuhmjf 100
▁okvinkg 100
▁rncuvkm 100
▁cfoøujhu 100
▁dgpúvkiv 100
▁wahrnehm 100
▁xbisofin 100
▁ycjtpgjo 100
▁ecosystem 100
▁bvtcjmevoh 100
▁letztendlich 100
▁mfußufoemjdi 100
▁ngvàvgpfnkej 100
▁infrastruktur 100
▁jogsbtusvluvs 100
]. 100
nv 100
dcu 100
dgy 100
eje 100
ida 100
ouv 100
bggf 100
gpàg 100
qrgt 100
talk 100
unqu 100
ßjfm 100
▁bub 100
▁bul 100
▁cpp 100
▁gun 100
▁hnw 100
▁nfm 100
▁por 100
künft 100
uvāem 100
▁bran 100
▁cwhy 100
▁nahr 100
▁trop 100
▁uboß 100
gpstdi 100
itwrrg 100
ovohfo 100
▁cbtjt 100
▁dying 100
▁kenne 100
▁lfoof 100
▁mgppg 100
▁rough 100
▁uøufo 100
▁visit 100
▁vkvgn 100
▁church 100
▁drehen 100
▁esfifo 100
▁fellow 100
▁ftgjgp 100
▁gtpçjt 100
▁meilen 100
▁nfjmfo 100
▁notion 100
▁ogkngp 100
▁reduce 100
▁risiko 100
▁uejnci 100
ßxjtdifo 100
▁choices 100
▁frequen 100
▁gefangen 100
▁gewonnen 100
▁hfgbohfo 100
▁hfxpoofo 100
▁ighcpigp 100
▁igyqppgp 100
▁lbssjfsf 100
▁wiederum 100
▁xjfefsvn 100
▁ykgfgtwo 100
bmjtjfsvoh 100
▁dqvuejchv 100
▁ernsthaft 100
▁verhaltens 100
▁vollkommen 100
▁wpmmlpnnfo 100
▁xqnnmqoogp 100
▁klimawandel 100
▁lmjnbxboefm 100
▁responsibility 100
-1 100
ai 100
kan 100
knf 100
bers 100
cest 100
ejhf 100
hfsf 100
iate 100
ugtx 100
xgtn 100
▁bum 100
▁eqp 100
▁gla 100
▁shr 100
▁spl 100
▁uvn 100
▁ølp 100
anced 100
conne 100
itete 100
itguu 100
▁bjet 100
▁ckfu 100
▁gbdf 100
▁hceg 100
▁mātà 100
▁spot 100
fjufuf 100
mebufo 100
modell 100
▁bvtus 100
▁fgvck 100
▁hbcfo 100
▁ibmuf 100
▁icdgp 100
▁töten 100
▁vúvgp 100
urkgngt 100
▁easily 100
▁linken 100
▁lpotvn 100
▁mjolfo 100
▁nearly 100
▁nkpmgp 100
▁ufssps 100
▁dennoch 100
▁despite 100
▁efoopdi 100
▁fgppqej 100
▁gewicht 100
▁noticed 100
▁streets 100
▁unsicht 100
▁uåhmjdi 100
▁votjdiu 100
▁wpukejv 100
▁eingesch 100
▁àwtāemàw 100
▁reagieren 100
▁sfbhjfsfo 100
▁tgcikgtgp 100
▁medikament 100
▁phenomenon 100
▁imagination 100
▁politischen 100
▁qpmjujtdifo 100
▁rqnkvkuejgp 100
▁significant 100
▁organizations 100
jgn 100
ovo 100
qwt 100
▁ly 100
▁ol 100
▁zo 100
sftt 100
wide 100
▁amb 100
▁dib 100
▁tff 100
aters 100
btufs 100
heben 100
jgdgp 100
mögen 100
nbàfo 100
ocágp 100
oúigp 100
scher 100
ucher 100
çpigt 100
▁bvtx 100
▁csju 100
▁dtkv 100
▁libr 100
▁ngkf 100
▁prep 100
▁sfev 100
▁vast 100
▁wein 100
izität 100
owvvgt 100
ugndgp 100
▁gaben 100
▁mchhg 100
▁schlä 100
▁úmquß 100
usjfcfo 100
▁charge 100
▁foutqs 100
▁gpvurt 100
▁mwpfgp 100
▁reisen 100
▁begriff 100
▁buchstä 100
▁capture 100
▁cfhsjgg 100
▁cvdituå 100
▁dwejuvç 100
▁fashion 100
▁igykejv 100
▁gemeinde 100
▁hfnfjoef 100
▁igogkpfg 100
▁programs 100
▁ökosystem 100
mjdifsxfjtf 100
▁colleagues 100
▁ādgtàgwigp 100
▁lpnnvojlbujpo 100
pā 100
don 100
▁gä 100
cokp 100
eler 100
ipqt 100
jmmf 100
kpiw 100
kxgp 100
mýdl 100
qnkv 100
tell 100
▁cpo 100
▁fel 100
▁gsp 100
▁hgk 100
▁sem 100
▁tpx 100
▁xbm 100
▁xpm 100
based 100
folfo 100
fsufo 100
hkuej 100
jcpfn 100
ogpvg 100
rvkqp 100
schte 100
ýimfo 100
▁cspu 100
▁iraq 100
▁jktp 100
▁mfje 100
▁pfle 100
▁qgmf 100
riffen 100
stehen 100
usagen 100
▁accor 100
▁davor 100
▁ebwps 100
▁expon 100
▁fcxqt 100
▁gsbol 100
▁newsp 100
▁stein 100
▁tpmdi 100
▁uqnej 100
▁uvctd 100
▁ancest 100
▁effort 100
▁klingt 100
▁lvoefo 100
▁mnkpiv 100
▁spaces 100
▁werfen 100
▁xfsgfo 100
▁ygthgp 100
▁ökonom 100
▁ølpopn 100
▁úmqpqo 100
ensystem 100
zeichnen 100
▁derzeit 100
▁diskuss 100
▁efsßfju 100
▁ejtlvtt 100
▁figured 100
▁fkumwuu 100
▁planets 100
▁turning 100
▁bvghbcfo 100
▁cwhicdgp 100
▁electric 100
▁fjohftdi 100
▁vielfalt 100
▁wjfmgbmu 100
▁xkgnhcnv 100
▁ølptztufn 100
▁cwudknfwpi 100
▁beschäftigt 100
▁cftdiågujhu 100
▁dguejçhvkiv 100
▁wpmmtuåoejh 100
▁opportunities 100
.' 100
hkn 100
nun 100
ota 100
▁wj 100
cppl 100
dqqm 100
eden 100
fttf 100
jdif 100
jmfo 100
star 100
▁10. 100
▁17. 100
▁err 100
▁ljs 100
▁mkt 100
▁ogn 100
▁qps 100
▁rad 100
▁saß 100
▁scu 100
▁tbà 100
▁ucá 100
▁ufy 100
cmvgp 100
ibmut 100
jmjfo 100
kpigt 100
macht 100
uvcfv 100
▁dial 100
▁eure 100
▁fach 100
▁gbdi 100
▁graf 100
▁grat 100
▁hcej 100
▁jwpi 100
▁oānn 100
▁tank 100
▁tubv 100
▁ugpu 100
▁uqnf 100
▁usfj 100
booufo 100
bvsjfs 100
gebaut 100
▁brenn 100
▁cfesp 100
▁cloud 100
▁crash 100
▁dreht 100
▁esfiu 100
▁ftgjv 100
▁wphfm 100
ierungs 100
uvcpfgp 100
▁female 100
▁french 100
▁lmjohu 100
▁steckt 100
▁stimul 100
▁uejygk 100
▁àwmāph 100
▁dagegen 100
▁ebhfhfo 100
▁fcigigp 100
▁moments 100
▁stecken 100
▁stopped 100
▁tufdlfo 100
▁uvgemgp 100
▁zukünft 100
▁ßvlýogu 100
▁aufgaben 100
▁ghhgmvkx 100
▁stellten 100
▁tufmmufo 100
▁uvgnnvgp 100
▁diversity 100
▁particles 100
▁tfmctuwfs 100
▁interessanter 100
▁› 100
hmt 100
kal 100
qfm 100
dcpm 100
idet 100
itzt 100
kxgt 100
othe 100
pher 100
popn 100
qpqo 100
qtiv 100
reci 100
▁ipo 100
▁row 100
▁zut 100
ejohu 100
ließt 100
losen 100
mjfàu 100
vvgtp 100
▁bvgx 100
▁card 100
▁cwht 100
▁hgnf 100
▁ktcm 100
▁spür 100
▁feels 100
▁kpvso 100
▁lqwtp 100
▁recyc 100
▁soldi 100
▁ungew 100
▁xqtcp 100
bmjtnvt 100
▁cjfofo 100
▁esphfo 100
▁ftqigp 100
▁selber 100
▁strand 100
▁tfmcfs 100
▁ugndgt 100
▁obdicbs 100
▁pcejdct 100
▁sekunde 100
▁tflvoef 100
▁uejchhv 100
▁ugmwpfg 100
▁großteil 100
▁itqávgkn 100
▁pāvànkej 100
▁verkauft 100
▁wfslbvgu 100
▁xgtmcwhv 100
▁efficient 100
▁sozusagen 100
▁tpßvtbhfo 100
▁uqàwucigp 100
▁natürliche 100
▁obuýsmjdif 100
▁pcvātnkejg 100
▁sauerstoff 100
▁bedingungen 100
▁cfejohvohfo 100
▁dgfkpiwpigp 100
60 100
iý 100
can 100
gog 100
ibn 100
jou 100
von 100
xcp 100
▁qz 100
cbol 100
cule 100
iber 100
izen 100
ndct 100
utfm 100
vgzv 100
åufo 100
▁350 100
▁cnd 100
▁mos 100
▁nås 100
▁pip 100
ßmjdi 100
▁brot 100
▁dcpf 100
▁irak 100
▁rare 100
▁rncv 100
▁tfot 100
dollar 100
mutter 100
vnfouf 100
▁disor 100
▁dpmmf 100
▁oppos 100
▁surge 100
▁trend 100
▁usjdl 100
▁vohfx 100
▁vtkem 100
cbslfju 100
swgpàgp 100
▁brings 100
▁expert 100
▁nfubqi 100
▁passed 100
▁sexual 100
▁wpscfs 100
▁xqtdgt 100
qtuejwpi 100
▁contain 100
▁ftkvvgn 100
▁knowing 100
▁vorbere 100
▁fstufmmfo 100
▁gtuvgnngp 100
▁voufsofinfs 100
▁voufstdijfemjdi 100
kat 100
rew 100
usp 100
utt 100
▁pú 100
ania 100
bnjo 100
dgtv 100
iety 100
load 100
ählt 100
▁gfj 100
▁gfm 100
▁lqp 100
▁rqt 100
▁ugg 100
ibvtf 100
knkgp 100
ussen 100
zusch 100
ßfmmf 100
▁2001 100
▁budd 100
▁halb 100
▁itúu 100
▁meas 100
▁neug 100
▁reve 100
▁rtqv 100
rtqdng 100
uejtçp 100
wogpvg 100
▁babys 100
▁jcnvg 100
▁joufo 100
▁noise 100
▁obama 100
▁ocuug 100
▁phant 100
▁änder 100
▁kunden 100
▁kurzem 100
▁lautet 100
▁lvsßfn 100
▁mbvufu 100
▁mwtàgo 100
▁ncwvgv 100
▁talent 100
▁ändert 100
▁åoefsu 100
▁çpfgtv 100
ierenden 100
▁manipul 100
▁missing 100
▁recover 100
▁seltsam 100
▁bezahlen 100
▁cfßbimfo 100
▁deutlich 100
▁dgàcjngp 100
▁efvumjdi 100
▁gewissen 100
▁hfxjttfo 100
▁igykuugp 100
▁joufswjf 100
▁kpvgtxkg 100
▁discovery 100
▁entwerfen 100
▁erstellen 100
▁fouxfsgfo 100
▁gpvygthgp 100
▁interface 100
▁landscape 100
▁management 100
▁tbvfstupgg 100
▁differently 100
▁unternehmer 100
▁cvdituåcmjdi 100
▁herausgefunden 100
▁ifsbvthfgvoefo 100
▁jgtcwuighwpfgp 100
▁möglicherweise 100
▁nøhmjdifsxfjtf 100
▁oúinkejgtygkug 100
3, 100
jā 100
py 100
uå 100
▁‹ 100
hfe 100
jfe 100
mbe 100
bnis 100
emvg 100
hfso 100
kgáv 100
psju 100
rtql 100
rupt 100
çjnv 100
▁epn 100
▁htq 100
▁obi 100
▁unf 100
difso 100
gpmgp 100
uejcw 100
xfsuf 100
çvugn 100
▁gefo 100
▁gilt 100
▁hjmu 100
▁host 100
▁iknv 100
ighten 100
jtjfsu 100
jtufoß 100
kuvgpà 100
▁circu 100
▁fully 100
▁grass 100
▁nbttf 100
▁npcjm 100
▁uvqhh 100
▁veget 100
spricht 100
▁bauern 100
▁drogen 100
▁jkpygi 100
▁paradi 100
▁sterne 100
▁tufsof 100
▁uvgtpg 100
▁achieve 100
▁elektro 100
▁objekte 100
▁pckfluf 100
▁qdlgmvg 100
▁rqnkàgk 100
▁steigen 100
▁swcftcv 100
▁tufjhfo 100
▁uvgkigp 100
▁virtual 100
tuåoemjdi 100
hftdijdiuf 100
▁behandelt 100
▁cfiboefmu 100
▁dgjcpfgnv 100
▁religious 100
▁verdienen 100
▁wfsejfofo 100
▁xgtfkgpgp 100
▁strukturen 100
▁tusvluvsfo 100
▁uvtwmvwtgp 100
▁wunderbare 100
▁beeinflussen 100
▁cffjogmvttfo 100
▁dggkphnwuugp 100
▁entwickelten 100
▁fouxjdlfmufo 100
▁gpvykemgnvgp 100
àkr 100
anth 100
bofo 100
cmvg 100
dige 100
fjcf 100
iuvg 100
kfgt 100
lder 100
tubc 100
ural 100
▁30- 100
▁bow 100
▁ejc 100
▁nqi 100
▁ygd 100
ibmuf 100
idden 100
mbefo 100
vkxgt 100
vtçig 100
▁gbcs 100
▁hcdt 100
▁hill 100
▁nkgh 100
▁xbme 100
dtcwej 100
ktiven 100
ktoren 100
▁chica 100
▁kfgpv 100
▁rhyth 100
▁tdimb 100
▁upubm 100
▁wjsuv 100
▁xktvw 100
teilung 100
ßvtfifo 100
▁clever 100
▁corpor 100
▁okvvgp 100
▁tgnkik 100
▁versus 100
▁glamour 100
▁ngmvkqp 100
▁quadrat 100
▁tausend 100
▁umgehen 100
▁vnhfifo 100
▁woigjgp 100
▁jotflufo 100
▁kpugmvgp 100
▁necessarily 100
▁possibility 100
▁buchstäblich 100
▁dwejuvçdnkej 100
▁zusammenarbeit 100
uj 100
mma 100
vtc 100
cojt 100
cppg 100
eine 100
▁hem 100
▁nöt 100
▁oøu 100
▁pqv 100
chern 100
isser 100
lsjfh 100
usåhf 100
▁ctcd 100
▁edge 100
▁hpmg 100
▁jwpf 100
kukgtv 100
xjftfo 100
ykgugp 100
yqjpgt 100
▁affen 100
▁bggfo 100
▁chhgp 100
▁faces 100
▁habit 100
▁halte 100
▁jgtcw 100
▁mqttw 100
▁peter 100
▁rcvgp 100
wechsel 100
zeichen 100
ßfjdifo 100
▁ijtups 100
▁jkuvqt 100
▁lesson 100
▁njuufo 100
▁religi 100
▁sfmjhj 100
cnkukgtv 100
programm 100
▁designs 100
▁efqsftt 100
▁fgrtguu 100
▁members 100
▁nochmal 100
▁opdinbm 100
▁pqejocn 100
▁qbujfou 100
▁sjdibse 100
▁tkejctf 100
bmjtjfsfo 100
▁fjoesvdl 100
▁gkpftwem 100
hhgpvnkejv 100
▁structures 100
▁xvoefscbsf 100
▁ywpfgtdctg 100
▁ngdgpuokvvgn 100
▁hauptsächlich 100
▁ibvqutådimjdi 100
▁jcwrvuçejnkej 100
▁kommunizieren 100
▁lpnnvojßjfsfo 100
▁mqoowpkàkgtgp 100
dā 100
abt 100
crv 100
mjn 100
care 100
cpiu 100
hgmv 100
jcfm 100
ordn 100
xqtu 100
fälle 100
ining 100
reibt 100
sters 100
uejvg 100
▁1900 100
▁bvtm 100
▁ghan 100
▁hgjn 100
▁stem 100
▁wass 100
jßjuåu 100
schule 100
xpiofs 100
▁nkvgt 100
▁paint 100
▁traur 100
▁usbvs 100
▁uvgkp 100
▁vtcwt 100
▁xqign 100
esvdlfo 100
▁begren 100
▁hfxjoo 100
▁hinweg 100
▁mitten 100
▁rätsel 100
maschine 100
▁insight 100
▁unglück 100
▁vohmýdl 100
▁wpināem 100
▁zuhause 100
▁ßvibvtf 100
▁àwjcwug 100
▁besitzen 100
▁besseren 100
▁cftjußfo 100
▁cfttfsfo 100
▁dgukvàgp 100
▁dguugtgp 100
▁dieselbe 100
▁eindruck 100
▁ejftfmcf 100
▁emotions 100
▁fkgugndg 100
▁insekten 100
▁meistens 100
▁nfjtufot 100
▁ogkuvgpu 100
▁engineers 100
▁rtcmvkuej 100
▁atmosphäre 100
▁bunptqiåsf 100
▁cvoqurjçtg 100
▁investment 100
▁ultimately 100
▁mathematics 100
▁relationships 100
▁organisationen 100
▁pshbojtbujpofo 100
▁qticpkucvkqpgp 100
bcm 100
ieß 100
izu 100
luv 100
lvs 100
▁od 100
cipg 100
efvu 100
hbcf 100
hers 100
onym 100
uvcd 100
uvcw 100
vgtv 100
▁192 100
▁npt 100
▁tjm 100
▁wär 100
erten 100
htqpv 100
vided 100
▁bear 100
▁bsbc 100
▁ethn 100
▁gfme 100
▁lvst 100
▁mwtu 100
▁pgtx 100
▁psjh 100
▁soph 100
csbvdi 100
▁dcuku 100
▁jshfo 100
▁jungs 100
▁kvoht 100
▁lwpiu 100
▁mittl 100
▁okvvn 100
▁oqfgt 100
▁quote 100
▁tdijn 100
bufsjbm 100
ivalent 100
▁eingef 100
▁erhält 100
▁fossil 100
▁fsiåmu 100
▁stattf 100
▁tubuug 100
▁uejkor 100
▁uvcvvh 100
qucwtkgt 100
▁fleisch 100
▁itwpfuç 100
▁männern 100
▁nåoofso 100
▁oçppgtp 100
▁wfssýdl 100
▁xgttāem 100
▁benefits 100
▁entsteht 100
▁foutufiu 100
▁gelangen 100
▁gpvuvgjv 100
▁hfmbohfo 100
▁igncpigp 100
▁rational 100
▁weiteres 100
▁xfjufsft 100
▁ygkvgtgu 100
▁wettbewer 100
▁xfuucfxfs 100
▁ygvvdgygt 100
▁zufrieden 100
▁ßvgsjfefo 100
▁àwhtkgfgp 100
▁bvhfocmjdl 100
▁cwigpdnkem 100
▁vermutlich 100
▁wfsnvumjdi 100
▁xgtowvnkej 100
▁ywpfgtuejú 100
▁vollständig 100
ßz 100
ita 100
ret 100
uff 100
vas 100
▁ah 100
holt 100
kgdv 100
oofs 100
vqog 100
▁jßr 100
fkpiv 100
hpsju 100
iqtkv 100
ýoefu 100
▁100% 100
▁atte 100
▁cfsh 100
▁ehem 100
▁fifn 100
▁gjgo 100
▁husb 100
▁null 100
▁xctk 100
▁ßvhf 100
gleich 100
zeiten 100
▁backg 100
▁cftps 100
▁eqnng 100
▁lpouf 100
▁mouse 100
jtjfsfo 100
problem 100
tufmmfs 100
▁dcwgtp 100
▁diagra 100
▁fstufs 100
▁gtuvgt 100
▁privat 100
▁rtqhkv 100
▁wandel 100
▁xboefm 100
▁zucker 100
▁ādgtng 100
▁chicago 100
▁concent 100
▁geführt 100
▁gmfjtdi 100
▁hngkuej 100
▁husband 100
▁relativ 100
▁verkehr 100
▁bshvnfou 100
▁ctiwogpv 100
▁gbdfcppl 100
▁hcegdqqm 100
▁relevant 100
richtungen 100
▁schließen 100
▁tdimjfàfo 100
▁uejnkgágp 100
▁verfolgen 100
▁wfsgpmhfo 100
▁xgthqnigp 100
▁background 100
▁verbreitet 100
▁durchgeführt 100
▁evsdihfgýisu 100
▁fwtejighājtv 100
▁amerikanische 100
▁bnfsjlbojtdif 100
▁cogtkmcpkuejg 100
▁ncpfyktvuejchv 100
▁veröffentlicht 100
▁wfsøggfoumjdiu 100
▁xgtúhhgpvnkejv 100
▁ßvtbnnfobscfju 100
▁àwucoogpctdgkv 100
"? 100
dge 100
dlt 100
ife 100
quv 100
iers 100
lufo 100
ries 100
▁193 100
▁eqn 100
▁lou 100
▁ock 100
▁scr 100
▁vtx 100
▁wuy 100
qnqig 100
▁adam 100
▁cbol 100
▁erwe 100
▁ftkp 100
▁hind 100
▁kpct 100
▁lqdu 100
▁obis 100
▁ 100
e 100
t 100
f 100
n 100
o 100
g 100
i 100
s 100
u 100
p 100
j 100
h 100
c 100
a 100
d 100
r 100
k 100
v 100
m 100
b 100
l 100
w 100
, 100
. 100
y 100
q 100
x 100
ß 100
z 100
à 100
- 100
" 100
' 100
ü 100
ā 100
ý 100
0 100
ä 100
ç 100
å 100
? 100
: 100
ö 100
ø 100
ú 100
1 100
2 100
– 100
á 100
5 100
9 100
3 100
4 100
8 100
; 100
6 100
7 100
! 100
% 100
[ 100
] 100
— 100
/ 100
& 100
» 100
« 100
$ 100
é 100
‹ 100
› 100
ê 100
+ 100
° 100
ë 100
⁄ 100
= 100
) 100
â 100
‟ 100
‚ 100
ã 100
@ 100
ó 100
‒ 100
í 100
ô 100
# 100
( 100
è 100
^ 100
β 100
î 100
ï 100
к 100
ӓ 100
ñ 100
` 100
 100
 100
¥ 100
* 100
­ 100
 100
× 100
© 100
® 100
œ 100
£ 100
š 100
\ 100
ō 100
อ 100
€ 100
你 100
葱 100
送 100
_ 100
 100
 100
ย 100
ร 100
่ 100
ă 100
ć 100
ē 100
