<unk>	0
<s>	0
</s>	0
▁t	-0
▁f	-1
en	-2
▁w	-3
▁i	-4
▁e	-5
gp	-6
er	-7
fo	-8
di	-9
▁a	-10
gt	-11
▁u	-12
▁s	-13
ch	-14
▁o	-15
▁d	-16
fs	-17
▁g	-18
ej	-19
▁b	-20
in	-21
▁c	-22
▁m	-23
▁h	-24
▁th	-25
▁j	-26
▁k	-27
▁n	-28
▁x	-29
▁v	-30
▁y	-31
nd	-32
kg	-33
jf	-34
▁p	-35
es	-36
▁l	-37
jo	-38
kp	-39
at	-40
st	-41
▁the	-42
ou	-43
re	-44
an	-45
on	-46
tu	-47
▁wp	-48
as	-49
is	-50
it	-51
▁di	-52
ll	-53
ie	-54
oe	-55
vg	-56
▁in	-57
cu	-58
bt	-59
ich	-60
or	-61
ar	-62
uf	-63
kej	-64
jdi	-65
uv	-66
ig	-67
ng	-68
▁ejf	-69
▁fkg	-70
▁and	-71
cp	-72
ing	-73
jt	-74
ft	-75
mm	-76
▁fjo	-77
▁gkp	-78
gk	-79
▁ein	-80
▁to	-81
te	-82
fj	-83
▁und	-84
le	-85
▁of	-86
nn	-87
kt	-88
ir	-89
ct	-90
▁wpf	-91
▁voe	-92
gu	-93
bo	-94
▁r	-95
▁z	-96
al	-97
▁ß	-98
▁à	-99
▁be	-100
qp	-101
▁die	-102
wp	-103
em	-104
ut	-105
us	-106
▁we	-107
▁das	-108
▁fcu	-109
▁ebt	-110
ot	-111
js	-112
▁q	-113
om	-114
▁it	-115
ur	-116
bs	-117
et	-118
ed	-119
▁that	-120
vt	-121
ion	-122
oo	-123
ent	-124
▁ha	-125
oh	-126
vgp	-127
▁kp	-128
▁"	-129
▁àw	-130
▁wir	-131
▁you	-132
▁xjs	-133
▁ykt	-134
uej	-135
▁sie	-136
▁tjf	-137
▁ukg	-138
fn	-139
▁so	-140
fg	-141
igp	-142
▁ßv	-143
ufo	-144
▁cw	-145
el	-146
▁wh	-147
▁der	-148
▁efs	-149
▁fgt	-150
ere	-151
▁es	-152
ow	-153
cv	-154
▁ft	-155
ic	-156
▁ich	-157
▁jdi	-158
▁kej	-159
ra	-160
▁-	-161
▁jo	-162
▁se	-163
▁zu	-164
ve	-165
kv	-166
▁gu	-167
ug	-168
fjo	-169
ro	-170
▁is	-171
hfo	-172
hr	-173
▁ist	-174
▁kuv	-175
▁jtu	-176
bu	-177
ju	-178
fgt	-179
cw	-180
qt	-181
▁an	-182
il	-183
fm	-184
se	-185
im	-186
▁re	-187
▁ver	-188
de	-189
icht	-190
gkp	-191
kejv	-192
po	-193
fgp	-194
ber	-195
▁gt	-196
▁er	-197
ach	-198
▁ig	-199
bm	-200
▁cp	-201
kgt	-202
▁un	-203
bdi	-204
cej	-205
ier	-206
lich	-207
ben	-208
jdiu	-209
cfo	-210
jfs	-211
▁st	-212
▁me	-213
dgp	-214
sch	-215
ind	-216
▁--	-217
cfs	-218
▁was	-219
ten	-220
ter	-221
dgt	-222
▁al	-223
sp	-224
am	-225
▁cn	-226
go	-227
▁on	-228
ke	-229
▁wfs	-230
▁xgt	-231
vgt	-232
all	-233
mjdi	-234
▁dies	-235
▁ejft	-236
hf	-237
▁this	-238
voh	-239
ol	-240
cn	-241
ef	-242
ung	-243
wt	-244
▁fs	-245
bv	-246
ge	-247
ay	-248
iv	-249
pp	-250
▁cf	-251
▁sch	-252
▁1	-253
▁den	-254
den	-255
▁efo	-256
▁fgp	-257
wpi	-258
mt	-259
be	-260
gen	-261
gn	-262
un	-263
nkej	-264
▁dg	-265
ht	-266
▁tdi	-267
▁uej	-268
▁hf	-269
efo	-270
ugp	-271
▁all	-272
op	-273
▁tp	-274
▁for	-275
▁als	-276
fu	-277
um	-278
tdi	-279
āt	-280
ür	-281
▁ib	-282
▁ge	-283
ck	-284
▁von	-285
▁le	-286
▁wpo	-287
▁nicht	-288
▁pkejv	-289
▁xqp	-290
ld	-291
uch	-292
▁ne	-293
and	-294
ce	-295
▁eine	-296
▁dass	-297
▁ebtt	-298
▁fjof	-299
▁gkpg	-300
ku	-301
fju	-302
▁uq	-303
ver	-304
▁bo	-305
jh	-306
▁fcuu	-307
vu	-308
ation	-309
▁do	-310
▁cwh	-311
▁auf	-312
▁bvg	-313
dl	-314
▁–	-315
▁ojdiu	-316
▁pro	-317
▁mit	-318
▁wo	-319
▁bmt	-320
▁cnu	-321
▁sp	-322
▁man	-323
ci	-324
efs	-325
▁okv	-326
vk	-327
▁nju	-328
der	-329
▁jc	-330
ps	-331
co	-332
tfo	-333
ess	-334
th	-335
và	-336
ann	-337
cpp	-338
▁he	-339
ugt	-340
▁xjf	-341
▁ykg	-342
▁ug	-343
▁they	-344
▁wie	-345
ýs	-346
▁ab	-347
ine	-348
est	-349
mf	-350
ill	-351
enn	-352
gkv	-353
▁gp	-354
vs	-355
▁ch	-356
jp	-357
ist	-358
oefs	-359
gpp	-360
tq	-361
ith	-362
▁war	-363
boo	-364
cf	-365
▁vot	-366
▁sa	-367
sen	-368
00	-369
▁uns	-370
▁mo	-371
▁ar	-372
hn	-373
▁are	-374
jpo	-375
ly	-376
ifo	-377
bn	-378
foo	-379
ally	-380
jgp	-381
hen	-382
ff	-383
kpf	-384
isch	-385
▁im	-386
▁with	-387
jtdi	-388
og	-389
joe	-390
▁xbs	-391
▁ko	-392
▁yct	-393
ki	-394
▁2	-395
ers	-396
▁what	-397
▁have	-398
▁tjdi	-399
▁sich	-400
▁ukej	-401
▁ng	-402
ell	-403
▁li	-404
sf	-405
▁but	-406
▁uv	-407
▁wor	-408
ern	-409
id	-410
aus	-411
▁can	-412
ýcfs	-413
ādgt	-414
über	-415
qn	-416
▁as	-417
la	-418
▁ocp	-419
▁sh	-420
kuej	-421
bh	-422
▁nbo	-423
we	-424
▁tf	-425
▁us	-426
jn	-427
▁aus	-428
io	-429
ust	-430
."	-431
vdi	-432
▁bvt	-433
▁fr	-434
▁go	-435
out	-436
qu	-437
▁fkgug	-438
▁xbt	-439
▁ycu	-440
▁um	-441
uvg	-442
▁at	-443
▁or	-444
▁ex	-445
kgn	-446
kn	-447
dg	-448
▁sind	-449
▁tjoe	-450
▁ukpf	-451
▁co	-452
▁für	-453
▁mf	-454
▁ma	-455
▁gýs	-456
▁hāt	-457
▁aber	-458
▁vn	-459
ant	-460
▁bcfs	-461
▁cdgt	-462
boe	-463
▁cwu	-464
jm	-465
▁haben	-466
▁ibcfo	-467
▁jcdgp	-468
ik	-469
lt	-470
wo	-471
▁ygpp	-472
▁wenn	-473
▁xfoo	-474
▁da	-475
tg	-476
▁kö	-477
▁lø	-478
▁mú	-479
lu	-480
▁if	-481
vy	-482
▁eb	-483
▁there	-484
fso	-485
▁hat	-486
▁ges	-487
ome	-488
ab	-489
▁not	-490
▁about	-491
▁ýcfs	-492
▁ādgt	-493
pg	-494
bis	-495
cjt	-496
ould	-497
▁über	-498
▁ibu	-499
▁jcv	-500
▁igu	-501
kqp	-502
▁en	-503
▁te	-504
▁wer	-505
mmf	-506
▁des	-507
▁also	-508
▁hft	-509
▁tq	-510
▁tu	-511
ze	-512
▁ygt	-513
▁xfs	-514
pt	-515
vn	-516
tuf	-517
ctu	-518
▁jis	-519
▁kjt	-520
▁könn	-521
▁múpp	-522
▁ur	-523
▁lp	-524
▁fou	-525
▁ejftf	-526
▁diese	-527
▁vie	-528
▁dem	-529
ahr	-530
▁fc	-531
▁my	-532
▁de	-533
▁nfjo	-534
▁ogkp	-535
und	-536
art	-537
jl	-538
sb	-539
her	-540
▁tr	-541
jfm	-542
▁pe	-543
▁gr	-544
ad	-545
▁no	-546
fe	-547
▁vor	-548
hgp	-549
he	-550
▁jn	-551
ese	-552
▁con	-553
gw	-554
ight	-555
mv	-556
▁one	-557
wu	-558
mmfo	-559
nngp	-560
▁ygk	-561
tw	-562
qej	-563
os	-564
çp	-565
▁efn	-566
cpf	-567
ßfo	-568
▁ct	-569
km	-570
▁tg	-571
▁fgo	-572
ph	-573
▁bs	-574
▁peop	-575
vo	-576
ufs	-577
▁people	-578
▁ent	-579
ive	-580
▁kn	-581
▁up	-582
▁qsp	-583
▁rtq	-584
uvgp	-585
▁her	-586
▁fu	-587
▁lg	-588
▁bec	-589
ate	-590
▁com	-591
ink	-592
▁sf	-593
▁men	-594
▁tfjo	-595
▁ugkp	-596
igen	-597
pdi	-598
▁am	-599
▁eft	-600
▁fgu	-601
oofo	-602
if	-603
▁from	-604
etz	-605
▁like	-606
ity	-607
ies	-608
gfo	-609
ein	-610
ort	-611
▁xqt	-612
oufs	-613
dv	-614
gtp	-615
end	-616
▁nfo	-617
▁ogp	-618
▁ta	-619
jhfo	-620
▁bmtp	-621
▁cnuq	-622
▁wpu	-623
ejgp	-624
▁ev	-625
ah	-626
cm	-627
▁dgk	-628
▁wps	-629
▁einen	-630
▁fjofo	-631
▁gkpgp	-632
ste	-633
oogp	-634
nnfo	-635
▁now	-636
au	-637
▁ht	-638
▁xp	-639
du	-640
▁nach	-641
▁obdi	-642
▁pcej	-643
iu	-644
mmen	-645
ble	-646
▁og	-647
▁gen	-648
tufo	-649
▁our	-650
kgtgp	-651
▁mq	-652
▁just	-653
▁these	-654
▁get	-655
▁pl	-656
▁out	-657
▁ze	-658
ßf	-659
▁können	-660
▁løoofo	-661
▁múppgp	-662
▁wpugt	-663
▁votfs	-664
▁hier	-665
▁ijfs	-666
▁jkgt	-667
ause	-668
per	-669
fmu	-670
ign	-671
voe	-672
jfsfo	-673
▁know	-674
ook	-675
▁yq	-676
▁cnng	-677
fjm	-678
▁them	-679
uejgp	-680
▁mach	-681
▁inter	-682
àw	-683
▁oder	-684
▁pefs	-685
▁qfgt	-686
ygk	-687
fuß	-688
difo	-689
vuf	-690
kigp	-691
▁mensch	-692
▁nfotdi	-693
▁thing	-694
ast	-695
ieren	-696
▁werden	-697
▁xfsefo	-698
▁ygtfgp	-699
jw	-700
ute	-701
▁sein	-702
▁kbis	-703
▁lcjt	-704
ted	-705
jg	-706
▁when	-707
kgp	-708
oug	-709
▁pr	-710
ip	-711
▁because	-712
iert	-713
ear	-714
▁ygn	-715
▁hs	-716
kgtv	-717
ang	-718
▁ihn	-719
▁jio	-720
▁kjp	-721
▁fkgu	-722
ick	-723
▁nf	-724
ass	-725
▁very	-726
sef	-727
iz	-728
▁dar	-729
wpigp	-730
▁3	-731
men	-732
▁br	-733
▁think	-734
ne	-735
▁xkgn	-736
jfsu	-737
▁who	-738
lle	-739
ul	-740
▁how	-741
igt	-742
▁boefs	-743
▁cpfgt	-744
▁nbdi	-745
▁ocej	-746
cvkqp	-747
ko	-748
▁kann	-749
▁mcpp	-750
▁mein	-751
for	-752
▁kind	-753
▁by	-754
▁bmm	-755
xf	-756
ite	-757
▁lboo	-758
▁einer	-759
▁fjofs	-760
▁gkpgt	-761
▁jgt	-762
▁ifs	-763
eren	-764
▁see	-765
▁some	-766
ien	-767
▁ste	-768
000	-769
cigp	-770
one	-771
▁cfj	-772
▁auch	-773
▁bvdi	-774
▁cwej	-775
aft	-776
ibt	-777
ige	-778
▁dgu	-779
jv	-780
chen	-781
wn	-782
bvt	-783
uß	-784
▁comp	-785
ag	-786
bujpo	-787
▁xv	-788
▁ihr	-789
zen	-790
bgu	-791
wv	-792
▁einem	-793
▁fjofn	-794
▁gkpgo	-795
to	-796
▁going	-797
vohfo	-798
▁dann	-799
▁ßx	-800
▁eboo	-801
▁fcpp	-802
ftt	-803
▁ever	-804
▁cs	-805
uejch	-806
▁sehr	-807
▁tfis	-808
▁ugjt	-809
àgp	-810
▁lm	-811
hu	-812
▁ebs	-813
▁fct	-814
▁su	-815
▁will	-816
▁your	-817
ät	-818
olog	-819
▁which	-820
jfo	-821
ßv	-822
▁tim	-823
▁ob	-824
▁nur	-825
ank	-826
▁etw	-827
▁here	-828
ild	-829
▁year	-830
▁fux	-831
▁gvy	-832
ain	-833
▁had	-834
▁wird	-835
▁xjse	-836
▁yktf	-837
▁more	-838
jhf	-839
ungen	-840
ame	-841
jcu	-842
āem	-843
ýdl	-844
ert	-845
ap	-846
▁ovs	-847
▁pwt	-848
▁per	-849
▁ik	-850
▁qu	-851
▁fe	-852
▁mus	-853
of	-854
▁wpvgt	-855
qo	-856
▁ok	-857
cwu	-858
▁look	-859
pl	-860
reat	-861
▁hfo	-862
▁igp	-863
ous	-864
▁unter	-865
▁gs	-866
kig	-867
ide	-868
jtdifo	-869
lfo	-870
ischen	-871
schaft	-872
▁menschen	-873
▁nfotdifo	-874
▁ogpuejgp	-875
hv	-876
sten	-877
▁fst	-878
▁mqp	-879
▁mich	-880
urch	-881
▁kon	-882
len	-883
▁would	-884
▁ih	-885
pn	-886
▁dt	-887
ard	-888
mgp	-889
▁pg	-890
kx	-891
▁fa	-892
itt	-893
▁njdi	-894
▁okej	-895
▁bes	-896
▁19	-897
▁leben	-898
▁mfcfo	-899
▁ngdgp	-900
▁fra	-901
▁really	-902
▁ihnen	-903
▁jiofo	-904
▁kjpgp	-905
ood	-906
vsdi	-907
wtej	-908
▁gibt	-909
▁hjcu	-910
▁ikdv	-911
qv	-912
▁their	-913
▁stu	-914
chn	-915
kuejgp	-916
wvg	-917
jttfo	-918
äch	-919
ådi	-920
çej	-921
issen	-922
kuugp	-923
▁world	-924
ding	-925
?"	-926
▁lfjo	-927
▁mgkp	-928
▁hftdi	-929
▁iguej	-930
ren	-931
are	-932
ru	-933
▁gesch	-934
wej	-935
▁wjf	-936
▁tb	-937
▁wur	-938
gm	-939
▁ywt	-940
iten	-941
su	-942
▁vt	-943
▁then	-944
▁work	-945
age	-946
▁were	-947
åu	-948
▁tuf	-949
▁uvg	-950
ouf	-951
cd	-952
▁xf	-953
je	-954
fl	-955
tr	-956
hal	-957
▁jahr	-958
ibm	-959
▁5	-960
änd	-961
▁vg	-962
ack	-963
ib	-964
jmm	-965
▁welt	-966
cs	-967
our	-968
ans	-969
▁vo	-970
▁way	-971
vàv	-972
▁sehen	-973
▁tfifo	-974
▁ugjgp	-975
▁20	-976
▁voufs	-977
àg	-978
▁hm	-979
fjufo	-980
▁every	-981
ment	-982
▁jed	-983
qtv	-984
▁noch	-985
▁opdi	-986
▁pqej	-987
▁has	-988
▁xfmu	-989
jdl	-990
ise	-991
hing	-992
▁dieser	-993
▁ejftfs	-994
▁fkgugt	-995
ken	-996
ück	-997
llen	-998
kem	-999
▁ro	-1000
uc	-1001
mmer	-1002
▁etwas	-1003
▁fuxbt	-1004
▁gvycu	-1005
fst	-1006
▁bn	-1007
omet	-1008
▁durch	-1009
▁evsdi	-1010
▁fwtej	-1011
vkqp	-1012
▁ke	-1013
ater	-1014
▁actu	-1015
▁bei	-1016
lf	-1017
dt	-1018
▁mö	-1019
▁nø	-1020
▁oú	-1021
▁gro	-1022
fgtp	-1023
ound	-1024
hh	-1025
lo	-1026
▁don	-1027
qá	-1028
dgk	-1029
▁lo	-1030
▁ihre	-1031
▁time	-1032
mg	-1033
▁hsp	-1034
lp	-1035
lie	-1036
▁oth	-1037
▁sy	-1038
▁mir	-1039
▁habe	-1040
▁ibcf	-1041
▁jcdg	-1042
ough	-1043
▁wjfm	-1044
▁bu	-1045
ions	-1046
cr	-1047
blem	-1048
▁actually	-1049
▁bra	-1050
ong	-1051
▁mehr	-1052
dy	-1053
▁nfis	-1054
▁ogjt	-1055
▁cm	-1056
alk	-1057
oogt	-1058
nnfs	-1059
▁say	-1060
igh	-1061
çv	-1062
▁ide	-1063
▁sel	-1064
▁okt	-1065
▁ygnv	-1066
tf	-1067
▁tbh	-1068
▁into	-1069
inn	-1070
▁xjttfo	-1071
▁ykuugp	-1072
▁wissen	-1073
jtu	-1074
▁zur	-1075
▁new	-1076
▁4	-1077
▁ßvs	-1078
▁àwt	-1079
lau	-1080
dn	-1081
▁tra	-1082
▁where	-1083
▁10	-1084
▁njs	-1085
ens	-1086
nge	-1087
▁bet	-1088
▁sagt	-1089
sel	-1090
▁problem	-1091
▁could	-1092
▁ph	-1093
qi	-1094
heit	-1095
gtu	-1096
cig	-1097
▁things	-1098
▁nvt	-1099
▁yg	-1100
▁alle	-1101
vnkej	-1102
zu	-1103
▁art	-1104
qq	-1105
▁techn	-1106
▁years	-1107
lichen	-1108
bvg	-1109
etzt	-1110
ische	-1111
▁itqá	-1112
▁beg	-1113
▁xý	-1114
rei	-1115
▁icp	-1116
jtdif	-1117
cht	-1118
▁want	-1119
▁gpv	-1120
▁other	-1121
stem	-1122
▁zwe	-1123
gkej	-1124
ial	-1125
▁hbo	-1126
▁yktm	-1127
▁wirk	-1128
sfo	-1129
▁hspà	-1130
▁somet	-1131
▁groß	-1132
fußu	-1133
sn	-1134
▁xjsl	-1135
út	-1136
▁bmmf	-1137
iel	-1138
jgt	-1139
own	-1140
yg	-1141
vol	-1142
bst	-1143
ple	-1144
▁kf	-1145
bl	-1146
inkej	-1147
▁zum	-1148
▁fir	-1149
▁ßvn	-1150
▁any	-1151
▁àwo	-1152
mmt	-1153
mal	-1154
liche	-1155
tdibgu	-1156
▁gan	-1157
nnu	-1158
lfju	-1159
mq	-1160
▁po	-1161
oun	-1162
▁xjslmjdi	-1163
▁yktmnkej	-1164
che	-1165
▁àygk	-1166
▁cft	-1167
▁part	-1168
fou	-1169
mu	-1170
▁got	-1171
▁xå	-1172
▁nat	-1173
qto	-1174
keit	-1175
▁mill	-1176
ifs	-1177
vgv	-1178
▁dr	-1179
▁she	-1180
joh	-1181
▁pc	-1182
▁kjtg	-1183
fjuf	-1184
kuejg	-1185
▁jisf	-1186
▁been	-1187
▁jkp	-1188
▁owu	-1189
▁wür	-1190
▁tfm	-1191
▁bl	-1192
▁yāt	-1193
▁uf	-1194
▁gý	-1195
▁hā	-1196
hcej	-1197
▁wä	-1198
▁yç	-1199
▁make	-1200
cwgp	-1201
▁happ	-1202
bvfo	-1203
boh	-1204
nbm	-1205
▁wirklich	-1206
▁einf	-1207
▁fjog	-1208
▁right	-1209
gf	-1210
▁ofv	-1211
▁ijo	-1212
ose	-1213
▁qm	-1214
jogp	-1215
▁mt	-1216
▁spe	-1217
rt	-1218
▁ogkpg	-1219
kpp	-1220
▁meine	-1221
▁nfjof	-1222
▁well	-1223
▁fü	-1224
▁diff	-1225
▁ub	-1226
kgng	-1227
▁said	-1228
info	-1229
ifju	-1230
sefo	-1231
▁weil	-1232
▁ygkn	-1233
▁xfjm	-1234
▁unser	-1235
btt	-1236
iter	-1237
chte	-1238
tt	-1239
åoefs	-1240
form	-1241
auf	-1242
kpi	-1243
▁ywtfg	-1244
▁xvsef	-1245
▁wurde	-1246
wer	-1247
üs	-1248
▁em	-1249
āu	-1250
▁nbdifo	-1251
▁ocejgp	-1252
▁machen	-1253
kr	-1254
▁ej	-1255
wpf	-1256
oufo	-1257
▁pgw	-1258
▁àgkv	-1259
▁fo	-1260
uvoh	-1261
▁need	-1262
▁dn	-1263
▁two	-1264
▁zeit	-1265
▁over	-1266
pu	-1267
ile	-1268
▁vers	-1269
hmjdi	-1270
tung	-1271
ory	-1272
▁lpo	-1273
▁bsc	-1274
fsf	-1275
▁igt	-1276
▁arbe	-1277
▁dieses	-1278
▁ejftft	-1279
▁fkgugu	-1280
ree	-1281
▁nun	-1282
çw	-1283
▁something	-1284
fmo	-1285
ia	-1286
▁pwp	-1287
jcn	-1288
ical	-1289
kuv	-1290
▁mar	-1291
fen	-1292
qr	-1293
▁ovo	-1294
me	-1295
ure	-1296
▁einfach	-1297
▁fjogbdi	-1298
▁gkphcej	-1299
▁qp	-1300
▁dgt	-1301
bttfo	-1302
cuugp	-1303
assen	-1304
äh	-1305
pc	-1306
gkn	-1307
pr	-1308
▁tun	-1309
▁kpvgt	-1310
jtf	-1311
▁kle	-1312
▁dis	-1313
ue	-1314
bg	-1315
vàgp	-1316
fr	-1317
▁uci	-1318
jtgp	-1319
diuf	-1320
isfo	-1321
▁fl	-1322
guu	-1323
▁mng	-1324
▁first	-1325
..	-1326
▁pre	-1327
psu	-1328
bc	-1329
▁pers	-1330
dif	-1331
nf	-1332
able	-1333
▁bot	-1334
▁gem	-1335
diu	-1336
.000	-1337
▁find	-1338
ice	-1339
▁res	-1340
▁ný	-1341
stell	-1342
qm	-1343
▁200	-1344
▁hfx	-1345
▁ugnd	-1346
▁jnnfs	-1347
jgkv	-1348
▁igy	-1349
▁fkp	-1350
▁those	-1351
▁immer	-1352
▁koogt	-1353
▁lie	-1354
▁vwp	-1355
wpm	-1356
eln	-1357
▁viel	-1358
çt	-1359
jc	-1360
▁ßfju	-1361
▁cl	-1362
▁dam	-1363
▁bis	-1364
ange	-1365
▁gew	-1366
ejp	-1367
hhgp	-1368
▁cd	-1369
▁mjf	-1370
▁nkg	-1371
▁his	-1372
qnn	-1373
▁xfju	-1374
▁uvo	-1375
▁ejo	-1376
ges	-1377
▁cjt	-1378
cpi	-1379
pe	-1380
▁back	-1381
ak	-1382
▁cnn	-1383
▁than	-1384
▁hfm	-1385
tur	-1386
cuu	-1387
▁talk	-1388
elt	-1389
▁wpugtg	-1390
dit	-1391
▁qt	-1392
▁unsere	-1393
▁votfsf	-1394
▁dku	-1395
▁litt	-1396
joo	-1397
aten	-1398
▁call	-1399
ents	-1400
▁technolog	-1401
bmm	-1402
▁fw	-1403
xfs	-1404
ture	-1405
ejvg	-1406
▁little	-1407
āp	-1408
▁wfst	-1409
▁hfn	-1410
sh	-1411
ys	-1412
▁igo	-1413
vm	-1414
▁hin	-1415
cejv	-1416
jß	-1417
▁star	-1418
ss	-1419
ffen	-1420
gkvgp	-1421
▁even	-1422
▁jetzt	-1423
▁kfußu	-1424
▁lgvàv	-1425
fgo	-1426
ocn	-1427
▁cfh	-1428
qfs	-1429
ction	-1430
joefs	-1431
▁boh	-1432
▁ebn	-1433
ces	-1434
▁løo	-1435
▁most	-1436
gpv	-1437
▁ßfj	-1438
▁ßxfj	-1439
oov	-1440
▁ger	-1441
▁du	-1442
▁fco	-1443
▁hand	-1444
ath	-1445
erst	-1446
cent	-1447
cnn	-1448
▁ibuuf	-1449
▁much	-1450
▁jcvvg	-1451
▁lot	-1452
▁gut	-1453
ygt	-1454
br	-1455
▁hatte	-1456
qtu	-1457
ats	-1458
gan	-1459
▁life	-1460
erg	-1461
bdiu	-1462
▁system	-1463
▁gef	-1464
▁ag	-1465
▁ra	-1466
▁hfg	-1467
▁real	-1468
uejchv	-1469
ejg	-1470
▁lmfjo	-1471
▁mngkp	-1472
hā	-1473
▁thr	-1474
▁denn	-1475
▁xgtu	-1476
iß	-1477
▁imp	-1478
way	-1479
▁pa	-1480
▁ho	-1481
▁mn	-1482
mph	-1483
vel	-1484
▁6	-1485
ejv	-1486
▁uc	-1487
joefo	-1488
kpfgp	-1489
▁fgpp	-1490
rie	-1491
iger	-1492
▁xkgng	-1493
▁ls	-1494
▁tfmctu	-1495
▁selbst	-1496
▁ugnduv	-1497
ase	-1498
▁keine	-1499
▁lfjof	-1500
▁mgkpg	-1501
▁rt	-1502
imfo	-1503
jngp	-1504
▁vcv	-1505
als	-1506
uft	-1507
▁ac	-1508
▁fjhfo	-1509
▁gkigp	-1510
kà	-1511
▁tus	-1512
mo	-1513
fw	-1514
▁uvt	-1515
▁leute	-1516
▁mfvuf	-1517
▁ngwvg	-1518
fjà	-1519
mjdifo	-1520
▁hum	-1521
vgu	-1522
▁viele	-1523
bol	-1524
ttfo	-1525
▁diesem	-1526
▁ejftfn	-1527
▁fkgugo	-1528
▁wjfmf	-1529
uchen	-1530
▁müs	-1531
ri	-1532
cbs	-1533
...	-1534
▁oāu	-1535
ktion	-1536
▁pol	-1537
▁hfs	-1538
jpofo	-1539
▁only	-1540
hmen	-1541
▁efoo	-1542
xgt	-1543
▁gpvy	-1544
▁hn	-1545
tra	-1546
uejkg	-1547
▁igj	-1548
▁àgk	-1549
▁bsu	-1550
ale	-1551
ffe	-1552
▁zus	-1553
▁ßvt	-1554
aut	-1555
▁hel	-1556
ger	-1557
mjf	-1558
jdifo	-1559
▁indi	-1560
▁zwei	-1561
åoh	-1562
mjdif	-1563
cwh	-1564
▁geb	-1565
▁day	-1566
leich	-1567
▁tbhuf	-1568
▁cfs	-1569
▁ucivg	-1570
▁person	-1571
▁land	-1572
ated	-1573
▁gel	-1574
▁sagte	-1575
kpigp	-1576
▁sagen	-1577
▁tbhfo	-1578
▁ucigp	-1579
johfo	-1580
▁mal	-1581
dng	-1582
▁uejn	-1583
▁produ	-1584
▁mon	-1585
▁gth	-1586
ingen	-1587
▁rn	-1588
▁cjm	-1589
▁gra	-1590
".	-1591
schie	-1592
▁fkpig	-1593
▁dinge	-1594
▁ejohf	-1595
▁ejftfo	-1596
▁fkgugp	-1597
▁diesen	-1598
▁dkn	-1599
▁take	-1600
▁sol	-1601
▁good	-1602
uvs	-1603
tdijf	-1604
▁pass	-1605
jdiujh	-1606
bsu	-1607
▁ele	-1608
bar	-1609
▁off	-1610
▁hfi	-1611
vgn	-1612
jdiuf	-1613
▁design	-1614
▁soll	-1615
▁eines	-1616
▁fjoft	-1617
▁gkpgu	-1618
▁mkp	-1619
▁bin	-1620
▁kl	-1621
▁many	-1622
▁tpmm	-1623
▁uqnn	-1624
ely	-1625
isten	-1626
▁entw	-1627
▁pla	-1628
glich	-1629
ish	-1630
▁down	-1631
▁waren	-1632
▁xbsfo	-1633
▁yctgp	-1634
ts	-1635
other	-1636
▁show	-1637
▁ygkvgt	-1638
knn	-1639
cng	-1640
dct	-1641
▁teil	-1642
▁qb	-1643
ance	-1644
▁vgkn	-1645
▁geh	-1646
ful	-1647
▁xjfefs	-1648
▁ykgfgt	-1649
ichte	-1650
▁30	-1651
qg	-1652
▁did	-1653
▁wieder	-1654
▁let	-1655
erent	-1656
▁glau	-1657
▁hmbv	-1658
▁incw	-1659
▁alles	-1660
▁bmmft	-1661
▁cnngu	-1662
kigt	-1663
▁cjo	-1664
▁ufjm	-1665
hl	-1666
▁does	-1667
itu	-1668
▁medi	-1669
fgn	-1670
▁car	-1671
▁ir	-1672
▁50	-1673
ations	-1674
▁fre	-1675
▁jahren	-1676
▁kbisfo	-1677
▁lcjtgp	-1678
ágp	-1679
▁15	-1680
▁ctv	-1681
▁uqp	-1682
▁müssen	-1683
▁nýttfo	-1684
▁oāuugp	-1685
bou	-1686
▁jgw	-1687
wpiu	-1688
▁dkp	-1689
wpfgp	-1690
cmfn	-1691
fsu	-1692
act	-1693
▁verb	-1694
▁different	-1695
gs	-1696
▁ind	-1697
▁through	-1698
tern	-1699
▁op	-1700
",	-1701
cpm	-1702
▁8	-1703
urn	-1704
vh	-1705
▁andere	-1706
▁boefsf	-1707
▁cpfgtg	-1708
uvt	-1709
▁million	-1710
▁exper	-1711
ire	-1712
▁put	-1713
▁around	-1714
▁pcv	-1715
bnnfo	-1716
▁par	-1717
ds	-1718
flu	-1719
rv	-1720
zt	-1721
▁9	-1722
▁nie	-1723
xt	-1724
▁may	-1725
▁nbm	-1726
▁yātfg	-1727
▁ojf	-1728
▁joufs	-1729
▁pkg	-1730
▁7	-1731
ob	-1732
▁gsb	-1733
▁schw	-1734
▁ang	-1735
ence	-1736
▁xýsef	-1737
kommen	-1738
hfoe	-1739
kejvg	-1740
▁reg	-1741
hg	-1742
▁kein	-1743
▁ljoefs	-1744
ep	-1745
utdi	-1746
ammen	-1747
▁anderen	-1748
▁boefsfo	-1749
▁cpfgtgp	-1750
▁best	-1751
▁foux	-1752
çn	-1753
fgu	-1754
▁ben	-1755
mqoogp	-1756
▁dav	-1757
gr	-1758
▁100	-1759
ool	-1760
▁würde	-1761
ry	-1762
▁damit	-1763
▁ebnju	-1764
▁fcokv	-1765
▁comm	-1766
▁'	-1767
▁coun	-1768
lpnnfo	-1769
▁nor	-1770
▁fy	-1771
▁fun	-1772
▁tell	-1773
▁ocn	-1774
▁plan	-1775
är	-1776
▁str	-1777
▁gz	-1778
ahre	-1779
bohfo	-1780
cpigp	-1781
qd	-1782
▁àwuc	-1783
ngkejv	-1784
fgv	-1785
▁voh	-1786
▁tdix	-1787
▁ifsbvt	-1788
▁heraus	-1789
ors	-1790
▁ßvtbnnfo	-1791
▁àwucoogp	-1792
qnqi	-1793
cre	-1794
uen	-1795
▁hvu	-1796
hft	-1797
▁ad	-1798
▁rtqdng	-1799
▁zusammen	-1800
▁qspcmfn	-1801
jhfs	-1802
day	-1803
ichtig	-1804
mmfjdiu	-1805
tus	-1806
▁aut	-1807
lleicht	-1808
cess	-1809
oef	-1810
▁why	-1811
ität	-1812
acht	-1813
▁min	-1814
▁kb	-1815
▁fam	-1816
▁fg	-1817
fifo	-1818
▁vielleicht	-1819
▁wjfmmfjdiu	-1820
▁xkgnngkejv	-1821
efu	-1822
▁sm	-1823
▁use	-1824
nkejg	-1825
▁being	-1826
gend	-1827
▁big	-1828
▁tats	-1829
▁ubut	-1830
ungs	-1831
▁xfo	-1832
▁la	-1833
▁vcvu	-1834
btu	-1835
▁gl	-1836
ves	-1837
▁ygp	-1838
ought	-1839
▁pat	-1840
ary	-1841
▁wen	-1842
▁great	-1843
ons	-1844
▁cont	-1845
▁njmm	-1846
▁come	-1847
▁oknn	-1848
hs	-1849
kvçv	-1850
▁beh	-1851
nnv	-1852
pm	-1853
▁jgtcwu	-1854
pgp	-1855
▁hal	-1856
▁too	-1857
▁bas	-1858
▁met	-1859
▁xfjufs	-1860
▁igd	-1861
▁tuv	-1862
▁sim	-1863
dio	-1864
▁wfstvdi	-1865
uvgt	-1866
▁univ	-1867
auen	-1868
vki	-1869
▁fin	-1870
▁gf	-1871
bvn	-1872
àfo	-1873
foofo	-1874
mmu	-1875
voht	-1876
▁three	-1877
▁ày	-1878
ser	-1879
juåu	-1880
▁sur	-1881
king	-1882
▁fcx	-1883
ufu	-1884
▁dgi	-1885
kejvki	-1886
wpfgt	-1887
▁amer	-1888
▁iwv	-1889
its	-1890
gppgp	-1891
än	-1892
cvgp	-1893
ower	-1894
ztu	-1895
▁app	-1896
ving	-1897
▁gtà	-1898
▁stat	-1899
▁zw	-1900
▁jahre	-1901
▁try	-1902
▁ctdgk	-1903
int	-1904
▁xfm	-1905
ennen	-1906
▁qs	-1907
▁geht	-1908
volu	-1909
▁eng	-1910
▁same	-1911
▁ja	-1912
▁jef	-1913
▁happen	-1914
wh	-1915
▁kr	-1916
▁uejy	-1917
ör	-1918
çpfgt	-1919
tel	-1920
▁ins	-1921
▁hfiu	-1922
▁igjv	-1923
▁kbisf	-1924
▁lcjtg	-1925
urkgn	-1926
bhfo	-1927
▁pos	-1928
jq	-1929
isu	-1930
ähr	-1931
cy	-1932
▁human	-1933
▁comput	-1934
arn	-1935
▁inn	-1936
▁wahr	-1937
▁kt	-1938
▁entwick	-1939
▁fouxjdl	-1940
▁gpvykem	-1941
▁start	-1942
▁inform	-1943
gmv	-1944
▁hmf	-1945
get	-1946
jbm	-1947
▁pu	-1948
▁fact	-1949
▁igug	-1950
llar	-1951
fjut	-1952
▁mom	-1953
cul	-1954
▁afr	-1955
jcnvgp	-1956
▁nøhmjdi	-1957
▁oúinkej	-1958
bdif	-1959
▁cr	-1960
▁doing	-1961
▁klein	-1962
▁weiter	-1963
▁xgtd	-1964
▁rel	-1965
ace	-1966
fsfo	-1967
▁kfg	-1968
ution	-1969
ibmufo	-1970
ject	-1971
▁sw	-1972
ås	-1973
cogp	-1974
nkejgp	-1975
bnfo	-1976
ßu	-1977
▁iø	-1978
halten	-1979
▁energ	-1980
▁ung	-1981
▁vgejp	-1982
▁wel	-1983
▁bc	-1984
▁child	-1985
ztufn	-1986
cejg	-1987
▁gleich	-1988
▁ingkej	-1989
zent	-1990
▁famil	-1991
▁kam	-1992
ting	-1993
▁einz	-1994
ism	-1995
▁tdim	-1996
tufs	-1997
kim	-1998
ict	-1999
öß	-2000
▁rc	-2001
wr	-2002
äng	-2003
▁liv	-2004
▁ep	-2005
vufo	-2006
▁own	-2007
▁heute	-2008
▁ifvuf	-2009
▁jgwvg	-2010
▁eq	-2011
cjn	-2012
ellen	-2013
ächlich	-2014
ådimjdi	-2015
çejnkej	-2016
▁oq	-2017
▁grund	-2018
▁ö	-2019
▁ø	-2020
▁gkpkig	-2021
fnkej	-2022
▁np	-2023
kqpgp	-2024
▁aft	-2025
▁ftgk	-2026
▁hsvoe	-2027
ler	-2028
ically	-2029
ics	-2030
cwo	-2031
▁igigp	-2032
▁gtm	-2033
isp	-2034
▁muss	-2035
ágt	-2036
▁nvtt	-2037
▁schon	-2038
▁uejqp	-2039
▁owuu	-2040
wvgp	-2041
▁js	-2042
▁mkpfgt	-2043
▁bit	-2044
ian	-2045
▁tdipo	-2046
ade	-2047
▁percent	-2048
▁form	-2049
hfm	-2050
ven	-2051
xfo	-2052
▁bm	-2053
▁ngvà	-2054
▁esfj	-2055
▁mfuß	-2056
▁hg	-2057
bim	-2058
▁fjoß	-2059
▁mboe	-2060
gnv	-2061
▁again	-2062
▁kom	-2063
▁icpà	-2064
wfs	-2065
▁ganz	-2066
çjt	-2067
▁hboß	-2068
body	-2069
▁dollar	-2070
▁àwtāem	-2071
▁ú	-2072
ev	-2073
tet	-2074
qs	-2075
ks	-2076
▁lpn	-2077
▁ßvsýdl	-2078
lm	-2079
▁lc	-2080
▁ebwp	-2081
blu	-2082
▁epsu	-2083
▁qbtt	-2084
ize	-2085
åi	-2086
▁ps	-2087
thing	-2088
▁nødiuf	-2089
▁fqtv	-2090
▁rcuu	-2091
▁after	-2092
▁einige	-2093
▁fjojhf	-2094
igd	-2095
▁hsø	-2096
▁itú	-2097
▁ear	-2098
▁oúejvg	-2099
▁organ	-2100
▁inst	-2101
▁csbv	-2102
▁long	-2103
imm	-2104
iss	-2105
gra	-2106
ßjf	-2107
▁erk	-2108
oufso	-2109
iden	-2110
▁el	-2111
▁intern	-2112
juuf	-2113
▁gegen	-2114
▁hfhfo	-2115
nden	-2116
▁called	-2117
con	-2118
▁möchte	-2119
llt	-2120
vgtp	-2121
▁igpcw	-2122
▁wr	-2123
▁hfobv	-2124
omen	-2125
▁end	-2126
▁konn	-2127
ucht	-2128
▁cfo	-2129
ls	-2130
wf	-2131
kpg	-2132
▁mqpp	-2133
▁genau	-2134
mer	-2135
ating	-2136
essen	-2137
vgkn	-2138
orn	-2139
jtq	-2140
▁drei	-2141
▁tdis	-2142
tfs	-2143
▁xgtn	-2144
mp	-2145
▁information	-2146
qhh	-2147
▁dtcw	-2148
▁tatsächlich	-2149
▁ubutådimjdi	-2150
▁vcvuçejnkej	-2151
▁kinder	-2152
▁countr	-2153
ckt	-2154
vkx	-2155
self	-2156
ious	-2157
▁ugk	-2158
▁bi	-2159
cngp	-2160
▁dgp	-2161
gnp	-2162
▁qd	-2163
▁fsg	-2164
▁made	-2165
fore	-2166
▁uejt	-2167
▁urkgn	-2168
les	-2169
cpfgn	-2170
àk	-2171
▁warum	-2172
▁xbsvn	-2173
▁macht	-2174
▁yctwo	-2175
▁wfsm	-2176
▁today	-2177
üt	-2178
▁zurück	-2179
▁igh	-2180
▁nbdiu	-2181
▁bere	-2182
▁ocejv	-2183
oefo	-2184
▁ßf	-2185
▁jot	-2186
▁kfe	-2187
▁eigen	-2188
mgkv	-2189
ün	-2190
▁cfus	-2191
▁dgvt	-2192
dlfo	-2193
yp	-2194
vor	-2195
gugp	-2196
▁abs	-2197
sche	-2198
▁letz	-2199
jnn	-2200
ygp	-2201
▁tqjfm	-2202
▁geschichte	-2203
▁hftdijdiuf	-2204
cwv	-2205
pro	-2206
qsp	-2207
bujpofo	-2208
cvkqpgp	-2209
▁iguejkejvg	-2210
ins	-2211
cial	-2212
cpv	-2213
▁last	-2214
▁bild	-2215
▁learn	-2216
▁far	-2217
iof	-2218
▁18	-2219
hren	-2220
oc	-2221
jfsuf	-2222
▁gkpà	-2223
jpg	-2224
▁fcxqp	-2225
▁quest	-2226
ica	-2227
zie	-2228
▁fall	-2229
▁davon	-2230
ehen	-2231
▁sci	-2232
teil	-2233
▁uß	-2234
tufifo	-2235
bvu	-2236
nfo	-2237
cfj	-2238
dgkv	-2239
emgp	-2240
▁buil	-2241
wor	-2242
angen	-2243
omjdi	-2244
▁dort	-2245
ogp	-2246
▁cfjtq	-2247
▁beisp	-2248
▁should	-2249
▁sc	-2250
▁ebwpo	-2251
,"	-2252
▁bewe	-2253
wi	-2254
ho	-2255
ient	-2256
onkej	-2257
,000	-2258
hne	-2259
▁jem	-2260
▁kfn	-2261
▁lgo	-2262
ßen	-2263
▁verw	-2264
▁ogpuej	-2265
cfg	-2266
ftfo	-2267
åis	-2268
▁möglich	-2269
bef	-2270
▁größ	-2271
ön	-2272
▁hö	-2273
▁cfxf	-2274
▁urt	-2275
ichten	-2276
xp	-2277
▁bede	-2278
▁arbeit	-2279
▁import	-2280
▁cfef	-2281
▁dgfg	-2282
▁play	-2283
▁underst	-2284
esen	-2285
ßå	-2286
cvgt	-2287
▁pw	-2288
dent	-2289
inden	-2290
ition	-2291
bufs	-2292
kgtvg	-2293
ctv	-2294
gung	-2295
▁tqs	-2296
igpf	-2297
qnng	-2298
▁obu	-2299
▁efolfo	-2300
▁fgpmgp	-2301
bdiuf	-2302
▁woh	-2303
ved	-2304
▁zie	-2305
sfdifo	-2306
tgejgp	-2307
▁denken	-2308
ejfo	-2309
▁turn	-2310
ix	-2311
▁iboe	-2312
▁ncpf	-2313
ejh	-2314
uejn	-2315
oog	-2316
chten	-2317
xqt	-2318
ster	-2319
kejvgp	-2320
▁seine	-2321
▁thought	-2322
▁ugkpg	-2323
pku	-2324
▁dan	-2325
▁tfjof	-2326
zäh	-2327
▁hatten	-2328
▁ibuufo	-2329
▁jcvvgp	-2330
umjdi	-2331
jdiufo	-2332
▁him	-2333
▁ubh	-2334
wejgp	-2335
▁gener	-2336
▁qbbs	-2337
▁rcct	-2338
▁ef	-2339
▁creat	-2340
▁another	-2341
▁xjdiujh	-2342
▁ßjf	-2343
▁dguej	-2344
▁cftdi	-2345
▁feel	-2346
▁løoouf	-2347
▁múppvg	-2348
bmf	-2349
ational	-2350
bal	-2351
▁paar	-2352
▁hsøà	-2353
ierte	-2354
ogra	-2355
tuboe	-2356
▁darüber	-2357
▁ebsýcfs	-2358
▁fctādgt	-2359
bggfo	-2360
diop	-2361
mphjf	-2362
▁mean	-2363
igkeit	-2364
▁12	-2365
cejvg	-2366
jdiut	-2367
▁planet	-2368
▁its	-2369
jcnd	-2370
▁inv	-2371
▁ygi	-2372
bei	-2373
▁ser	-2374
qnqikg	-2375
▁lbn	-2376
▁joufsftt	-2377
uten	-2378
▁chin	-2379
ibmc	-2380
▁cour	-2381
▁könnte	-2382
▁ign	-2383
▁belie	-2384
▁gtuvg	-2385
irn	-2386
pgt	-2387
vtt	-2388
▁xfh	-2389
rechen	-2390
pq	-2391
affen	-2392
▁hmfjdi	-2393
▁ted	-2394
▁ä	-2395
cuv	-2396
▁natür	-2397
▁obuýs	-2398
▁pcvāt	-2399
▁glo	-2400
▁hfc	-2401
▁[	-2402
ygkug	-2403
▁idea	-2404
▁xgtuvg	-2405
jof	-2406
hqto	-2407
▁weg	-2408
▁dknf	-2409
land	-2410
entlich	-2411
uss	-2412
▁thank	-2413
àkg	-2414
halb	-2415
voefo	-2416
schen	-2417
▁change	-2418
bufo	-2419
▁didn	-2420
▁before	-2421
▁dra	-2422
▁wfsc	-2423
ities	-2424
▁story	-2425
▁veränd	-2426
▁erf	-2427
nmjdi	-2428
▁40	-2429
▁wfsåoefs	-2430
bot	-2431
▁rem	-2432
▁verste	-2433
ible	-2434
▁lassen	-2435
▁mbttfo	-2436
▁ncuugp	-2437
▁ber	-2438
▁weiß	-2439
▁xfjà	-2440
▁still	-2441
▁gehen	-2442
▁hfifo	-2443
▁igjgp	-2444
vq	-2445
bhf	-2446
▁bvu	-2447
cpfgp	-2448
▁school	-2449
▁besch	-2450
▁important	-2451
wps	-2452
mmuf	-2453
▁power	-2454
lä	-2455
kte	-2456
mlich	-2457
qtgp	-2458
sw	-2459
ids	-2460
▁moment	-2461
reich	-2462
▁went	-2463
fmm	-2464
▁qfst	-2465
bdifo	-2466
wpmvkqp	-2467
jtv	-2468
ache	-2469
▁rgtu	-2470
▁xpmmfo	-2471
▁yqnngp	-2472
nnvg	-2473
▁wollen	-2474
jhlfju	-2475
▁werde	-2476
▁xfsef	-2477
▁ygtfg	-2478
ope	-2479
▁gsf	-2480
▁ter	-2481
oren	-2482
▁àkg	-2483
▁started	-2484
▁ask	-2485
cvà	-2486
çpfgtp	-2487
cken	-2488
▁cpig	-2489
kes	-2490
atz	-2491
cvg	-2492
▁htg	-2493
vußfo	-2494
▁ihren	-2495
▁jisfo	-2496
▁kjtgp	-2497
▁währ	-2498
▁computer	-2499
mfs	-2500
dr	-2501
mpt	-2502
▁ngk	-2503
isfoe	-2504
▁give	-2505
▁cjme	-2506
▁high	-2507
▁meiner	-2508
weise	-2509
xfjtf	-2510
▁jgk	-2511
▁nfjofs	-2512
▁ogkpgt	-2513
▁dgkurkgn	-2514
hfs	-2515
▁exam	-2516
▁ukejgt	-2517
ha	-2518
▁bou	-2519
ufjm	-2520
jkp	-2521
hgt	-2522
buß	-2523
fol	-2524
▁ogk	-2525
ty	-2526
▁never	-2527
▁sond	-2528
▁fil	-2529
hbs	-2530
▁lpnnfo	-2531
▁mqoogp	-2532
oefso	-2533
▁nfj	-2534
▁univers	-2535
ult	-2536
▁25	-2537
▁imag	-2538
▁found	-2539
▁ncp	-2540
ahl	-2541
▁jeder	-2542
▁kfefs	-2543
▁lgfgt	-2544
▁wpst	-2545
gkvu	-2546
àgw	-2547
jtgpf	-2548
▁gtàç	-2549
▁erzäh	-2550
▁fsßå	-2551
▁bill	-2552
▁sfh	-2553
anden	-2554
gar	-2555
ms	-2556
▁beispiel	-2557
▁bess	-2558
ital	-2559
cejgp	-2560
▁woll	-2561
bmfo	-2562
ility	-2563
▁während	-2564
▁xåisfoe	-2565
ugen	-2566
wpfg	-2567
▁fol	-2568
▁wurden	-2569
▁xvsefo	-2570
▁ywtfgp	-2571
▁bv	-2572
▁lsf	-2573
▁gvolu	-2574
▁cftt	-2575
▁better	-2576
▁schn	-2577
▁fstuf	-2578
▁beginn	-2579
▁hwpmvkqp	-2580
▁xqtu	-2581
▁fsx	-2582
▁yqt	-2583
▁tre	-2584
▁sicher	-2585
▁tjdifs	-2586
▁polit	-2587
für	-2588
▁fcàw	-2589
▁dguugt	-2590
▁ebßv	-2591
schein	-2592
▁lang	-2593
▁sen	-2594
utdibgu	-2595
▁interess	-2596
vv	-2597
utzen	-2598
▁wa	-2599
▁xb	-2600
▁course	-2601
▁jshfoe	-2602
▁yçjtgpf	-2603
ugn	-2604
uejkgfgp	-2605
▁sort	-2606
▁ygká	-2607
gpm	-2608
ýo	-2609
vkuej	-2610
bsc	-2611
az	-2612
▁ebo	-2613
▁gab	-2614
▁nå	-2615
▁sta	-2616
ists	-2617
▁ofvf	-2618
▁uvk	-2619
▁kpvgtguu	-2620
▁mä	-2621
ather	-2622
fkgp	-2623
▁funktion	-2624
▁fcp	-2625
▁cfjtqjfm	-2626
çf	-2627
▁able	-2628
úp	-2629
mbv	-2630
▁vom	-2631
gpsn	-2632
▁dazu	-2633
schieden	-2634
tdijfefo	-2635
uvgo	-2636
▁dgyg	-2637
▁evol	-2638
pgv	-2639
▁might	-2640
▁brain	-2641
▁wichtig	-2642
▁icd	-2643
▁wpn	-2644
▁pgwg	-2645
ýim	-2646
▁xjmm	-2647
▁yknn	-2648
bhu	-2649
juu	-2650
▁ufdiop	-2651
▁gm	-2652
dig	-2653
▁oqp	-2654
▁next	-2655
▁ibm	-2656
▁hbc	-2657
▁num	-2658
kimgkv	-2659
cted	-2660
▁verl	-2661
cpfgt	-2662
vkigp	-2663
▁kommen	-2664
ikg	-2665
▁joe	-2666
▁erst	-2667
utz	-2668
▁tub	-2669
cpà	-2670
gnng	-2671
fer	-2672
uge	-2673
▁rtqdngo	-2674
difjo	-2675
▁char	-2676
ward	-2677
hjf	-2678
▁each	-2679
kf	-2680
▁xqo	-2681
▁kfnboe	-2682
▁sondern	-2683
▁tpoefso	-2684
▁uqpfgtp	-2685
ond	-2686
cor	-2687
difs	-2688
▁ans	-2689
▁hfijs	-2690
▁igjkt	-2691
ma	-2692
cvkx	-2693
▁lern	-2694
bujw	-2695
coo	-2696
▁ago	-2697
▁denke	-2698
▁efolf	-2699
▁fgpmg	-2700
▁ctdgkv	-2701
ider	-2702
▁nam	-2703
▁bus	-2704
▁mfj	-2705
tuå	-2706
▁dguv	-2707
▁wpugtgt	-2708
▁dat	-2709
▁trans	-2710
▁unserer	-2711
▁votfsfs	-2712
ced	-2713
uer	-2714
▁uqict	-2715
▁natürlich	-2716
▁obuýsmjdi	-2717
▁pcvātnkej	-2718
▁sogar	-2719
▁tphbs	-2720
rgp	-2721
▁technology	-2722
jlb	-2723
▁sl	-2724
iven	-2725
▁yçtg	-2726
▁help	-2727
▁wäre	-2728
▁toget	-2729
▁xåsf	-2730
pgjogp	-2731
▁together	-2732
ont	-2733
▁iå	-2734
ejgt	-2735
▁neue	-2736
anz	-2737
old	-2738
ugjgp	-2739
▁gemacht	-2740
▁ßxjtdifo	-2741
▁àykuejgp	-2742
ander	-2743
fjcfo	-2744
▁hfnbdiu	-2745
▁igocejv	-2746
ojt	-2747
▁tag	-2748
cond	-2749
▁cre	-2750
velop	-2751
▁zwischen	-2752
▁sk	-2753
▁fast	-2754
cwhgp	-2755
▁came	-2756
▁oft	-2757
▁natur	-2758
▁gvolujpo	-2759
▁wissenschaft	-2760
▁xjttfotdibgu	-2761
under	-2762
▁ngtp	-2763
▁vide	-2764
▁xgtuwej	-2765
up	-2766
iå	-2767
▁hfnfjo	-2768
▁igogkp	-2769
juf	-2770
▁mco	-2771
▁mor	-2772
▁denen	-2773
▁efofo	-2774
▁fgpgp	-2775
▁place	-2776
kc	-2777
▁gsbhf	-2778
▁htcig	-2779
rgt	-2780
xjs	-2781
▁water	-2782
▁mater	-2783
enden	-2784
▁four	-2785
▁glaube	-2786
▁hmbvcf	-2787
▁incwdg	-2788
ohn	-2789
▁phys	-2790
▁commun	-2791
rn	-2792
vuß	-2793
ßfou	-2794
▁act	-2795
akt	-2796
icp	-2797
▁bscfju	-2798
civ	-2799
▁frage	-2800
▁comple	-2801
▁number	-2802
els	-2803
wuu	-2804
bdiufo	-2805
▁ycuugt	-2806
▁gjoefo	-2807
▁hkpfgp	-2808
▁ohne	-2809
▁piof	-2810
▁qjpg	-2811
▁finden	-2812
stellen	-2813
▁kur	-2814
▁lea	-2815
▁develop	-2816
ween	-2817
cejvgp	-2818
▁hfsbef	-2819
▁gerade	-2820
▁igtcfg	-2821
alth	-2822
▁mat	-2823
eju	-2824
ative	-2825
▁doch	-2826
okv	-2827
▁epdi	-2828
▁fqej	-2829
cvv	-2830
ov	-2831
▁qpm	-2832
▁xbis	-2833
▁ycjt	-2834
▁fstufo	-2835
▁gtuvgp	-2836
▁näch	-2837
▁oådi	-2838
▁publ	-2839
▁pçej	-2840
▁ihrer	-2841
▁ersten	-2842
gýs	-2843
▁irgend	-2844
▁spie	-2845
▁fjonbm	-2846
ykt	-2847
▁hät	-2848
▁iåu	-2849
▁jçv	-2850
▁einmal	-2851
▁gkpocn	-2852
boß	-2853
▁joo	-2854
▁itwpf	-2855
▁kjtgt	-2856
▁jisfs	-2857
▁lebens	-2858
vqq	-2859
▁few	-2860
ngk	-2861
ppe	-2862
àgpv	-2863
▁ykejvki	-2864
vkig	-2865
boefs	-2866
qf	-2867
man	-2868
fü	-2869
ika	-2870
▁dk	-2871
arch	-2872
▁geben	-2873
▁hfcfo	-2874
▁igdgp	-2875
ited	-2876
chv	-2877
▁oc	-2878
▁exp	-2879
▁xbttfs	-2880
rg	-2881
▁letzten	-2882
▁mfußufo	-2883
▁ngvàvgp	-2884
qvu	-2885
buf	-2886
▁between	-2887
rtq	-2888
▁weit	-2889
▁lar	-2890
▁son	-2891
▁vci	-2892
hrt	-2893
▁bog	-2894
fsofo	-2895
▁cons	-2896
kgtwpi	-2897
▁incre	-2898
nehmen	-2899
▁second	-2900
iness	-2901
▁nichts	-2902
din	-2903
▁fch	-2904
▁gehirn	-2905
▁jeff	-2906
▁blu	-2907
jfsvoh	-2908
▁interest	-2909
▁used	-2910
▁stra	-2911
vgnn	-2912
▁zeigen	-2913
▁ßfjhfo	-2914
▁àgkigp	-2915
▁internet	-2916
▁lö	-2917
▁yc	-2918
achen	-2919
▁ojdiut	-2920
los	-2921
▁small	-2922
hfg	-2923
▁mø	-2924
▁nú	-2925
ierung	-2926
ional	-2927
▁pkejvu	-2928
▁gtuv	-2929
▁inte	-2930
▁eing	-2931
gel	-2932
jho	-2933
▁rqn	-2934
▁point	-2935
▁dafür	-2936
▁ebgýs	-2937
▁fchāt	-2938
efn	-2939
▁gty	-2940
ifn	-2941
unkt	-2942
▁dach	-2943
alt	-2944
jgo	-2945
diufo	-2946
ied	-2947
ßfv	-2948
çj	-2949
▁old	-2950
▁prozent	-2951
▁stre	-2952
▁würden	-2953
▁xýsefo	-2954
▁yātfgp	-2955
dern	-2956
ationen	-2957
▁kommt	-2958
▁60	-2959
anted	-2960
▁lpnnu	-2961
▁mqoov	-2962
ized	-2963
hfcfo	-2964
igdgp	-2965
▁question	-2966
▁cftu	-2967
▁hkp	-2968
▁stand	-2969
▁tw	-2970
▁light	-2971
▁def	-2972
so	-2973
▁looking	-2974
gv	-2975
▁bew	-2976
▁qspßfou	-2977
▁rtqàgpv	-2978
▁grow	-2979
▁done	-2980
arbe	-2981
▁mtg	-2982
▁global	-2983
▁erw	-2984
chhgp	-2985
keiten	-2986
▁maybe	-2987
ail	-2988
cnv	-2989
kmc	-2990
▁gemein	-2991
lfjufo	-2992
ift	-2993
▁uqn	-2994
ngm	-2995
▁verstehen	-2996
▁wfstufifo	-2997
▁xgtuvgjgp	-2998
▁mqor	-2999
▁children	-3000
▁å	-3001
ded	-3002
dem	-3003
kejgp	-3004
▁rest	-3005
▁understand	-3006
mit	-3007
▁cell	-3008
▁mark	-3009
▁ru	-3010
jekt	-3011
▁kre	-3012
▁dire	-3013
tschaft	-3014
nb	-3015
read	-3016
▁bct	-3017
hfifo	-3018
igjgp	-3019
útgp	-3020
▁auß	-3021
▁bvà	-3022
▁xkgt	-3023
▁passiert	-3024
▁qbttjfsu	-3025
▁rcuukgtv	-3026
äft	-3027
oney	-3028
▁live	-3029
▁wasser	-3030
att	-3031
▁qspev	-3032
▁wfscs	-3033
▁xgtdt	-3034
df	-3035
▁kfgg	-3036
▁okay	-3037
▁schl	-3038
juv	-3039
▁oct	-3040
▁tgk	-3041
bvgfo	-3042
▁rtqfw	-3043
ably	-3044
qigp	-3045
▁love	-3046
▁data	-3047
▁whole	-3048
▁wfstdijfefo	-3049
▁xgtuejkgfgp	-3050
▁verschieden	-3051
▁studi	-3052
ways	-3053
▁mil	-3054
▁cur	-3055
ejvgp	-3056
▁doesn	-3057
▁sieht	-3058
▁tjfiu	-3059
▁ukgjv	-3060
vi	-3061
iø	-3062
ac	-3063
zeit	-3064
▁erste	-3065
conom	-3066
▁tdiof	-3067
vers	-3068
▁tpm	-3069
fsvoh	-3070
uu	-3071
▁dre	-3072
▁fctcp	-3073
▁nfjtufo	-3074
▁ogkuvgp	-3075
rh	-3076
ystem	-3077
▁ebsbo	-3078
▁uejpg	-3079
▁vielen	-3080
▁wjfmfo	-3081
▁xkgngp	-3082
▁gpsn	-3083
▁daran	-3084
ingt	-3085
tro	-3086
ember	-3087
▁—	-3088
the	-3089
wvgt	-3090
▁cfg	-3091
▁vier	-3092
▁lpoouf	-3093
▁mqppvg	-3094
iboe	-3095
cß	-3096
ore	-3097
pos	-3098
▁rv	-3099
▁cor	-3100
▁millionen	-3101
▁njmmjpofo	-3102
▁oknnkqpgp	-3103
xjf	-3104
▁konnte	-3105
▁example	-3106
jwfst	-3107
ykg	-3108
▁mind	-3109
▁mfcfot	-3110
nis	-3111
▁mwt	-3112
▁ander	-3113
gvgp	-3114
▁prob	-3115
äs	-3116
▁econom	-3117
lung	-3118
bsl	-3119
ßjo	-3120
ikan	-3121
▁lvs	-3122
▁okp	-3123
ijo	-3124
kmcp	-3125
wpmv	-3126
str	-3127
▁80	-3128
▁vir	-3129
hm	-3130
erung	-3131
▁199	-3132
▁cjp	-3133
▁mut	-3134
cher	-3135
gest	-3136
uejgk	-3137
▁such	-3138
gý	-3139
fshjf	-3140
▁less	-3141
bz	-3142
des	-3143
fußfo	-3144
immt	-3145
bisfo	-3146
cjtgp	-3147
▁haus	-3148
jlbo	-3149
fstu	-3150
selves	-3151
▁building	-3152
gtikg	-3153
▁ganze	-3154
▁hboßf	-3155
▁icpàg	-3156
kh	-3157
ionen	-3158
▁ngdgpu	-3159
▁gre	-3160
elle	-3161
▁dpn	-3162
▁wanted	-3163
▁ibvt	-3164
▁health	-3165
▁arch	-3166
▁progra	-3167
▁idee	-3168
▁ebufo	-3169
▁fcvgp	-3170
▁hfme	-3171
▁care	-3172
▁fstu	-3173
▁ignf	-3174
▁fcdgk	-3175
▁stellen	-3176
▁tufmmfo	-3177
▁uvgnngp	-3178
▁ebcfj	-3179
▁nehmen	-3180
▁ofinfo	-3181
▁pgjogp	-3182
▁gb	-3183
▁material	-3184
koo	-3185
▁dabei	-3186
øo	-3187
tufmmfo	-3188
▁mot	-3189
tdifo	-3190
▁book	-3191
gtv	-3192
▁na	-3193
▁tbhu	-3194
▁uciv	-3195
ines	-3196
▁mag	-3197
▁pic	-3198
ahren	-3199
▁geld	-3200
tre	-3201
▁njo	-3202
▁pres	-3203
▁foutdi	-3204
vid	-3205
▁hqn	-3206
▁colle	-3207
cnvgp	-3208
qtf	-3209
▁jq	-3210
cept	-3211
▁anf	-3212
ings	-3213
▁video	-3214
▁jemand	-3215
▁dgm	-3216
▁anim	-3217
kvv	-3218
gnngp	-3219
unden	-3220
▁große	-3221
▁hspàf	-3222
▁itqág	-3223
pf	-3224
jnnu	-3225
▁wjfs	-3226
▁project	-3227
wnv	-3228
allen	-3229
▁cph	-3230
▁eig	-3231
▁etwa	-3232
▁five	-3233
▁fuxb	-3234
▁gvyc	-3235
▁lpou	-3236
▁har	-3237
▁mbo	-3238
ement	-3239
buu	-3240
▁mp	-3241
▁women	-3242
▁je	-3243
▁könnten	-3244
▁løooufo	-3245
▁múppvgp	-3246
spe	-3247
▁wpkx	-3248
uvgnngp	-3249
▁trying	-3250
▁stru	-3251
ßjbm	-3252
▁neu	-3253
geben	-3254
▁dgpw	-3255
▁poss	-3256
ets	-3257
ross	-3258
ühl	-3259
▁dp	-3260
▁gpm	-3261
jtdifs	-3262
▁zeigt	-3263
ates	-3264
yq	-3265
etzen	-3266
▁bscfjufo	-3267
▁ctdgkvgp	-3268
mfl	-3269
▁tv	-3270
fjtu	-3271
▁ktigpf	-3272
▁experim	-3273
▁11	-3274
▁kpu	-3275
atch	-3276
▁bek	-3277
▁effe	-3278
▁glück	-3279
▁hmýdl	-3280
▁ināem	-3281
cwd	-3282
wir	-3283
ggfo	-3284
▁hqto	-3285
▁times	-3286
gfs	-3287
psfo	-3288
▁dec	-3289
fjufu	-3290
lbo	-3291
iwpi	-3292
▁gar	-3293
▁spra	-3294
▁daten	-3295
▁arbeiten	-3296
fufo	-3297
▁jcw	-3298
▁hund	-3299
▁àkgonkej	-3300
▁ogf	-3301
bq	-3302
▁qfstpo	-3303
▁rgtuqp	-3304
gef	-3305
▁money	-3306
▁working	-3307
emjdi	-3308
▁besser	-3309
▁tpmmuf	-3310
▁uqnnvg	-3311
ives	-3312
▁vis	-3313
▁mboh	-3314
▁space	-3315
▁tkejv	-3316
▁kids	-3317
uejt	-3318
fttfo	-3319
▁rncp	-3320
▁cfttfs	-3321
▁away	-3322
▁reas	-3323
▁sing	-3324
kun	-3325
kppgp	-3326
sam	-3327
▁cam	-3328
▁jogpsn	-3329
▁htcwgp	-3330
▁everything	-3331
hä	-3332
raft	-3333
anken	-3334
▁frauen	-3335
▁gsbvfo	-3336
▁ziemlich	-3337
▁ßjfnmjdi	-3338
jb	-3339
zin	-3340
▁always	-3341
▁believe	-3342
▁vojwfst	-3343
nen	-3344
▁gkigpvnkej	-3345
cular	-3346
▁open	-3347
▁chang	-3348
▁kphqto	-3349
finfo	-3350
▁uvct	-3351
▁sollte	-3352
▁schnell	-3353
licher	-3354
▁sollten	-3355
▁tpmmufo	-3356
▁uqnnvgp	-3357
cnu	-3358
▁ow	-3359
bi	-3360
▁bre	-3361
bojt	-3362
▁sign	-3363
▁tdiofmm	-3364
▁raum	-3365
▁country	-3366
joofo	-3367
▁qmbo	-3368
▁uejw	-3369
çpf	-3370
▁npo	-3371
cal	-3372
▁welche	-3373
▁hä	-3374
▁xfmdif	-3375
▁ygnejg	-3376
mvoh	-3377
▁ged	-3378
▁htcigp	-3379
nder	-3380
ischer	-3381
▁fragen	-3382
▁gsbhfo	-3383
▁/	-3384
vdl	-3385
útv	-3386
kuejgt	-3387
▁meisten	-3388
ftw	-3389
▁gjo	-3390
▁xps	-3391
▁food	-3392
hlen	-3393
kgtg	-3394
▁ejs	-3395
▁fkt	-3396
iar	-3397
▁xpmmuf	-3398
▁yqnnvg	-3399
▁uejpgnn	-3400
áv	-3401
igy	-3402
isen	-3403
▁tqsfdifo	-3404
▁urtgejgp	-3405
agt	-3406
ngigp	-3407
urt	-3408
▁sprechen	-3409
▁math	-3410
tun	-3411
▁using	-3412
▁tztufn	-3413
▁lab	-3414
▁beste	-3415
gkpnkej	-3416
ßfju	-3417
▁bekommen	-3418
▁cflpnnfo	-3419
▁dgmqoogp	-3420
▁cfx	-3421
▁soz	-3422
off	-3423
▁wollte	-3424
▁jú	-3425
jtfo	-3426
▁kör	-3427
▁løs	-3428
▁nfjofo	-3429
▁ogkpgp	-3430
stand	-3431
▁darauf	-3432
▁ebsbvg	-3433
▁meinen	-3434
igu	-3435
kpiv	-3436
▁dguvg	-3437
▁teach	-3438
▁fctcwh	-3439
mmbs	-3440
▁fn	-3441
▁mútr	-3442
mwp	-3443
▁cap	-3444
▁hvuf	-3445
▁iwvg	-3446
▁wfstdi	-3447
▁ip	-3448
▁rich	-3449
emv	-3450
vogu	-3451
▁igf	-3452
▁pra	-3453
▁prof	-3454
vie	-3455
▁kor	-3456
jfsf	-3457
bolfo	-3458
cpmgp	-3459
qnnct	-3460
▁ging	-3461
▁versch	-3462
▁ßvl	-3463
▁hist	-3464
çu	-3465
jtuej	-3466
▁ipdi	-3467
▁jqej	-3468
▁meinem	-3469
▁nfjofn	-3470
▁ogkpgo	-3471
ág	-3472
ga	-3473
▁dgj	-3474
aufen	-3475
sehen	-3476
▁igjktp	-3477
nvt	-3478
▁mjo	-3479
▁nfej	-3480
hsb	-3481
▁cwv	-3482
istdifjo	-3483
asch	-3484
▁experien	-3485
cpu	-3486
▁cle	-3487
schied	-3488
dq	-3489
vern	-3490
unter	-3491
▁eqor	-3492
▁fssf	-3493
▁gttg	-3494
▁xgtçpfgt	-3495
▁under	-3496
▁hfijso	-3497
▁sbvn	-3498
ograph	-3499
▁kleinen	-3500
▁lmfjofo	-3501
▁mngkpgp	-3502
cts	-3503
jef	-3504
▁wpkxgtu	-3505
jd	-3506
kvvg	-3507
▁bnfs	-3508
▁cogt	-3509
gtuv	-3510
▁air	-3511
▁jgn	-3512
▁kun	-3513
▁nvu	-3514
kfg	-3515
▁ende	-3516
▁wpstuf	-3517
stru	-3518
bmt	-3519
mvwt	-3520
▁nkp	-3521
▁16	-3522
▁ifm	-3523
▁bedeute	-3524
▁cfefvuf	-3525
▁dgfgwvg	-3526
hvoh	-3527
▁hoch	-3528
▁col	-3529
bmu	-3530
xboe	-3531
▁cent	-3532
▁earth	-3533
▁joufso	-3534
jnv	-3535
▁oå	-3536
ustr	-3537
▁psh	-3538
legen	-3539
istdifjomjdi	-3540
jtuejgkpnkej	-3541
ych	-3542
cmjdi	-3543
▁took	-3544
hb	-3545
kgdgp	-3546
▁set	-3547
▁cwágt	-3548
cke	-3549
uvcpf	-3550
▁tfju	-3551
▁thinking	-3552
annt	-3553
▁ugkv	-3554
led	-3555
▁pop	-3556
▁hjoh	-3557
kunft	-3558
▁bvàfs	-3559
▁voufstdijf	-3560
▁wpvgtuejkg	-3561
çh	-3562
mgt	-3563
ork	-3564
▁nfu	-3565
▁ikpi	-3566
▁tfj	-3567
wvkqp	-3568
qpfgt	-3569
▁must	-3570
▁energy	-3571
▁außer	-3572
▁jcpf	-3573
▁future	-3574
▁walk	-3575
öt	-3576
▁pç	-3577
▁wpin	-3578
▁conne	-3579
▁arm	-3580
▁home	-3581
ört	-3582
▁china	-3583
▁means	-3584
▁ipg	-3585
poefs	-3586
▁create	-3587
▁dpnqvu	-3588
▁wfsxfo	-3589
▁xgtygp	-3590
mö	-3591
fuu	-3592
jçp	-3593
wpvgt	-3594
▁bab	-3595
▁uvc	-3596
▁interesting	-3597
▁bil	-3598
▁gpfg	-3599
▁hard	-3600
▁eigentlich	-3601
▁fjhfoumjdi	-3602
jhu	-3603
▁cvdi	-3604
eter	-3605
▁sin	-3606
▁rtql	-3607
▁xvoefs	-3608
▁ywpfgt	-3609
vir	-3610
▁hāph	-3611
gkdgp	-3612
▁fofshjf	-3613
▁ange	-3614
▁seit	-3615
bnjm	-3616
▁neur	-3617
▁gpgtikg	-3618
▁weniger	-3619
▁xfojhfs	-3620
▁ygpkigt	-3621
▁typ	-3622
jfcfo	-3623
scheinlich	-3624
▁nb	-3625
cokn	-3626
cover	-3627
▁tdiv	-3628
wie	-3629
▁bef	-3630
▁dwej	-3631
▁ighā	-3632
▁left	-3633
ktiv	-3634
▁dq	-3635
▁dgy	-3636
▁compan	-3637
▁schle	-3638
evoh	-3639
fjof	-3640
▁qticp	-3641
50	-3642
▁quite	-3643
▁ufdiopmphjf	-3644
▁vgejpqnqikg	-3645
ount	-3646
▁bgs	-3647
▁cht	-3648
▁become	-3649
▁glauben	-3650
▁hmbvcfo	-3651
▁incwdgp	-3652
çjp	-3653
tp	-3654
zo	-3655
▁los	-3656
▁elect	-3657
▁enough	-3658
▁eur	-3659
▁fqnnct	-3660
▁lgocpf	-3661
▁rct	-3662
▁foef	-3663
▁epmmbs	-3664
▁process	-3665
øs	-3666
▁expl	-3667
reiben	-3668
▁innov	-3669
▁90	-3670
▁bohf	-3671
▁mfsofo	-3672
▁ngtpgp	-3673
cer	-3674
pgg	-3675
▁buch	-3676
▁ejt	-3677
▁erinn	-3678
▁fsjoo	-3679
▁gtkpp	-3680
▁wunder	-3681
▁technologie	-3682
ågu	-3683
fwpi	-3684
iend	-3685
kgtvgp	-3686
ogt	-3687
▁ant	-3688
▁net	-3689
▁energie	-3690
kvà	-3691
vyqtv	-3692
▁comes	-3693
▁patient	-3694
bung	-3695
cppv	-3696
cvoh	-3697
ukejv	-3698
zlich	-3699
àgk	-3700
▁schu	-3701
ändern	-3702
åoefso	-3703
▁tqf	-3704
ention	-3705
jwf	-3706
eten	-3707
▁biolog	-3708
▁ganzen	-3709
▁hboßfo	-3710
▁icpàgp	-3711
▁probably	-3712
▁owv	-3713
▁chr	-3714
▁ljoe	-3715
▁govern	-3716
▁grou	-3717
▁half	-3718
▁sache	-3719
▁tbdif	-3720
▁ucejg	-3721
rum	-3722
press	-3723
▁jeden	-3724
▁kfefo	-3725
▁lgfgp	-3726
▁14	-3727
▁npn	-3728
▁oqo	-3729
ments	-3730
qtigp	-3731
▁qspk	-3732
▁uejng	-3733
▁fjot	-3734
▁says	-3735
▁sense	-3736
▁versuch	-3737
kip	-3738
mwphv	-3739
▁film	-3740
▁getting	-3741
jgu	-3742
▁phot	-3743
▁bedeutet	-3744
▁cfefvufu	-3745
▁dgfgwvgv	-3746
▁cý	-3747
jpot	-3748
▁spiel	-3749
▁großen	-3750
▁hspàfo	-3751
▁itqágp	-3752
▁xbistdifjomjdi	-3753
▁ycjtuejgkpnkej	-3754
gpà	-3755
▁heiß	-3756
▁ifjà	-3757
dlu	-3758
▁pcogp	-3759
▁social	-3760
▁bringen	-3761
▁csjohfo	-3762
▁dtkpigp	-3763
ouse	-3764
imu	-3765
ific	-3766
ierten	-3767
▁obnfo	-3768
▁hc	-3769
▁rep	-3770
▁read	-3771
▁må	-3772
▁without	-3773
vl	-3774
duc	-3775
cture	-3776
▁lernen	-3777
gte	-3778
▁kjo	-3779
▁uvwf	-3780
lly	-3781
▁ops	-3782
▁gbnjm	-3783
▁hcokn	-3784
çvgt	-3785
▁komple	-3786
▁mqorng	-3787
mn	-3788
åufs	-3789
▁jin	-3790
pnnfo	-3791
▁face	-3792
▁science	-3793
kgu	-3794
ommen	-3795
vkm	-3796
▁bü	-3797
▁ihm	-3798
kgigp	-3799
▁tcwo	-3800
▁york	-3801
ertain	-3802
jfsufo	-3803
▁fk	-3804
cuej	-3805
▁hftu	-3806
▁mann	-3807
▁begann	-3808
▁cfhboo	-3809
▁dgicpp	-3810
▁friend	-3811
mme	-3812
▁gn	-3813
btdi	-3814
ican	-3815
ories	-3816
▁jedes	-3817
▁kfeft	-3818
▁lgfgu	-3819
nfs	-3820
ennt	-3821
▁ris	-3822
▁city	-3823
▁kleine	-3824
▁lmfjof	-3825
▁mngkpg	-3826
uejchvnkej	-3827
äter	-3828
▁eqorwvgt	-3829
tufmmu	-3830
▁unseren	-3831
▁votfsfo	-3832
▁wpugtgp	-3833
ýu	-3834
▁month	-3835
ofo	-3836
gppv	-3837
▁prote	-3838
▁making	-3839
ctg	-3840
erne	-3841
▁stuff	-3842
▁gesund	-3843
▁hftvoe	-3844
äu	-3845
▁htā	-3846
hkp	-3847
▁tgi	-3848
▁test	-3849
▁beaut	-3850
nde	-3851
▁bring	-3852
▁invest	-3853
ek	-3854
rü	-3855
woh	-3856
usst	-3857
blich	-3858
▁gýog	-3859
▁uqàk	-3860
▁tdimf	-3861
▁gesehen	-3862
▁hftfifo	-3863
▁igugjgp	-3864
▁individ	-3865
fra	-3866
▁sit	-3867
vfs	-3868
▁gjm	-3869
qoogp	-3870
▁ebdiuf	-3871
bra	-3872
▁hkn	-3873
▁fcejvg	-3874
▁wahrscheinlich	-3875
ctive	-3876
▁brauchen	-3877
▁csbvdifo	-3878
▁dtcwejgp	-3879
▁pie	-3880
▁chem	-3881
▁iguv	-3882
▁ihrem	-3883
▁jisfn	-3884
▁kjtgo	-3885
▁dachte	-3886
kgd	-3887
▁betra	-3888
▁løsqfs	-3889
øsu	-3890
vttu	-3891
iting	-3892
▁team	-3893
▁mútrgt	-3894
▁dollars	-3895
xps	-3896
gtg	-3897
ime	-3898
ließ	-3899
▁speci	-3900
▁recht	-3901
!"	-3902
▁voll	-3903
▁körper	-3904
let	-3905
▁hfe	-3906
▁nä	-3907
▁nps	-3908
▁val	-3909
han	-3910
sbgu	-3911
▁entsche	-3912
▁foutdifj	-3913
▁gpvuejgk	-3914
ium	-3915
owu	-3916
ches	-3917
ctdgk	-3918
▁talking	-3919
kq	-3920
▁vq	-3921
▁schön	-3922
▁normal	-3923
▁wfsn	-3924
▁tdiøo	-3925
zq	-3926
johu	-3927
▁fig	-3928
▁business	-3929
▁wpmm	-3930
esten	-3931
▁contro	-3932
▁eins	-3933
▁itāp	-3934
▁psych	-3935
xbs	-3936
▁ncpi	-3937
cjm	-3938
kvkqp	-3939
▁seite	-3940
▁tfjuf	-3941
▁ugkvg	-3942
▁wfstvdifo	-3943
▁xgtuwejgp	-3944
▁antw	-3945
hkpfgp	-3946
▁zukunft	-3947
▁ßvlvogu	-3948
▁versuchen	-3949
▁xfjtf	-3950
▁young	-3951
▁body	-3952
▁ygkug	-3953
cfv	-3954
wuuv	-3955
rop	-3956
▁cou	-3957
▁weise	-3958
▁mod	-3959
▁head	-3960
jtt	-3961
▁kar	-3962
ters	-3963
▁att	-3964
▁africa	-3965
▁happened	-3966
gew	-3967
itet	-3968
▁hil	-3969
▁top	-3970
▁eben	-3971
▁yktv	-3972
▁ijoufs	-3973
▁jkpvgt	-3974
▁wonder	-3975
▁htgk	-3976
achsen	-3977
bditfo	-3978
cejugp	-3979
▁archite	-3980
ppen	-3981
▁pggfo	-3982
▁qhhgp	-3983
fsof	-3984
ices	-3985
koov	-3986
▁fcfo	-3987
▁gdgp	-3988
af	-3989
com	-3990
▁ga	-3991
▁besond	-3992
hhgpvnkej	-3993
beu	-3994
xqn	-3995
emat	-3996
▁room	-3997
▁cftpoefs	-3998
iere	-3999
▁dguqpfgt	-4000
mmvoh	-4001
▁wirtschaft	-4002
▁xjsutdibgu	-4003
▁&	-4004
cj	-4005
▁side	-4006
ness	-4007
▁wind	-4008
llig	-4009
▁menge	-4010
▁nfohf	-4011
▁ogpig	-4012
ellschaft	-4013
fmmtdibgu	-4014
ngt	-4015
▁spr	-4016
xg	-4017
▁17	-4018
ator	-4019
▁ocpp	-4020
adt	-4021
▁frü	-4022
▁gsý	-4023
▁licht	-4024
▁njuuf	-4025
▁else	-4026
▁simple	-4027
▁tpßjbm	-4028
cnku	-4029
line	-4030
▁lan	-4031
▁coming	-4032
▁hinter	-4033
▁fal	-4034
▁gru	-4035
▁jkn	-4036
▁danke	-4037
▁ebolf	-4038
▁fcpmg	-4039
▁rq	-4040
viron	-4041
▁gftu	-4042
▁indem	-4043
▁joefn	-4044
▁kpfgo	-4045
vgvg	-4046
▁nkejv	-4047
do	-4048
▁au	-4049
▁kop	-4050
red	-4051
▁ijm	-4052
▁sjf	-4053
▁build	-4054
▁sound	-4055
stdi	-4056
ister	-4057
änder	-4058
▁ßfjhu	-4059
▁àgkiv	-4060
▁environ	-4061
▁prin	-4062
▁dpnqvufs	-4063
▁anything	-4064
▁ü	-4065
vànkej	-4066
çpp	-4067
▁hguv	-4068
▁unterschied	-4069
▁dcw	-4070
▁ict	-4071
bsufo	-4072
▁verg	-4073
nq	-4074
▁vtg	-4075
vdifo	-4076
▁seem	-4077
▁bar	-4078
▁six	-4079
▁tran	-4080
hmf	-4081
▁70	-4082
ined	-4083
▁fünf	-4084
▁nboo	-4085
▁wenig	-4086
▁xfojh	-4087
▁ygpki	-4088
ruck	-4089
▁absol	-4090
▁scient	-4091
▁unglau	-4092
▁vohmbv	-4093
voef	-4094
▁rgt	-4095
▁fest	-4096
▁gsfj	-4097
▁essen	-4098
▁fstdi	-4099
▁oknnk	-4100
▁àwmwphv	-4101
spq	-4102
tty	-4103
dition	-4104
jbs	-4105
▁qfs	-4106
▁deci	-4107
▁problems	-4108
▁mid	-4109
▁makes	-4110
▁pretty	-4111
voufs	-4112
▁dijo	-4113
▁ufe	-4114
ash	-4115
erse	-4116
▁lives	-4117
esearch	-4118
åvn	-4119
fall	-4120
▁ejkp	-4121
ird	-4122
▁xqnn	-4123
▁wpincwd	-4124
▁research	-4125
fern	-4126
▁hol	-4127
▁mkpf	-4128
ock	-4129
ycu	-4130
▁xj	-4131
inen	-4132
jtufo	-4133
▁amaz	-4134
gpu	-4135
▁mct	-4136
▁pot	-4137
▁educ	-4138
▁frau	-4139
▁popul	-4140
▁relig	-4141
▁uejygt	-4142
gpf	-4143
▁anz	-4144
▁opt	-4145
▁vgf	-4146
▁gest	-4147
atur	-4148
▁goes	-4149
cur	-4150
▁bch	-4151
▁ersch	-4152
▁198	-4153
▁beim	-4154
▁cfjn	-4155
▁dgko	-4156
qpgp	-4157
hfx	-4158
wnvwt	-4159
▁nbs	-4160
itive	-4161
▁mathemat	-4162
▁across	-4163
ever	-4164
▁nbh	-4165
▁tuå	-4166
▁nvtjl	-4167
ßvt	-4168
▁cfm	-4169
▁seen	-4170
▁fslm	-4171
▁fttfo	-4172
▁guugp	-4173
▁ovußfo	-4174
▁pwvàgp	-4175
▁owukm	-4176
▁nutzen	-4177
▁fot	-4178
▁itwr	-4179
nnf	-4180
▁bad	-4181
▁hsvqq	-4182
▁eftjho	-4183
kuvgp	-4184
▁vcig	-4185
▁mb	-4186
▁cftuf	-4187
jng	-4188
mjfà	-4189
▁urg	-4190
ßp	-4191
kten	-4192
where	-4193
▁gsbv	-4194
▁gtmn	-4195
▁keinen	-4196
▁lfjofo	-4197
▁living	-4198
▁mgkpgp	-4199
ctf	-4200
▁htcw	-4201
▁cul	-4202
▁entde	-4203
▁fouef	-4204
▁gpvfg	-4205
▁told	-4206
▁reason	-4207
▁seiner	-4208
▁tfjofs	-4209
▁ugkpgt	-4210
ual	-4211
▁once	-4212
▁allow	-4213
▁xgtuej	-4214
khh	-4215
mboe	-4216
iver	-4217
▁super	-4218
wpfj	-4219
▁yet	-4220
ately	-4221
erence	-4222
gnn	-4223
▁parti	-4224
ane	-4225
▁ey	-4226
▁tqåufs	-4227
▁urçvgt	-4228
mfy	-4229
cuug	-4230
xpsu	-4231
▁saw	-4232
▁gbtu	-4233
▁freund	-4234
▁soc	-4235
▁fcpm	-4236
kgh	-4237
▁dank	-4238
uejchvgp	-4239
ktur	-4240
▁insp	-4241
▁countries	-4242
▁voufso	-4243
xpim	-4244
▁extre	-4245
▁später	-4246
▁picture	-4247
inf	-4248
alen	-4249
▁che	-4250
▁hqv	-4251
▁qtv	-4252
▁wom	-4253
▁gute	-4254
▁rqnkv	-4255
▁gesagt	-4256
oú	-4257
bme	-4258
äum	-4259
▁ca	-4260
dle	-4261
upt	-4262
▁nw	-4263
▁tem	-4264
guugp	-4265
▁ebol	-4266
▁yk	-4267
▁link	-4268
▁hftbhu	-4269
▁iguciv	-4270
▁basically	-4271
jfh	-4272
▁situ	-4273
▁musik	-4274
▁eigenen	-4275
▁fjhfofo	-4276
▁gkigpgp	-4277
wohl	-4278
▁dig	-4279
▁hcuv	-4280
▁cwuig	-4281
▁qpmju	-4282
cnf	-4283
▁music	-4284
▁uejwn	-4285
▁oqogpv	-4286
befo	-4287
leben	-4288
▁foh	-4289
bes	-4290
▁iåuuf	-4291
▁jçvvg	-4292
▁ble	-4293
▁psu	-4294
itten	-4295
mmufo	-4296
▁oper	-4297
▁pqto	-4298
▁uvgt	-4299
▁vtq	-4300
▁cfsf	-4301
▁gpvykemn	-4302
hftdi	-4303
▁kurz	-4304
▁imagine	-4305
▁oh	-4306
▁ding	-4307
▁npnfou	-4308
ighā	-4309
vtci	-4310
▁cbv	-4311
▁kppgt	-4312
▁njmmjbs	-4313
votu	-4314
▁gir	-4315
tellt	-4316
▁ways	-4317
▁job	-4318
▁xpdi	-4319
▁yqej	-4320
denken	-4321
mfcfo	-4322
fgpmgp	-4323
▁mutter	-4324
kgá	-4325
▁gbm	-4326
▁ort	-4327
yn	-4328
▁13	-4329
▁unt	-4330
▁hour	-4331
▁electr	-4332
▁tie	-4333
▁particular	-4334
bttf	-4335
pwpi	-4336
▁case	-4337
▁dist	-4338
▁bvhfo	-4339
▁cwigp	-4340
▁hätte	-4341
▁mjdiu	-4342
▁socie	-4343
▁nvuufs	-4344
▁owvvgt	-4345
▁oknnkct	-4346
nah	-4347
ighçjt	-4348
gtgp	-4349
▁mwtà	-4350
▁ungef	-4351
▁vohfg	-4352
▁happens	-4353
▁ern	-4354
ismus	-4355
▁erde	-4356
▁fsef	-4357
▁gtfg	-4358
▁keep	-4359
▁lvsß	-4360
▁pcvwt	-4361
einander	-4362
by	-4363
ibv	-4364
▁jede	-4365
▁kfef	-4366
▁lgfg	-4367
▁augen	-4368
▁while	-4369
▁gtmnçt	-4370
▁family	-4371
▁milliar	-4372
ftu	-4373
asse	-4374
àgkv	-4375
▁del	-4376
▁verk	-4377
▁igugnn	-4378
ark	-4379
▁days	-4380
▁emot	-4381
▁level	-4382
▁perfe	-4383
ýuß	-4384
▁vcw	-4385
li	-4386
ization	-4387
▁tdibggfo	-4388
▁uejchhgp	-4389
▁experience	-4390
nnvgp	-4391
▁move	-4392
qit	-4393
▁anders	-4394
▁bla	-4395
quugp	-4396
cus	-4397
▁tdixfs	-4398
▁environment	-4399
▁ba	-4400
▁wpighçjt	-4401
▁cnngt	-4402
▁later	-4403
▁remember	-4404
▁vohfgåis	-4405
▁having	-4406
▁ungefähr	-4407
▁experiment	-4408
kng	-4409
wpuv	-4410
ßbim	-4411
▁bmmfs	-4412
▁supp	-4413
kvg	-4414
▁result	-4415
▁gesellschaft	-4416
▁hftfmmtdibgu	-4417
iges	-4418
▁fäh	-4419
▁evolution	-4420
eft	-4421
most	-4422
▁sor	-4423
wpmvu	-4424
reichen	-4425
unk	-4426
▁sjdiujh	-4427
jfc	-4428
▁gbmm	-4429
▁inside	-4430
▁ußuvgo	-4431
▁discover	-4432
isse	-4433
agen	-4434
▁gåi	-4435
▁hçj	-4436
ament	-4437
▁pain	-4438
▁schaffen	-4439
vef	-4440
▁fm	-4441
▁bio	-4442
▁cal	-4443
▁gtp	-4444
▁inc	-4445
▁ideas	-4446
bse	-4447
fot	-4448
▁iv	-4449
ling	-4450
▁sah	-4451
▁exist	-4452
ufen	-4453
▁hsý	-4454
▁gboe	-4455
stellung	-4456
tgp	-4457
bsuf	-4458
ünst	-4459
▁hcnn	-4460
▁oçpp	-4461
xqnwvkqp	-4462
ml	-4463
ala	-4464
▁männ	-4465
▁aller	-4466
▁asked	-4467
jtgt	-4468
▁verst	-4469
isfs	-4470
ýotu	-4471
volution	-4472
hgtp	-4473
▁eas	-4474
▁pgu	-4475
▁ykejv	-4476
gem	-4477
jcp	-4478
ants	-4479
▁201	-4480
▁bez	-4481
▁funktioniert	-4482
▁gvolujpojfsu	-4483
▁hwpmvkqpkgtv	-4484
āpuv	-4485
▁mass	-4486
▁mole	-4487
▁extra	-4488
vis	-4489
uejp	-4490
ether	-4491
▁billion	-4492
▁iguwpfj	-4493
▁gesundheit	-4494
ying	-4495
▁kul	-4496
▁lvm	-4497
imes	-4498
ality	-4499
ngdgp	-4500
juufo	-4501
▁itúá	-4502
▁xpim	-4503
▁watch	-4504
dkn	-4505
ßftt	-4506
ifjut	-4507
▁schul	-4508
jdiuvoh	-4509
▁xgtm	-4510
▁nbufs	-4511
▁ocvgt	-4512
▁tdibvfo	-4513
▁uejcwgp	-4514
▁grü	-4515
▁oci	-4516
▁qså	-4517
ngmvt	-4518
▁erfol	-4519
▁fsgpm	-4520
▁gthqn	-4521
▁institu	-4522
▁richtig	-4523
jog	-4524
bmjt	-4525
zeich	-4526
▁share	-4527
nng	-4528
▁fund	-4529
▁kunst	-4530
▁schauen	-4531
gal	-4532
▁21	-4533
cvwt	-4534
▁gtn	-4535
▁hbs	-4536
▁xgtuv	-4537
▁certain	-4538
vàg	-4539
▁ujf	-4540
▁allen	-4541
▁single	-4542
gku	-4543
hc	-4544
pw	-4545
ejf	-4546
mmun	-4547
▁hcn	-4548
▁sex	-4549
▁obuvs	-4550
▁hfgýim	-4551
▁probleme	-4552
▁qspcmfnf	-4553
▁rtqdngog	-4554
▁lq	-4555
fmmf	-4556
hrer	-4557
▁ass	-4558
▁complete	-4559
▁rh	-4560
jhft	-4561
▁cdu	-4562
▁ý	-4563
▁both	-4564
▁spielen	-4565
▁self	-4566
▁mwpuv	-4567
ew	-4568
▁ā	-4569
▁states	-4570
▁pq	-4571
ousand	-4572
▁bevor	-4573
▁langu	-4574
▁boefst	-4575
usbh	-4576
gesch	-4577
▁line	-4578
▁cpfgtu	-4579
▁schwier	-4580
▁tdixjfs	-4581
▁tqjfmfo	-4582
▁uejykgt	-4583
gflu	-4584
uvqhh	-4585
▁konnten	-4586
▁lpooufo	-4587
▁mqppvgp	-4588
ily	-4589
fort	-4590
àcjn	-4591
▁urkgngp	-4592
bvtfo	-4593
▁fgkp	-4594
▁fyqfs	-4595
▁gzrgt	-4596
nø	-4597
ßfvh	-4598
▁fsl	-4599
▁oce	-4600
▁answer	-4601
▁contin	-4602
hö	-4603
kcn	-4604
▁transp	-4605
▁pshbojt	-4606
▁qticpku	-4607
▁sou	-4608
▁hear	-4609
▁everybody	-4610
çnv	-4611
▁tbi	-4612
▁ucj	-4613
▁krie	-4614
▁miss	-4615
▁lvotu	-4616
▁tkejvki	-4617
▁erzählen	-4618
▁fsßåimfo	-4619
▁gtàçjngp	-4620
ente	-4621
▁pgwgp	-4622
kgi	-4623
och	-4624
▁hy	-4625
ugkp	-4626
bujfo	-4627
cvkgp	-4628
▁elekt	-4629
▁market	-4630
▁schwer	-4631
fjn	-4632
ßvg	-4633
kgágp	-4634
▁opsnbm	-4635
▁cost	-4636
▁neuen	-4637
▁ofvfo	-4638
▁uejúp	-4639
ner	-4640
▁gkpu	-4641
cjtwpi	-4642
nkejgt	-4643
okvvgn	-4644
ún	-4645
cfgp	-4646
mflus	-4647
▁history	-4648
▁projekt	-4649
mjdifs	-4650
▁almost	-4651
▁fmflus	-4652
▁gngmvt	-4653
▁mā	-4654
▁usb	-4655
▁uvw	-4656
bisvoh	-4657
▁thousand	-4658
wtu	-4659
cjngp	-4660
▁jung	-4661
▁bmmfo	-4662
▁cnngp	-4663
▁equ	-4664
▁name	-4665
▁genug	-4666
▁hfovh	-4667
▁ncpig	-4668
chs	-4669
ndg	-4670
sfj	-4671
▁ident	-4672
▁saying	-4673
▁incredi	-4674
phsb	-4675
qtuej	-4676
▁sure	-4677
▁igpwi	-4678
▁stadt	-4679
▁mwnvwt	-4680
anding	-4681
▁looks	-4682
▁ifmgfo	-4683
▁jgnhgp	-4684
▁jcwu	-4685
uvgnnv	-4686
cft	-4687
oth	-4688
▁kpf	-4689
▁helfen	-4690
▁1,	-4691
cngt	-4692
▁ideen	-4693
▁jeffo	-4694
▁kfggp	-4695
▁whether	-4696
▁dna	-4697
▁qhv	-4698
gehen	-4699
sfjdi	-4700
▁cfwps	-4701
▁dgxqt	-4702
uq	-4703
xbt	-4704
▁sb	-4705
vvgt	-4706
▁dise	-4707
▁nothing	-4708
▁national	-4709
▁mqt	-4710
iving	-4711
ready	-4712
▁wfsl	-4713
▁heart	-4714
▁treat	-4715
icu	-4716
ahlen	-4717
ofinfo	-4718
▁tuboe	-4719
▁red	-4720
itcoo	-4721
▁nature	-4722
▁within	-4723
quen	-4724
▁ukv	-4725
▁var	-4726
▁ygkv	-4727
ahrung	-4728
▁heißt	-4729
▁ifjàu	-4730
▁jgkáv	-4731
▁nächsten	-4732
▁oåditufo	-4733
▁pçejuvgp	-4734
▁universe	-4735
kiv	-4736
▁herz	-4737
▁bmu	-4738
▁sfm	-4739
▁already	-4740
ße	-4741
qvol	-4742
wpmvujpo	-4743
sc	-4744
qvv	-4745
▁kill	-4746
▁tubeu	-4747
oof	-4748
tju	-4749
▁lps	-4750
▁tot	-4751
▁kvoh	-4752
▁ju	-4753
▁jqhh	-4754
▁krank	-4755
▁mqpvt	-4756
▁mtcpm	-4757
aur	-4758
ejoh	-4759
gpse	-4760
jttf	-4761
▁usp	-4762
isches	-4763
jtdift	-4764
▁lsbol	-4765
▁study	-4766
▁guy	-4767
qtfgt	-4768
▁lange	-4769
▁wrong	-4770
må	-4771
▁196	-4772
juufm	-4773
àf	-4774
ged	-4775
▁beauti	-4776
▁herum	-4777
▁tdivm	-4778
haft	-4779
lock	-4780
▁gps	-4781
▁cancer	-4782
kuu	-4783
kvvgp	-4784
uring	-4785
▁liebe	-4786
▁mjfcf	-4787
▁nkgdg	-4788
was	-4789
▁uvcfv	-4790
kpà	-4791
▁bal	-4792
▁vol	-4793
▁wes	-4794
erein	-4795
ugvàgp	-4796
▁bvthf	-4797
▁cells	-4798
▁punkt	-4799
▁revolution	-4800
ape	-4801
mittel	-4802
ttu	-4803
ygnv	-4804
▁500	-4805
kl	-4806
jgg	-4807
▁cfn	-4808
▁ogv	-4809
▁lmbs	-4810
▁visu	-4811
▁mbohf	-4812
▁rw	-4813
cing	-4814
▁suc	-4815
cnkvçv	-4816
▁inner	-4817
▁kennen	-4818
▁lfoofo	-4819
▁mgppgp	-4820
iker	-4821
▁cjmefs	-4822
eg	-4823
▁nbodi	-4824
▁ocpej	-4825
▁bisschen	-4826
▁cjttdifo	-4827
▁dkuuejgp	-4828
ßr	-4829
itz	-4830
▁itúágt	-4831
▁»	-4832
jcw	-4833
jqn	-4834
▁win	-4835
▁priv	-4836
▁robo	-4837
▁possible	-4838
fte	-4839
▁24	-4840
vtus	-4841
▁fso	-4842
bimfo	-4843
▁true	-4844
joß	-4845
aren	-4846
fufs	-4847
▁alt	-4848
▁demo	-4849
▁phil	-4850
▁seinen	-4851
▁tfjofo	-4852
▁ugkpgp	-4853
▁unserem	-4854
▁votfsfn	-4855
▁wpugtgo	-4856
fin	-4857
guugt	-4858
ivity	-4859
▁fing	-4860
▁richt	-4861
lose	-4862
▁rea	-4863
▁xgty	-4864
▁student	-4865
▁überall	-4866
▁ýcfsbmm	-4867
▁ādgtcnn	-4868
ips	-4869
újp	-4870
▁dgo	-4871
dchen	-4872
edifo	-4873
▁anal	-4874
vgnngp	-4875
▁class	-4876
fouf	-4877
rieben	-4878
çfejgp	-4879
▁ifsvn	-4880
▁order	-4881
öhn	-4882
▁fas	-4883
▁speak	-4884
▁matter	-4885
zuf	-4886
jlfs	-4887
▁wohl	-4888
▁front	-4889
▁organis	-4890
zess	-4891
▁manch	-4892
mens	-4893
▁hqnigp	-4894
guf	-4895
ield	-4896
jfmf	-4897
▁yqjn	-4898
▁beha	-4899
▁darum	-4900
▁ebsvn	-4901
▁fctwo	-4902
bringen	-4903
vcp	-4904
gang	-4905
▁engl	-4906
▁mess	-4907
▁exact	-4908
▁lpnqm	-4909
mqp	-4910
utes	-4911
▁mic	-4912
entur	-4913
▁cpàw	-4914
▁hmpc	-4915
▁inqd	-4916
▁group	-4917
▁«	-4918
geb	-4919
▁tý	-4920
▁law	-4921
▁hope	-4922
▁defin	-4923
▁verbind	-4924
▁community	-4925
öl	-4926
▁pgy	-4927
▁wjef	-4928
▁xkfg	-4929
icpi	-4930
▁euch	-4931
▁fvdi	-4932
▁gwej	-4933
bmjuåu	-4934
▁public	-4935
hol	-4936
▁300	-4937
▁run	-4938
oefsu	-4939
ßfous	-4940
▁train	-4941
▁ufdio	-4942
▁manchmal	-4943
▁nbodinbm	-4944
▁ocpejocn	-4945
ivoh	-4946
▁bsn	-4947
▁tele	-4948
jwpfgt	-4949
ende	-4950
▁nah	-4951
fmmfo	-4952
wmvwt	-4953
tungen	-4954
▁green	-4955
▁amazing	-4956
▁beautiful	-4957
▁nv	-4958
llow	-4959
▁gor	-4960
▁liter	-4961
▁looked	-4962
fle	-4963
▁ak	-4964
ages	-4965
▁dngk	-4966
▁heard	-4967
▁often	-4968
fsw	-4969
▁nåoo	-4970
vst	-4971
▁sü	-4972
▁bed	-4973
vàwpi	-4974
▁gmjf	-4975
▁qmbofufo	-4976
▁rncpgvgp	-4977
tem	-4978
fluf	-4979
ifjufo	-4980
▁gkpig	-4981
▁sjdiu	-4982
ctor	-4983
jwpi	-4984
àguu	-4985
▁arten	-4986
▁bsufo	-4987
▁ctvgp	-4988
▁figure	-4989
jgkvgp	-4990
▁gkpàgn	-4991
▁leuten	-4992
▁mfvufo	-4993
▁ngwvgp	-4994
pect	-4995
▁vjg	-4996
▁hqtv	-4997
xå	-4998
▁tz	-4999
▁age	-5000
imate	-5001
▁nein	-5002
▁reden	-5003
▁sfefo	-5004
▁tgfgp	-5005
gmvg	-5006
▁ofjo	-5007
▁pgkp	-5008
halt	-5009
▁197	-5010
▁ibv	-5011
dents	-5012
▁mnct	-5013
gangen	-5014
hbohfo	-5015
heiten	-5016
icpigp	-5017
▁cbvfo	-5018
▁dcwgp	-5019
▁planeten	-5020
▁united	-5021
izt	-5022
▁exc	-5023
▁bauen	-5024
hin	-5025
▁sei	-5026
fggfo	-5027
uvgnn	-5028
àgpvt	-5029
xgp	-5030
▁gå	-5031
▁gmv	-5032
▁xvt	-5033
▁someone	-5034
cle	-5035
iuv	-5036
bvfs	-5037
unch	-5038
▁months	-5039
wogp	-5040
▁dev	-5041
▁usa	-5042
▁argu	-5043
▁milliarden	-5044
▁njmmjbsefo	-5045
▁oknnkctfgp	-5046
▁sub	-5047
▁gott	-5048
ases	-5049
äche	-5050
ådif	-5051
çejg	-5052
▁uif	-5053
▁dich	-5054
▁kontro	-5055
▁lpousp	-5056
ßfj	-5057
▁sat	-5058
▁zer	-5059
▁india	-5060
juß	-5061
kwo	-5062
igo	-5063
▁rj	-5064
▁wus	-5065
▁resp	-5066
▁mädchen	-5067
▁nåedifo	-5068
▁oçfejgp	-5069
min	-5070
▁ywu	-5071
▁ries	-5072
▁interes	-5073
▁jouf	-5074
kgjv	-5075
zieh	-5076
▁dgf	-5077
ýdlfo	-5078
▁uejwng	-5079
▁challen	-5080
▁gwt	-5081
▁hfu	-5082
▁yes	-5083
stead	-5084
▁built	-5085
▁tfdit	-5086
▁qbujfo	-5087
▁rcvkgp	-5088
ja	-5089
▁pay	-5090
▁engine	-5091
▁forsch	-5092
welt	-5093
▁god	-5094
▁government	-5095
nboe	-5096
▁mode	-5097
▁middle	-5098
▁uā	-5099
▁until	-5100
▁cogtkmcp	-5101
ral	-5102
ired	-5103
▁cra	-5104
▁ret	-5105
mfhfo	-5106
▁wert	-5107
pa	-5108
quu	-5109
utzt	-5110
ential	-5111
▁amerikan	-5112
▁bnfsjlbo	-5113
▁dā	-5114
▁jt	-5115
vngt	-5116
▁schule	-5117
▁tdivmf	-5118
jhlfjufo	-5119
▁instead	-5120
àkp	-5121
ship	-5122
▁ofx	-5123
fjofo	-5124
▁klar	-5125
cpfgnp	-5126
▁behand	-5127
▁cfiboe	-5128
▁verhalten	-5129
▁wfsibmufo	-5130
▁xgtjcnvgp	-5131
cjp	-5132
▁nu	-5133
ieht	-5134
▁myself	-5135
jfiu	-5136
▁hsb	-5137
▁piece	-5138
▁couple	-5139
▁sometimes	-5140
dp	-5141
gb	-5142
xjo	-5143
åsfo	-5144
▁tat	-5145
▁since	-5146
▁wicht	-5147
▁xgtgkp	-5148
lbn	-5149
ateg	-5150
āemgp	-5151
▁niem	-5152
pped	-5153
▁dāt	-5154
▁fant	-5155
▁pkgo	-5156
▁afrika	-5157
▁ojfnboe	-5158
hqn	-5159
jßu	-5160
▁stop	-5161
▁itqáct	-5162
▁ofoofo	-5163
▁pgppgp	-5164
▁großart	-5165
▁hspàbsu	-5166
▁kpvgtpgv	-5167
▁gpvykemnwpi	-5168
▁hpu	-5169
▁flie	-5170
oowp	-5171
vußu	-5172
▁bgsjlb	-5173
▁chtkmc	-5174
▁fgukip	-5175
igkeiten	-5176
ina	-5177
hboh	-5178
ritt	-5179
▁jour	-5180
▁sens	-5181
▁seinem	-5182
▁tfjofn	-5183
▁ugkpgo	-5184
▁dcu	-5185
▁hct	-5186
▁isn	-5187
▁lin	-5188
▁bewusst	-5189
▁cfxvttu	-5190
▁education	-5191
▁lý	-5192
▁tusb	-5193
ames	-5194
▁tgn	-5195
ücken	-5196
▁sechs	-5197
▁stories	-5198
▁geschichten	-5199
▁hftdijdiufo	-5200
▁iguejkejvgp	-5201
▁frei	-5202
▁gesam	-5203
▁hftbn	-5204
▁house	-5205
▁iguco	-5206
▁rwpmv	-5207
▁words	-5208
▁follow	-5209
▁qspkflu	-5210
▁xgtçpfgtp	-5211
cwp	-5212
xfmu	-5213
▁gtuej	-5214
▁qvolu	-5215
▁works	-5216
ok	-5217
▁sfj	-5218
▁ubu	-5219
▁liegt	-5220
▁mjfhu	-5221
▁nkgiv	-5222
▁state	-5223
▁entire	-5224
▁nennen	-5225
jmf	-5226
kvkx	-5227
▁night	-5228
▁gehört	-5229
▁dgtgkvu	-5230
kb	-5231
wou	-5232
▁sinn	-5233
mgkvgp	-5234
▁hfiøsu	-5235
▁igjútv	-5236
▁universum	-5237
▁vojwfstvn	-5238
▁kü	-5239
efou	-5240
▁dep	-5241
▁vtb	-5242
hsbnn	-5243
tjdiu	-5244
▁hfcå	-5245
▁ygtv	-5246
▁joejfo	-5247
▁kpfkgp	-5248
▁stehen	-5249
▁tufifo	-5250
▁uvgjgp	-5251
äd	-5252
gtm	-5253
kpgp	-5254
stra	-5255
▁ann	-5256
▁tool	-5257
▁entwickelt	-5258
esvdl	-5259
▁pcfs	-5260
▁qdgt	-5261
▁large	-5262
▁moral	-5263
▁schla	-5264
▁erfolg	-5265
▁profess	-5266
eah	-5267
ivg	-5268
▁dgn	-5269
▁wuc	-5270
gende	-5271
▁dgit	-5272
▁besonders	-5273
▁cftpoefst	-5274
▁dguqpfgtu	-5275
bttu	-5276
▁issu	-5277
▁mqrh	-5278
▁uejā	-5279
▁fsgpmh	-5280
▁modern	-5281
▁situation	-5282
hvg	-5283
res	-5284
▁bro	-5285
▁dgywuuv	-5286
▁joufsofu	-5287
▁somebody	-5288
▁fouxjdlfmu	-5289
▁gpvykemgnv	-5290
ones	-5291
ßfjdi	-5292
kuejgu	-5293
hand	-5294
▁cpu	-5295
▁ähn	-5296
▁çjp	-5297
jußfo	-5298
▁lpnq	-5299
▁xgtvt	-5300
era	-5301
cuuv	-5302
▁won	-5303
àgkej	-5304
▁gjmn	-5305
▁sagten	-5306
▁tbhufo	-5307
▁ucivgp	-5308
▁pçejuvg	-5309
▁tubu	-5310
▁decided	-5311
ony	-5312
vtu	-5313
win	-5314
▁wø	-5315
▁hor	-5316
▁uvcpf	-5317
▁indust	-5318
▁control	-5319
▁language	-5320
ibmu	-5321
ivil	-5322
▁past	-5323
joevoh	-5324
undert	-5325
▁wfsus	-5326
▁mother	-5327
▁places	-5328
ump	-5329
▁det	-5330
kpfwpi	-5331
▁uejgkp	-5332
▁anderes	-5333
▁boefsft	-5334
▁cpfgtgu	-5335
øu	-5336
▁qbs	-5337
▁botu	-5338
øi	-5339
▁aufs	-5340
▁bvgt	-5341
▁taking	-5342
np	-5343
fsl	-5344
▁ofuß	-5345
▁species	-5346
▁verändern	-5347
▁wfsåoefso	-5348
vgfo	-5349
▁meet	-5350
▁netz	-5351
▁pgvà	-5352
▁jahrh	-5353
▁model	-5354
▁kbisiv	-5355
▁schein	-5356
▁lcjtjwpfgt	-5357
▁àg	-5358
▁møt	-5359
ußuvgo	-5360
ror	-5361
dien	-5362
▁núu	-5363
gress	-5364
▁news	-5365
▁kpvgtguucp	-5366
▁unternehmen	-5367
▁voufsofinfo	-5368
▁wpvgtpgjogp	-5369
fmt	-5370
ots	-5371
▁wi	-5372
asst	-5373
kmgt	-5374
▁cir	-5375
▁hören	-5376
▁iøsfo	-5377
▁jútgp	-5378
▁ugeju	-5379
▁rather	-5380
foou	-5381
well	-5382
enten	-5383
▁gkpàkig	-5384
par	-5385
▁adv	-5386
liches	-5387
ußmjdi	-5388
▁micro	-5389
▁ill	-5390
▁mem	-5391
▁lpnn	-5392
▁prot	-5393
▁west	-5394
▁gebäu	-5395
▁igdçw	-5396
csjohfo	-5397
▁though	-5398
▁rtqlgmv	-5399
▁et	-5400
cwgt	-5401
▁namens	-5402
▁pcogpu	-5403
wje	-5404
gkvg	-5405
▁bom	-5406
▁tgu	-5407
ctions	-5408
▁quick	-5409
▁obnfot	-5410
▁ka	-5411
▁qr	-5412
▁non	-5413
▁qv	-5414
tkejv	-5415
jnnfo	-5416
▁mult	-5417
▁vnhf	-5418
▁tgign	-5419
ba	-5420
▁npef	-5421
▁object	-5422
kre	-5423
etic	-5424
▁opp	-5425
zeug	-5426
licht	-5427
▁kinds	-5428
▁deshalb	-5429
▁eftibmc	-5430
▁fgujcnd	-5431
▁society	-5432
▁informationen	-5433
▁jogpsnbujpofo	-5434
▁kphqtocvkqpgp	-5435
▁fle	-5436
▁mov	-5437
▁sft	-5438
schaften	-5439
fjmf	-5440
▁mpt	-5441
▁igpgt	-5442
▁joofs	-5443
▁wfsfjo	-5444
▁bereits	-5445
▁cfsfjut	-5446
▁exactly	-5447
od	-5448
ders	-5449
ührt	-5450
▁jçp	-5451
▁anst	-5452
▁online	-5453
kàkp	-5454
onen	-5455
▁ocv	-5456
ugvàv	-5457
▁complex	-5458
▁lös	-5459
▁cwvq	-5460
▁ober	-5461
ikgp	-5462
ýisu	-5463
▁betr	-5464
dtkpigp	-5465
wejv	-5466
fjufs	-5467
vkuejg	-5468
▁labor	-5469
▁extrem	-5470
fjoboefs	-5471
▁ourselves	-5472
face	-5473
side	-5474
forder	-5475
▁tgejv	-5476
▁jg	-5477
vdiu	-5478
▁cbt	-5479
▁ner	-5480
▁hfxp	-5481
▁lpqg	-5482
▁lu	-5483
endet	-5484
▁conf	-5485
▁dest	-5486
▁oben	-5487
▁pcfo	-5488
▁qdgp	-5489
▁cfovußfo	-5490
▁dgpwvàgp	-5491
tfifo	-5492
▁erklä	-5493
acter	-5494
▁kopf	-5495
▁antwort	-5496
▁njovufo	-5497
▁okpwvgp	-5498
▁benutzen	-5499
▁fssfjdifo	-5500
▁gttgkejgp	-5501
vkiv	-5502
▁nbu	-5503
imgkv	-5504
innen	-5505
▁joej	-5506
▁appro	-5507
▁company	-5508
▁minuten	-5509
▁completely	-5510
bnn	-5511
qem	-5512
usch	-5513
▁mer	-5514
▁sun	-5515
▁cfßjf	-5516
▁dgàkg	-5517
▁erreichen	-5518
ett	-5519
ibo	-5520
ker	-5521
ocp	-5522
mmjh	-5523
▁focus	-5524
▁hfofs	-5525
0,	-5526
ffn	-5527
zept	-5528
▁game	-5529
▁cpvyqtv	-5530
▁everyone	-5531
▁students	-5532
vc	-5533
pofo	-5534
uejg	-5535
ände	-5536
▁fly	-5537
▁htci	-5538
▁uvtc	-5539
glichen	-5540
cwt	-5541
qnq	-5542
sbu	-5543
▁wasn	-5544
▁behavi	-5545
▁itself	-5546
▁entfern	-5547
▁gpvhgtp	-5548
▁fq	-5549
igpfg	-5550
▁nvttuf	-5551
▁owuuvg	-5552
▁bouxpsu	-5553
zw	-5554
gebn	-5555
jcnv	-5556
▁ejdi	-5557
▁fkej	-5558
▁ster	-5559
▁ukpp	-5560
▁cmvkx	-5561
▁woman	-5562
▁behind	-5563
▁centur	-5564
▁halten	-5565
▁ibmufo	-5566
▁jcnvgp	-5567
▁minutes	-5568
▁verschiedene	-5569
▁wfstdijfefof	-5570
▁xgtuejkgfgpg	-5571
hfco	-5572
▁redu	-5573
▁elektr	-5574
qmt	-5575
heim	-5576
nnki	-5577
sfjt	-5578
vluvs	-5579
▁inspir	-5580
▁musste	-5581
▁nbdiuf	-5582
▁ocejvg	-5583
kimgkvgp	-5584
▁themselves	-5585
hfc	-5586
qvolu	-5587
▁darin	-5588
▁ebsjo	-5589
▁fctkp	-5590
▁sfdiu	-5591
▁machte	-5592
▁ufjmfo	-5593
▁vgkngp	-5594
wä	-5595
cog	-5596
ggo	-5597
qtfgp	-5598
▁coll	-5599
▁ansch	-5600
▁künst	-5601
▁lýotu	-5602
▁māpuv	-5603
▁fslfoofo	-5604
▁gtmgppgp	-5605
urs	-5606
▁blujw	-5607
▁tuýdl	-5608
▁uvāem	-5609
▁teilen	-5610
▁animals	-5611
lc	-5612
▁became	-5613
▁komplex	-5614
▁lpnqmfy	-5615
▁mqorngz	-5616
▁institut	-5617
wand	-5618
wpmm	-5619
▁ftg	-5620
▁ghh	-5621
▁flug	-5622
▁word	-5623
▁botdi	-5624
fsxfjtf	-5625
ßx	-5626
ush	-5627
chan	-5628
ßfqu	-5629
cmvgt	-5630
istan	-5631
▁bsdi	-5632
▁plbz	-5633
▁qmcß	-5634
▁repr	-5635
ability	-5636
▁hätten	-5637
▁indien	-5638
▁iåuufo	-5639
▁jçvvgp	-5640
▁erkennen	-5641
dlf	-5642
htg	-5643
voll	-5644
▁gbs	-5645
grund	-5646
▁familie	-5647
▁gbnjmjf	-5648
▁hcoknkg	-5649
▁vohmbvcmjdi	-5650
▁uw	-5651
▁bel	-5652
▁orig	-5653
▁xgtt	-5654
▁dgikpp	-5655
▁learned	-5656
uvā	-5657
itte	-5658
▁goog	-5659
▁happy	-5660
▁america	-5661
▁programm	-5662
▁generation	-5663
▁oil	-5664
▁bilder	-5665
▁success	-5666
alten	-5667
▁gets	-5668
▁dknfgt	-5669
ös	-5670
spr	-5671
▁hiv	-5672
ffent	-5673
▁deal	-5674
▁xfsu	-5675
åiomjdi	-5676
▁along	-5677
sjdiufo	-5678
▁innovation	-5679
▁aw	-5680
work	-5681
ively	-5682
obach	-5683
▁ctej	-5684
▁clear	-5685
▁gbmtdi	-5686
▁niemand	-5687
iqu	-5688
pre	-5689
ians	-5690
arten	-5691
fmf	-5692
▁auss	-5693
cpfgnv	-5694
richten	-5695
▁gefühl	-5696
▁ighājn	-5697
àgrv	-5698
mvkqp	-5699
▁gsbh	-5700
▁turns	-5701
▁cftujnn	-5702
bte	-5703
àgwi	-5704
icn	-5705
kam	-5706
▁cool	-5707
▁qizt	-5708
▁rjßu	-5709
▁offen	-5710
▁steht	-5711
▁øggfo	-5712
qog	-5713
ibvt	-5714
▁fort	-5715
▁cffjo	-5716
▁dggkp	-5717
▁tufiu	-5718
▁uvgjv	-5719
▁hsvqqf	-5720
▁itwrrg	-5721
▁ykuugpuejchv	-5722
kon	-5723
cogt	-5724
▁cho	-5725
▁eth	-5726
ption	-5727
▁wand	-5728
▁gruppe	-5729
amm	-5730
▁fis	-5731
chter	-5732
kommt	-5733
▁bott	-5734
▁jgtwo	-5735
▁xgtcp	-5736
▁okvvgn	-5737
▁úhhgpvnkej	-5738
cz	-5739
ijm	-5740
▁cv	-5741
vyqt	-5742
▁lwp	-5743
▁tjoo	-5744
▁voufst	-5745
hftufmmu	-5746
▁dguvkoo	-5747
bel	-5748
bnf	-5749
bss	-5750
▁cy	-5751
▁fä	-5752
trag	-5753
▁uqh	-5754
▁cfpc	-5755
▁tufs	-5756
▁uifn	-5757
▁gerne	-5758
▁hfsof	-5759
▁igtpg	-5760
▁created	-5761
▁dgqd	-5762
▁reich	-5763
▁shows	-5764
▁bscfjuf	-5765
▁systems	-5766
▁happening	-5767
ief	-5768
▁lå	-5769
tdio	-5770
▁cflbo	-5771
▁south	-5772
▁hw	-5773
▁box	-5774
▁deep	-5775
▁huge	-5776
▁kosten	-5777
▁lptufo	-5778
▁mquvgp	-5779
▁sozial	-5780
imf	-5781
usb	-5782
jofo	-5783
▁rot	-5784
▁syn	-5785
▁uzq	-5786
cppvg	-5787
icken	-5788
csbdiu	-5789
here	-5790
vgkp	-5791
▁dgkp	-5792
▁hkno	-5793
hfn	-5794
hcnn	-5795
asure	-5796
▁verm	-5797
▁black	-5798
▁third	-5799
▁braucht	-5800
▁csbvdiu	-5801
▁dtcwejv	-5802
▁einzige	-5803
▁fjoßjhf	-5804
boou	-5805
immen	-5806
▁ocean	-5807
▁disease	-5808
aun	-5809
oejh	-5810
▁nqu	-5811
iguej	-5812
kuowu	-5813
▁ones	-5814
▁vjgo	-5815
iously	-5816
itting	-5817
▁wpvgtu	-5818
▁natural	-5819
eld	-5820
iet	-5821
tqs	-5822
çtg	-5823
schn	-5824
▁ball	-5825
▁taus	-5826
▁beobach	-5827
huf	-5828
kcp	-5829
▁kpuv	-5830
▁radi	-5831
▁sand	-5832
ftware	-5833
▁xfmdi	-5834
▁ygnej	-5835
▁irgendwie	-5836
▁jshfoexjf	-5837
▁ktigpfykg	-5838
.,	-5839
less	-5840
wards	-5841
▁gýis	-5842
▁hājt	-5843
nu	-5844
▁free	-5845
▁full	-5846
▁hours	-5847
▁schre	-5848
▁friends	-5849
▁nfejßjo	-5850
▁ogfkàkp	-5851
▁unglaublich	-5852
▁wpincwdnkej	-5853
cks	-5854
bild	-5855
qogp	-5856
▁400	-5857
▁gtj	-5858
bmufo	-5859
diufs	-5860
▁view	-5861
▁wall	-5862
▁center	-5863
▁medizin	-5864
jvn	-5865
weit	-5866
▁squ	-5867
boßfo	-5868
▁uvwpfgp	-5869
▁joofsibmc	-5870
▁kppgtjcnd	-5871
▁guys	-5872
▁tqdq	-5873
dtcejv	-5874
▁cpuej	-5875
▁fyqfsjn	-5876
▁gzrgtko	-5877
▁tuvoefo	-5878
▁innerhalb	-5879
▁uvcv	-5880
▁dguejt	-5881
▁stunden	-5882
▁möglichkeit	-5883
▁sil	-5884
▁listen	-5885
bin	-5886
hau	-5887
qqf	-5888
kigu	-5889
ctvgp	-5890
ortun	-5891
▁jotu	-5892
▁jedem	-5893
▁kfefn	-5894
▁lgfgo	-5895
▁unters	-5896
tdibgufo	-5897
▁cfxfhfo	-5898
▁qspevlu	-5899
▁tl	-5900
ford	-5901
mals	-5902
▁gzvt	-5903
efolfo	-5904
gestellt	-5905
▁nøhmjdilfju	-5906
▁oúinkejmgkv	-5907
▁nçp	-5908
▁yeah	-5909
igdpku	-5910
▁dir	-5911
▁lim	-5912
▁mcr	-5913
▁ple	-5914
ished	-5915
únmgt	-5916
▁bvtt	-5917
▁bvup	-5918
kgánkej	-5919
▁transform	-5920
haps	-5921
▁gjs	-5922
▁hkt	-5923
ource	-5924
uvsfo	-5925
▁knew	-5926
▁umge	-5927
▁early	-5928
▁digital	-5929
▁gesicht	-5930
▁nbufsjbm	-5931
▁gpvykemgnp	-5932
▁ce	-5933
fjcu	-5934
▁wegen	-5935
ließlich	-5936
mjfàmjdi	-5937
cpàgp	-5938
▁2000	-5939
▁baby	-5940
▁jgtà	-5941
▁expla	-5942
▁krebs	-5943
▁xfhfo	-5944
▁ygigp	-5945
▁perhaps	-5946
▁population	-5947
▁interessant	-5948
ngu	-5949
▁vi	-5950
▁gol	-5951
anzen	-5952
tures	-5953
cmvkqp	-5954
▁bemer	-5955
▁besten	-5956
▁cftufo	-5957
▁dguvgp	-5958
▁bestimm	-5959
▁opportun	-5960
▁jahrhundert	-5961
fcu	-5962
▁vö	-5963
▁xú	-5964
esch	-5965
▁obs	-5966
istic	-5967
▁führ	-5968
ßfvhfo	-5969
▁aktiv	-5970
▁field	-5971
▁dgygigp	-5972
▁ov	-5973
▁bau	-5974
▁igk	-5975
▁kap	-5976
▁sug	-5977
immer	-5978
zeugen	-5979
▁couldn	-5980
▁relation	-5981
die	-5982
qjn	-5983
▁kä	-5984
▁qg	-5985
▁bereich	-5986
▁dgtgkej	-5987
▁personal	-5988
▁igugnnuejchv	-5989
qpg	-5990
bsfo	-5991
▁rtç	-5992
▁area	-5993
▁igukejv	-5994
stu	-5995
iste	-5996
annte	-5997
jnnfs	-5998
▁auto	-5999
▁death	-6000
▁worked	-6001
bsf	-6002
▁serv	-6003
▁sjft	-6004
▁tkgu	-6005
▁entscheid	-6006
zy	-6007
hgn	-6008
▁emp	-6009
▁njl	-6010
ciåoh	-6011
mpttfo	-6012
ologie	-6013
▁pkgocpf	-6014
▁questions	-6015
omes	-6016
çuuv	-6017
▁150	-6018
▁kil	-6019
mqoov	-6020
▁lsfct	-6021
vkuejgp	-6022
ima	-6023
▁ifsß	-6024
▁stell	-6025
▁bewegung	-6026
juå	-6027
▁gave	-6028
▁lpot	-6029
▁others	-6030
▁bewegen	-6031
▁fantast	-6032
änger	-6033
▁shar	-6034
▁eight	-6035
▁impro	-6036
air	-6037
ene	-6038
war	-6039
iofo	-6040
iåmu	-6041
krat	-6042
ither	-6043
▁igvt	-6044
▁seven	-6045
▁jwpfgt	-6046
▁joufsfttb	-6047
▁$	-6048
hle	-6049
åohfs	-6050
▁hfus	-6051
▁wpdg	-6052
▁recent	-6053
zdi	-6054
▁zuf	-6055
▁ßvg	-6056
▁usfggfo	-6057
▁vtghhgp	-6058
▁american	-6059
▁learning	-6060
▁ergebn	-6061
▁gpstdi	-6062
▁moving	-6063
åvt	-6064
ared	-6065
ibgu	-6066
lpnnu	-6067
▁takes	-6068
▁ygugp	-6069
▁fshfco	-6070
▁hqtuej	-6071
▁tbdifo	-6072
▁against	-6073
▁sprache	-6074
▁tqsbdif	-6075
▁urtcejg	-6076
cbsf	-6077
iken	-6078
xfsl	-6079
rwpmv	-6080
▁cpuv	-6081
▁cwuàw	-6082
▁beiden	-6083
▁cfjefo	-6084
▁dgkfgp	-6085
▁sachen	-6086
▁ucejgp	-6087
iguvgnnv	-6088
▁jgtcwuh	-6089
ub	-6090
▁1.	-6091
urtq	-6092
▁cut	-6093
dd	-6094
ctgp	-6095
▁cann	-6096
▁hājtgp	-6097
ustellen	-6098
▁entwickeln	-6099
▁fouxjdlfmo	-6100
ipm	-6101
ows	-6102
jlfo	-6103
dyqjn	-6104
▁iqvv	-6105
▁google	-6106
▁hfnfjot	-6107
▁software	-6108
cuf	-6109
pol	-6110
pgjo	-6111
hsvoe	-6112
▁lots	-6113
▁verschiedenen	-6114
▁wfstdijfefofo	-6115
▁xgtuejkgfgpgp	-6116
▁metho	-6117
▁gýisfo	-6118
qw	-6119
otz	-6120
hält	-6121
druck	-6122
▁eltern	-6123
▁führen	-6124
zip	-6125
fsou	-6126
ußej	-6127
ächt	-6128
▁wjs	-6129
▁xkt	-6130
▁hpuu	-6131
▁vater	-6132
▁wbufs	-6133
▁xcvgt	-6134
▁obwohl	-6135
▁pcxpim	-6136
▁qdyqjn	-6137
▁vorstellen	-6138
▁wpstufmmfo	-6139
▁xqtuvgnngp	-6140
ples	-6141
▁dtw	-6142
▁lbo	-6143
gpàgp	-6144
▁präs	-6145
▁sftu	-6146
▁tguv	-6147
▁invol	-6148
▁during	-6149
▁kindern	-6150
▁ljoefso	-6151
▁mkpfgtp	-6152
▁cfhjoofo	-6153
▁dgikppgp	-6154
▁tas	-6155
▁john	-6156
▁vocf	-6157
▁least	-6158
▁gpmhfo	-6159
▁entwicklung	-6160
ops	-6161
▁pck	-6162
▁tqfßjf	-6163
ßvtufmmfo	-6164
▁erhalten	-6165
▁fsibmufo	-6166
▁geschäft	-6167
▁gtjcnvgp	-6168
▁sfhjfsvoh	-6169
lam	-6170
ney	-6171
▁npu	-6172
▁rqu	-6173
▁tut	-6174
gkhgp	-6175
▁qbujfoufo	-6176
▁rcvkgpvgp	-6177
dgn	-6178
blufs	-6179
icult	-6180
ident	-6181
▁uejp	-6182
▁gnvgtp	-6183
yu	-6184
gre	-6185
ýtt	-6186
apan	-6187
nbmt	-6188
▁eff	-6189
▁treffen	-6190
▁difficult	-6191
▁verwenden	-6192
▁wfsxfoefo	-6193
▁xgtygpfgp	-6194
wø	-6195
lpo	-6196
guug	-6197
ilen	-6198
jfmu	-6199
▁igpg	-6200
▁erlau	-6201
▁fsmbv	-6202
▁kreat	-6203
▁einigen	-6204
▁fjojhfo	-6205
▁gkpkigp	-6206
▁gleiche	-6207
▁hmfjdif	-6208
▁ingkejg	-6209
▁machine	-6210
▁qspßftt	-6211
▁patienten	-6212
▁mik	-6213
cpufs	-6214
▁poor	-6215
tkejvgp	-6216
▁mittel	-6217
ante	-6218
fgnn	-6219
ocnu	-6220
stüt	-6221
ådiu	-6222
akter	-6223
ature	-6224
ifnbu	-6225
jgocv	-6226
ßjfsfo	-6227
▁wjefp	-6228
▁ykuugpuejch	-6229
▁fv	-6230
▁bir	-6231
▁xku	-6232
▁sage	-6233
▁century	-6234
▁finally	-6235
▁outside	-6236
▁åiomjdi	-6237
dly	-6238
bare	-6239
icdg	-6240
fjefo	-6241
▁xkfgq	-6242
mufso	-6243
▁dgtā	-6244
lossen	-6245
alax	-6246
xqnn	-6247
▁ult	-6248
▁wou	-6249
▁àkgn	-6250
▁uvcvv	-6251
inkejgp	-6252
▁stellt	-6253
▁tufmmu	-6254
▁uvgnnv	-6255
▁menschlichen	-6256
▁nfotdimjdifo	-6257
▁ogpuejnkejgp	-6258
iti	-6259
fuuf	-6260
▁erle	-6261
▁post	-6262
▁zehn	-6263
▁fstubv	-6264
▁erstaun	-6265
▁gtuvcwp	-6266
dis	-6267
▁obv	-6268
▁sud	-6269
▁hnwi	-6270
▁pcvkqp	-6271
▁joufsfttbou	-6272
jch	-6273
fgpv	-6274
kuug	-6275
ogen	-6276
▁bank	-6277
▁japan	-6278
▁mtgdu	-6279
▁nämlich	-6280
▁oånmjdi	-6281
▁pçonkej	-6282
▁wonderful	-6283
kor	-6284
▁cnv	-6285
jtnvt	-6286
▁ucig	-6287
▁wfsgý	-6288
▁xgthā	-6289
▁dor	-6290
itwpf	-6291
▁needs	-6292
▁north	-6293
▁short	-6294
▁persön	-6295
▁tgikgtwpi	-6296
▁35	-6297
inal	-6298
jcwrv	-6299
▁tbhf	-6300
lligen	-6301
▁dijob	-6302
▁ejkpc	-6303
▁qfstø	-6304
▁rgtuúp	-6305
▁uvtwmvwt	-6306
▁regierung	-6307
ckp	-6308
psl	-6309
vin	-6310
wgt	-6311
▁ach	-6312
▁ßqt	-6313
haupt	-6314
ändig	-6315
çpfki	-6316
▁unbe	-6317
▁wort	-6318
ingkej	-6319
▁obujpo	-6320
▁voufstu	-6321
stuf	-6322
ugpv	-6323
werk	-6324
▁tuåe	-6325
▁uvçf	-6326
▁daher	-6327
▁ebifs	-6328
▁fcjgt	-6329
▁direkt	-6330
▁verbess	-6331
▁wfscftt	-6332
▁xgtdguugt	-6333
fmuf	-6334
ýußfo	-6335
▁step	-6336
▁close	-6337
erweise	-6338
▁verein	-6339
ides	-6340
▁anw	-6341
▁pap	-6342
▁pick	-6343
▁woygnv	-6344
fki	-6345
hbm	-6346
kgv	-6347
fuufo	-6348
ibvqu	-6349
▁clos	-6350
bujpot	-6351
▁angst	-6352
▁galax	-6353
▁haupt	-6354
ffentlich	-6355
▁xqtuvgnn	-6356
gtt	-6357
nju	-6358
▁web	-6359
▁conc	-6360
▁enor	-6361
▁ygtm	-6362
àkgtgp	-6363
▁grand	-6364
▁ocvgtkcn	-6365
cps	-6366
ught	-6367
▁neg	-6368
▁zuv	-6369
anger	-6370
▁nwhv	-6371
▁stück	-6372
▁schwar	-6373
mb	-6374
atic	-6375
▁jow	-6376
▁gmvh	-6377
▁wfss	-6378
▁xfsl	-6379
▁image	-6380
▁media	-6381
▁qptju	-6382
▁bezieh	-6383
àwuvgnngp	-6384
▁behavior	-6385
vsf	-6386
bnfs	-6387
dies	-6388
gten	-6389
posed	-6390
▁gtàgw	-6391
▁wollten	-6392
▁xpmmufo	-6393
▁yqnnvgp	-6394
▁nbuifnbu	-6395
▁ocvjgocv	-6396
tfou	-6397
vefo	-6398
▁werk	-6399
▁bohtu	-6400
úu	-6401
nbo	-6402
äten	-6403
çvgp	-6404
▁pur	-6405
▁ejsflu	-6406
▁verbra	-6407
▁culture	-6408
▁gtigdpku	-6409
øt	-6410
pdl	-6411
dctg	-6412
▁pen	-6413
▁week	-6414
▁spend	-6415
▁damals	-6416
▁ebnbmt	-6417
▁fcocnu	-6418
▁pattern	-6419
▁absolute	-6420
▁beginnen	-6421
▁wpvgtuvā	-6422
▁unterstüt	-6423
çor	-6424
▁oā	-6425
▁reco	-6426
▁npshfo	-6427
▁oqtigp	-6428
▁thousands	-6429
bor	-6430
tub	-6431
gwgt	-6432
vent	-6433
vtusjf	-6434
▁verfü	-6435
▁chance	-6436
▁xqtjgt	-6437
view	-6438
punkt	-6439
▁ubvtfo	-6440
▁vcwugp	-6441
ofs	-6442
dnkm	-6443
▁bat	-6444
jfefo	-6445
▁lage	-6446
▁mbhf	-6447
▁ncig	-6448
▁ßjfm	-6449
▁david	-6450
▁recor	-6451
▁tdixbs	-6452
▁uejyct	-6453
▁igogkpu	-6454
▁powerful	-6455
völ	-6456
wøml	-6457
▁àgp	-6458
▁zpsl	-6459
▁cpiuv	-6460
▁gtuejch	-6461
▁igdçwfg	-6462
tum	-6463
ýoh	-6464
cmjl	-6465
cpfn	-6466
ordin	-6467
▁gfim	-6468
mmjhfo	-6469
▁masch	-6470
▁wpvgtuejkgfnkej	-6471
qpu	-6472
▁45	-6473
tete	-6474
▁san	-6475
▁okmt	-6476
▁ādgtt	-6477
▁street	-6478
▁gebäude	-6479
▁difference	-6480
dgu	-6481
fic	-6482
▁qj	-6483
kmgp	-6484
xguv	-6485
▁dad	-6486
qmtcv	-6487
qppgp	-6488
▁hgtp	-6489
▁qtzdi	-6490
▁tdifjo	-6491
▁ufdiopmph	-6492
sein	-6493
what	-6494
▁kid	-6495
igten	-6496
▁nbtdi	-6497
▁ocuej	-6498
▁taken	-6499
▁morgen	-6500
▁wpkxgtuwo	-6501
lic	-6502
oss	-6503
▁qdl	-6504
▁rhn	-6505
▁ugn	-6506
pggfo	-6507
▁fsmf	-6508
▁prim	-6509
▁àgjp	-6510
▁statt	-6511
▁ygnvy	-6512
cem	-6513
▁av	-6514
ison	-6515
▁plast	-6516
▁kommun	-6517
▁lpnnvo	-6518
▁mqoowp	-6519
▁oçppgt	-6520
▁present	-6521
▁versucht	-6522
▁wfstvdiu	-6523
▁xgtuwejv	-6524
how	-6525
ofu	-6526
ifen	-6527
▁tbv	-6528
cious	-6529
▁fehl	-6530
▁männer	-6531
▁nåoofs	-6532
igpqoogp	-6533
▁hfcåvef	-6534
eit	-6535
▁wt	-6536
este	-6537
çwog	-6538
jdlfo	-6539
pping	-6540
▁blue	-6541
bunden	-6542
cvoefo	-6543
▁rußej	-6544
schnitt	-6545
▁htgwpf	-6546
▁çpfgtp	-6547
▁whatever	-6548
ygtm	-6549
äume	-6550
åvnf	-6551
▁buy	-6552
▁low	-6553
▁qgm	-6554
▁ton	-6555
▁zent	-6556
▁hause	-6557
▁ibvtf	-6558
▁jcwug	-6559
▁yourself	-6560
▁schreiben	-6561
▁tdisfjcfo	-6562
▁uejtgkdgp	-6563
▁drug	-6564
▁gpin	-6565
evohfo	-6566
agn	-6567
urg	-6568
iben	-6569
jngt	-6570
ology	-6571
▁spez	-6572
▁bvghb	-6573
▁falls	-6574
▁gebra	-6575
▁robot	-6576
▁common	-6577
▁fktgmv	-6578
▁fmufso	-6579
lichkeit	-6580
àv	-6581
pvs	-6582
▁hof	-6583
▁pfl	-6584
▁sup	-6585
cting	-6586
▁aufga	-6587
▁ofcfo	-6588
▁pgdgp	-6589
▁fouxjdlmvoh	-6590
mvqt	-6591
▁20.	-6592
▁fern	-6593
▁xboe	-6594
fgpvgp	-6595
hājtgp	-6596
▁neben	-6597
▁parts	-6598
▁virus	-6599
hlt	-6600
oph	-6601
gppg	-6602
▁hfubo	-6603
▁brauch	-6604
▁turned	-6605
▁ändern	-6606
▁åoefso	-6607
▁nachdem	-6608
▁obdiefn	-6609
▁pcejfgo	-6610
▁überhaupt	-6611
bre	-6612
jor	-6613
qtg	-6614
▁dcd	-6615
▁esf	-6616
anten	-6617
ising	-6618
▁eyes	-6619
▁meer	-6620
▁getan	-6621
▁njlsp	-6622
▁reach	-6623
▁partic	-6624
▁ýcfsibvqu	-6625
▁ādgtjcwrv	-6626
csbv	-6627
▁foe	-6628
ering	-6629
▁fand	-6630
▁surpr	-6631
▁nächste	-6632
▁oådituf	-6633
▁perform	-6634
kü	-6635
▁ty	-6636
kgnv	-6637
kpiu	-6638
▁hcpf	-6639
nkejgu	-6640
▁solar	-6641
▁uspuß	-6642
ca	-6643
▁vú	-6644
▁cbc	-6645
▁tps	-6646
▁tru	-6647
lagen	-6648
tuåoe	-6649
▁dibs	-6650
▁kppq	-6651
▁luft	-6652
xúnmgt	-6653
▁terms	-6654
▁photograph	-6655
ards	-6656
kemgp	-6657
▁audi	-6658
▁ejct	-6659
verage	-6660
▁efnpl	-6661
▁hands	-6662
▁trotz	-6663
▁vtqvà	-6664
▁überr	-6665
▁måoefs	-6666
▁nçpfgt	-6667
▁fundament	-6668
ieg	-6669
jnvg	-6670
vvgp	-6671
▁oggt	-6672
uvohfo	-6673
zieren	-6674
▁break	-6675
▁igvcp	-6676
▁wider	-6677
▁seeing	-6678
▁vision	-6679
▁beginning	-6680
ufn	-6681
▁gjoh	-6682
▁cwhig	-6683
▁joopw	-6684
▁kppqx	-6685
▁sicht	-6686
▁gv	-6687
dtcw	-6688
▁gng	-6689
▁rei	-6690
▁sto	-6691
▁uvu	-6692
▁xpsu	-6693
▁given	-6694
▁ukejv	-6695
▁gleichen	-6696
▁hmfjdifo	-6697
▁ingkejgp	-6698
ging	-6699
orie	-6700
▁difn	-6701
▁länder	-6702
▁ngjtgt	-6703
▁spcpufs	-6704
▁tqdqvgt	-6705
cuvt	-6706
emgt	-6707
foof	-6708
ikum	-6709
▁hcu	-6710
▁vwv	-6711
▁ejgo	-6712
▁ýcfss	-6713
▁mfisfs	-6714
▁umwelt	-6715
idi	-6716
iou	-6717
▁çt	-6718
▁eher	-6719
▁fifs	-6720
▁gjgt	-6721
▁zwar	-6722
▁ßxbs	-6723
▁àyct	-6724
iziert	-6725
▁cannot	-6726
▁lehrer	-6727
cker	-6728
elte	-6729
psjf	-6730
▁njm	-6731
gmvkx	-6732
kgfgp	-6733
▁rtqh	-6734
hnçejg	-6735
▁cjuuf	-6736
▁dkvvg	-6737
▁local	-6738
▁anfang	-6739
▁ment	-6740
▁pgwt	-6741
▁kraft	-6742
▁milit	-6743
▁leiden	-6744
▁mfjefo	-6745
▁ngkfgp	-6746
cx	-6747
oms	-6748
▁uø	-6749
▁oqt	-6750
▁ukp	-6751
▁uejú	-6752
▁prozess	-6753
gjß	-6754
enne	-6755
fous	-6756
▁spa	-6757
▁easy	-6758
▁nffs	-6759
▁qspg	-6760
▁bitte	-6761
▁leave	-6762
▁ßxfjuf	-6763
▁communic	-6764
qbo	-6765
bggu	-6766
ielt	-6767
▁boo	-6768
▁okn	-6769
qhhgp	-6770
▁simp	-6771
▁yqtv	-6772
▁major	-6773
▁pract	-6774
▁tjdiu	-6775
▁rtqàguu	-6776
afft	-6777
jcwu	-6778
jwfo	-6779
ängt	-6780
gpfgp	-6781
ients	-6782
▁brit	-6783
mjfàfo	-6784
▁cwhàw	-6785
▁lsbgu	-6786
tuboefo	-6787
▁gsfvoe	-6788
▁ifsbvtgpse	-6789
jgk	-6790
baren	-6791
▁access	-6792
▁changed	-6793
▁verändert	-6794
lin	-6795
▁tö	-6796
ased	-6797
▁mcv	-6798
▁mob	-6799
▁cjmm	-6800
▁fish	-6801
tztufn	-6802
▁mechan	-6803
imp	-6804
qjs	-6805
▁ziel	-6806
fwpigp	-6807
▁predi	-6808
▁wfsåoefsu	-6809
▁xgtçpfgtv	-6810
▁interested	-6811
mufs	-6812
ovoh	-6813
qtkg	-6814
▁ess	-6815
▁lbu	-6816
joefu	-6817
omjdif	-6818
system	-6819
▁began	-6820
▁paper	-6821
▁qsphsbnn	-6822
ban	-6823
cri	-6824
mvg	-6825
▁kv	-6826
▁erre	-6827
fläche	-6828
▁ngvàvg	-6829
▁audience	-6830
son	-6831
eder	-6832
foefo	-6833
▁tier	-6834
▁allem	-6835
▁bmmfn	-6836
▁cnngo	-6837
▁optim	-6838
▁xfmux	-6839
▁consum	-6840
▁tjfcfo	-6841
▁ukgdgp	-6842
oq	-6843
sk	-6844
eum	-6845
▁ve	-6846
▁jçw	-6847
▁dknn	-6848
▁ßbim	-6849
vkimgkv	-6850
▁dingen	-6851
▁ejohfo	-6852
▁fkpigp	-6853
▁kpxguv	-6854
▁international	-6855
bere	-6856
diut	-6857
▁hab	-6858
zentr	-6859
▁fyus	-6860
▁mvgu	-6861
▁bmufs	-6862
▁ground	-6863
▁schlecht	-6864
▁menschliche	-6865
▁nfotdimjdif	-6866
▁ogpuejnkejg	-6867
tfjo	-6868
▁iqn	-6869
▁lgf	-6870
▁ncd	-6871
▁uejç	-6872
sjfcfo	-6873
▁unten	-6874
▁amount	-6875
▁kultur	-6876
▁individu	-6877
▁intelligen	-6878
sm	-6879
anc	-6880
vcw	-6881
▁ox	-6882
ässt	-6883
▁tcw	-6884
▁tit	-6885
▁àwp	-6886
bujwf	-6887
cvkxg	-6888
▁europe	-6889
cigt	-6890
▁dom	-6891
jfhfo	-6892
jhufo	-6893
▁near	-6894
▁size	-6895
▁falsch	-6896
▁sieben	-6897
ior	-6898
▁acc	-6899
▁cfe	-6900
▁hgt	-6901
bmmfo	-6902
▁boßv	-6903
▁east	-6904
▁gtng	-6905
▁àcjn	-6906
▁voufo	-6907
▁wpvgp	-6908
▁hcnuej	-6909
▁region	-6910
▁ún	-6911
aden	-6912
▁oze	-6913
▁pßf	-6914
▁qàg	-6915
fjgfo	-6916
▁press	-6917
▁bringt	-6918
▁csjohu	-6919
▁dtkpiv	-6920
▁letzte	-6921
▁mfußuf	-6922
▁herausforder	-6923
gul	-6924
▁cop	-6925
▁efg	-6926
▁sal	-6927
▁gene	-6928
▁kamen	-6929
▁lässt	-6930
▁måttu	-6931
▁nçuuv	-6932
▁gýimfo	-6933
▁hājngp	-6934
▁vorher	-6935
▁bsdijuf	-6936
▁ctejkvg	-6937
▁roboter	-6938
vgo	-6939
mmfs	-6940
mvgp	-6941
qpsu	-6942
▁sea	-6943
▁sfe	-6944
▁ucw	-6945
pcjog	-6946
xjttfo	-6947
▁visual	-6948
▁hftdiågu	-6949
▁sjdiuvoh	-6950
▁foot	-6951
gmådif	-6952
▁usbot	-6953
▁value	-6954
▁dessen	-6955
▁efttfo	-6956
▁fguugp	-6957
▁fühlen	-6958
▁jowftu	-6959
▁worden	-6960
▁xpsefo	-6961
▁yqtfgp	-6962
▁xqtvtci	-6963
▁ygkvgtg	-6964
▁mj	-6965
year	-6966
▁gas	-6967
▁tin	-6968
uvtkg	-6969
▁fore	-6970
▁lmjn	-6971
▁tradition	-6972
you	-6973
cdgp	-6974
▁tjo	-6975
▁kont	-6976
▁mnko	-6977
▁surv	-6978
cuejgp	-6979
▁geist	-6980
▁effect	-6981
▁arbeite	-6982
▁weitere	-6983
▁xfjufsf	-6984
▁hftvoeifjut	-6985
wg	-6986
bert	-6987
raum	-6988
ücke	-6989
▁tcf	-6990
igigp	-6991
qitch	-6992
▁junge	-6993
▁kvohf	-6994
▁lwpig	-6995
▁tujnn	-6996
▁lvmuvs	-6997
▁cfsfjdi	-6998
▁economic	-6999
▁hfebolfo	-7000
▁igfcpmgp	-7001
da	-7002
jot	-7003
luf	-7004
put	-7005
tuv	-7006
zug	-7007
iale	-7008
hfhfo	-7009
▁gpvu	-7010
▁cduqn	-7011
▁cfefv	-7012
ama	-7013
imuf	-7014
phfo	-7015
pose	-7016
▁gfs	-7017
▁tubs	-7018
bouxps	-7019
btdifo	-7020
ykuugp	-7021
▁hfjtu	-7022
▁needed	-7023
▁gedanken	-7024
▁betrachten	-7025
▁cfusbdiufo	-7026
▁dgvtcejvgp	-7027
ars	-7028
but	-7029
ftdi	-7030
▁bege	-7031
▁ujfs	-7032
▁vkgt	-7033
▁decis	-7034
▁sfmjh	-7035
▁tgnki	-7036
▁gewalt	-7037
▁leicht	-7038
▁longer	-7039
hç	-7040
cpig	-7041
ures	-7042
▁fgw	-7043
▁dgig	-7044
▁mftfo	-7045
▁ngugp	-7046
▁uejyg	-7047
▁jedoch	-7048
▁kfepdi	-7049
▁lgfqej	-7050
▁possib	-7051
▁simply	-7052
kxg	-7053
▁wu	-7054
▁çn	-7055
ager	-7056
joou	-7057
stoff	-7058
ziehen	-7059
▁cnvgt	-7060
▁inclu	-7061
▁uejcw	-7062
▁hervor	-7063
▁perspe	-7064
▁vertra	-7065
▁wochen	-7066
▁xpdifo	-7067
▁yqejgp	-7068
ichtlich	-7069
▁zweiten	-7070
▁ßxfjufo	-7071
▁àygkvgp	-7072
20	-7073
bon	-7074
cin	-7075
cbsfo	-7076
▁ther	-7077
antwor	-7078
▁hilfe	-7079
▁jknhg	-7080
▁eigene	-7081
▁fjhfof	-7082
▁gkigpg	-7083
▁jgtxqt	-7084
▁qvcmjl	-7085
▁rwdnkm	-7086
▁rtqitcoo	-7087
cb	-7088
icks	-7089
xjsl	-7090
yktm	-7091
▁sam	-7092
vnfou	-7093
wogpv	-7094
▁gone	-7095
▁tages	-7096
▁lpoßfous	-7097
▁mqpàgpvt	-7098
▁realized	-7099
▁gbt	-7100
▁kfo	-7101
▁lgp	-7102
▁xft	-7103
▁ermö	-7104
▁fsnø	-7105
▁gtoú	-7106
▁dream	-7107
▁ngkejv	-7108
▁staaten	-7109
▁tubbufo	-7110
▁uvccvgp	-7111
▁demokrat	-7112
▁sicherheit	-7113
▁àgt	-7114
▁stay	-7115
▁lesen	-7116
▁ubhft	-7117
▁bereit	-7118
▁urgàkg	-7119
gkpcpfgt	-7120
▁ktigpfg	-7121
▁erfahrung	-7122
▁fsgbisvoh	-7123
ugh	-7124
bohf	-7125
▁lead	-7126
▁tgik	-7127
▁ijmgf	-7128
▁father	-7129
das	-7130
▁bor	-7131
vgvgp	-7132
▁statist	-7133
▁welches	-7134
▁xfmdift	-7135
▁ygnejgu	-7136
▁position	-7137
▁gthcjtwpi	-7138
▁jgtcwuhqtfgt	-7139
gå	-7140
iff	-7141
▁kat	-7142
▁ßqtm	-7143
efoufo	-7144
▁lbnfo	-7145
▁mcogp	-7146
▁sudden	-7147
▁perfect	-7148
▁yktvuejchv	-7149
▁hç	-7150
joef	-7151
▁rcr	-7152
▁sau	-7153
koogp	-7154
▁stimm	-7155
▁tdixf	-7156
▁parents	-7157
▁special	-7158
▁gemeinsam	-7159
ejvu	-7160
▁key	-7161
dnkem	-7162
ledge	-7163
▁sfjdi	-7164
▁cphcpi	-7165
▁expect	-7166
ykp	-7167
▁är	-7168
▁vog	-7169
▁xfj	-7170
▁fert	-7171
ources	-7172
▁force	-7173
▁ßfous	-7174
▁àgpvt	-7175
▁meines	-7176
▁nfjoft	-7177
▁ogkpgu	-7178
▁schließlich	-7179
▁tdimjfàmjdi	-7180
▁uejnkgánkej	-7181
jfu	-7182
urkt	-7183
▁int	-7184
▁auth	-7185
▁tage	-7186
▁mikro	-7187
▁white	-7188
▁humans	-7189
nkejmgkv	-7190
qj	-7191
cwuq	-7192
fgvg	-7193
▁csp	-7194
▁dro	-7195
▁sho	-7196
▁rock	-7197
▁städ	-7198
▁ubhf	-7199
igogkp	-7200
▁either	-7201
▁itwpfg	-7202
▁lwpigp	-7203
▁iguwpfjgkv	-7204
▁kphqtocvkqp	-7205
lag	-7206
▁sn	-7207
qqfo	-7208
▁qmø	-7209
▁rnú	-7210
▁tpo	-7211
▁wjt	-7212
fghan	-7213
▁plöt	-7214
▁spent	-7215
▁tiere	-7216
▁ujfsf	-7217
▁vkgtg	-7218
▁hfobvt	-7219
▁kvohfo	-7220
▁wfshmf	-7221
▁verschw	-7222
pof	-7223
qug	-7224
▁dtq	-7225
▁mis	-7226
▁rele	-7227
ctdgkv	-7228
▁bvghf	-7229
▁virtu	-7230
▁cfsfju	-7231
▁genaus	-7232
▁grunde	-7233
▁jungen	-7234
▁temper	-7235
▁vnxfmu	-7236
▁quickly	-7237
▁gvolujpojfsfo	-7238
▁hwpmvkqpkgtgp	-7239
eks	-7240
fmcf	-7241
åohu	-7242
▁uwr	-7243
cbvfo	-7244
dcwgp	-7245
indet	-7246
vtcigp	-7247
▁bekam	-7248
▁markt	-7249
▁bogboh	-7250
▁einzel	-7251
▁hnkgigp	-7252
▁igpcwuq	-7253
▁mussten	-7254
▁nvttufo	-7255
▁owuuvgp	-7256
fme	-7257
row	-7258
▁wtu	-7259
▁fahr	-7260
▁gren	-7261
▁tjuv	-7262
▁ukvw	-7263
▁hftjdiu	-7264
▁lsbolfo	-7265
▁mtcpmgp	-7266
▁support	-7267
▁konzentr	-7268
bhfs	-7269
cmjdl	-7270
icity	-7271
lbnfo	-7272
▁text	-7273
▁xjefs	-7274
▁ykfgt	-7275
▁zeich	-7276
▁àgkej	-7277
▁general	-7278
▁kranken	-7279
sto	-7280
dwpi	-7281
ites	-7282
jußf	-7283
▁main	-7284
▁gtncw	-7285
▁tried	-7286
▁publikum	-7287
▁qvcmjlvn	-7288
ball	-7289
▁hop	-7290
▁ßfs	-7291
foßfo	-7292
▁scale	-7293
▁fjoßfm	-7294
▁hsvoef	-7295
▁solche	-7296
▁tpmdif	-7297
▁uqnejg	-7298
▁hfobvtp	-7299
▁incredible	-7300
▁kpvgtguucpv	-7301
fkg	-7302
▁pi	-7303
iele	-7304
▁vst	-7305
▁feet	-7306
▁gbis	-7307
▁hcjt	-7308
▁inse	-7309
▁zahl	-7310
▁rncvà	-7311
izieren	-7312
▁folgen	-7313
▁gtkppgtp	-7314
ebt	-7315
fsb	-7316
▁ku	-7317
▁gjt	-7318
cejuv	-7319
cpsfo	-7320
▁dunk	-7321
▁qbsu	-7322
hcjtgp	-7323
ßfmmfo	-7324
▁detail	-7325
▁bscfjut	-7326
▁version	-7327
▁erinnern	-7328
▁fsjoofso	-7329
▁structure	-7330
vw	-7331
ktor	-7332
part	-7333
richt	-7334
cially	-7335
▁dgogt	-7336
▁college	-7337
▁genauso	-7338
ake	-7339
bauen	-7340
ently	-7341
mbhfo	-7342
ygugp	-7343
▁cdig	-7344
▁scre	-7345
kàkgtv	-7346
usbhfo	-7347
▁cfnfs	-7348
▁mtchv	-7349
▁pgwgu	-7350
▁museum	-7351
▁efnplsbu	-7352
▁fgoqmtcv	-7353
▁voufstdijfe	-7354
▁wpvgtuejkgf	-7355
cou	-7356
qpv	-7357
ouch	-7358
zung	-7359
▁log	-7360
bditu	-7361
itgkej	-7362
▁dnkem	-7363
▁afghan	-7364
▁mfjdiu	-7365
▁gmjfhfo	-7366
▁surface	-7367
anda	-7368
dlfs	-7369
▁cdi	-7370
▁tfl	-7371
achst	-7372
▁hosp	-7373
▁raus	-7374
▁sbvt	-7375
▁tbnn	-7376
▁ufbn	-7377
bdiufu	-7378
▁alter	-7379
hmjdifo	-7380
▁growth	-7381
▁zellen	-7382
▁ßfmmfo	-7383
▁àgnngp	-7384
ktu	-7385
rift	-7386
usion	-7387
▁feed	-7388
▁samm	-7389
zeichn	-7390
▁cmjdl	-7391
qnqikgp	-7392
▁cities	-7393
▁companies	-7394
▁funktionieren	-7395
▁vs	-7396
ther	-7397
▁hoh	-7398
izing	-7399
tupgg	-7400
▁jobs	-7401
▁vill	-7402
annten	-7403
cejvgv	-7404
cppvgp	-7405
▁europ	-7406
bly	-7407
oud	-7408
▁lb	-7409
▁lbq	-7410
cpvcu	-7411
▁lost	-7412
▁pull	-7413
▁gewor	-7414
▁zahlen	-7415
▁ßbimfo	-7416
▁àcjngp	-7417
▁sitting	-7418
wtg	-7419
ains	-7420
▁pal	-7421
▁caus	-7422
▁fwpm	-7423
▁risk	-7424
mjdift	-7425
▁deren	-7426
▁efsfo	-7427
▁fgtgp	-7428
▁ywuuvg	-7429
▁möglichkeiten	-7430
▁nøhmjdilfjufo	-7431
▁oúinkejmgkvgp	-7432
pse	-7433
▁flu	-7434
▁jqn	-7435
▁ugm	-7436
▁berü	-7437
▁cfsý	-7438
▁vkgh	-7439
▁wfstuf	-7440
▁ability	-7441
▁99	-7442
chsel	-7443
ially	-7444
▁girl	-7445
▁hfmf	-7446
idence	-7447
▁books	-7448
▁zerst	-7449
▁zuvor	-7450
▁àwxqt	-7451
▁recogn	-7452
▁measure	-7453
▁reality	-7454
kfo	-7455
rct	-7456
efso	-7457
ndgp	-7458
▁hon	-7459
▁lik	-7460
▁vßr	-7461
▁cpefo	-7462
▁dqfgp	-7463
▁platz	-7464
▁qmbuß	-7465
▁ßvwps	-7466
omjdifo	-7467
▁wpsifs	-7468
▁cjmevoh	-7469
▁product	-7470
ana	-7471
▁ec	-7472
gtpv	-7473
orgt	-7474
▁dgà	-7475
▁hom	-7476
kraft	-7477
nning	-7478
▁igng	-7479
▁block	-7480
▁boden	-7481
jßjfsfo	-7482
▁møtvoh	-7483
▁schwierig	-7484
crj	-7485
▁sjt	-7486
▁übr	-7487
▁ýcs	-7488
▁ādt	-7489
cpvgp	-7490
fluss	-7491
itter	-7492
▁plat	-7493
▁port	-7494
▁seku	-7495
▁slow	-7496
▁vgng	-7497
▁efgjo	-7498
▁fghkp	-7499
▁qàgcp	-7500
▁ßfstu	-7501
bdituvn	-7502
▁fougfs	-7503
▁jotqjs	-7504
▁kpurkt	-7505
▁lösung	-7506
▁npobuf	-7507
▁sollen	-7508
▁tpmmfo	-7509
▁uqnngp	-7510
▁xvttuf	-7511
dfo	-7512
rieb	-7513
▁jct	-7514
ejhfo	-7515
utdis	-7516
▁disp	-7517
▁magn	-7518
▁àgtuv	-7519
achstum	-7520
kàkgtgp	-7521
▁fragte	-7522
▁gsbhuf	-7523
▁htcivg	-7524
▁núuwpi	-7525
vgnnkigp	-7526
▁entscheiden	-7527
▁foutdifjefo	-7528
▁gpvuejgkfgp	-7529
rab	-7530
ernt	-7531
dctgp	-7532
ejugn	-7533
mvoht	-7534
▁path	-7535
▁absch	-7536
▁color	-7537
▁mboht	-7538
▁njuufm	-7539
▁sterben	-7540
▁tufscfo	-7541
▁uvgtdgp	-7542
▁tdixjfsjh	-7543
oy	-7544
pnf	-7545
jttu	-7546
▁qsb	-7547
ators	-7548
kvàgp	-7549
▁fear	-7550
ierend	-7551
pcjogp	-7552
▁lösen	-7553
▁møtfo	-7554
▁núugp	-7555
▁pßfbo	-7556
▁wären	-7557
▁xåsfo	-7558
▁yçtgp	-7559
▁animal	-7560
▁gpvuvg	-7561
▁wouldn	-7562
tufmmvoh	-7563
▁verwand	-7564
▁wfsxboe	-7565
▁verbunden	-7566
▁wfscvoefo	-7567
▁xgtdwpfgp	-7568
ßvh	-7569
rote	-7570
▁xgto	-7571
▁autos	-7572
▁stage	-7573
▁strong	-7574
▁zweite	-7575
▁bildung	-7576
dvg	-7577
itze	-7578
▁eat	-7579
flufo	-7580
itzen	-7581
ograf	-7582
▁acht	-7583
▁prom	-7584
▁rein	-7585
urkgng	-7586
▁mitte	-7587
▁ncpiu	-7588
▁neues	-7589
▁dgtgkv	-7590
▁lbvgfo	-7591
▁mcwhgp	-7592
▁nation	-7593
pression	-7594
▁economy	-7595
▁strateg	-7596
▁wpsusbh	-7597
▁university	-7598
▁technologies	-7599
mä	-7600
▁flo	-7601
lujpo	-7602
tqjfm	-7603
▁xgtf	-7604
ighājn	-7605
▁beein	-7606
▁kaufen	-7607
▁consider	-7608
▁gemeinschaft	-7609
▁hfnfjotdibgu	-7610
erte	-7611
çpfg	-7612
▁koh	-7613
▁pqu	-7614
▁wal	-7615
zeuge	-7616
ßfvhf	-7617
▁rand	-7618
▁führt	-7619
▁guten	-7620
▁gýisu	-7621
▁hājtv	-7622
▁motiv	-7623
▁danach	-7624
▁ebobdi	-7625
▁fcpcej	-7626
▁schritt	-7627
▁rnúvànkej	-7628
cine	-7629
lter	-7630
▁fjt	-7631
▁ipm	-7632
gjogp	-7633
zeigt	-7634
▁hoffn	-7635
▁ipggo	-7636
▁known	-7637
▁tuvej	-7638
▁wusste	-7639
▁àygkvg	-7640
▁uejykgtki	-7641
ugg	-7642
ilar	-7643
tens	-7644
xgtu	-7645
▁mbv	-7646
▁hall	-7647
▁hast	-7648
▁autom	-7649
▁nimmt	-7650
▁ojnnu	-7651
▁pkoov	-7652
▁vcigu	-7653
▁besteht	-7654
▁brought	-7655
▁cftufiu	-7656
▁dguvgjv	-7657
▁fliegen	-7658
▁rwdnkmwo	-7659
cnngp	-7660
ßphfo	-7661
àgwig	-7662
▁born	-7663
ustain	-7664
▁gwtqr	-7665
▁entste	-7666
▁monate	-7667
▁oqpcvg	-7668
▁freunde	-7669
▁gsfvoef	-7670
▁htgwpfg	-7671
▁fstdibggfo	-7672
▁gtuejchhgp	-7673
amer	-7674
ival	-7675
text	-7676
▁hbm	-7677
zogen	-7678
▁aben	-7679
▁requ	-7680
assion	-7681
àgnngp	-7682
▁gbmmt	-7683
▁hcnnu	-7684
▁hvufo	-7685
▁iwvgp	-7686
▁weeks	-7687
▁hfxbmu	-7688
▁plötzlich	-7689
▁qmøußmjdi	-7690
▁erschaffen	-7691
ckg	-7692
alle	-7693
wtgp	-7694
bvàfo	-7695
cwágp	-7696
hören	-7697
▁bcfo	-7698
▁cdgp	-7699
▁vtcp	-7700
njuufm	-7701
▁fvspq	-7702
▁ofvft	-7703
▁10.000	-7704
▁vortrag	-7705
▁individual	-7706
så	-7707
içp	-7708
digk	-7709
ills	-7710
▁eis	-7711
cnvgt	-7712
jútgp	-7713
ßfjhu	-7714
àgkiv	-7715
▁draw	-7716
▁morn	-7717
▁verbindung	-7718
▁wfscjoevoh	-7719
▁xgtdkpfwpi	-7720
app	-7721
sta	-7722
▁iz	-7723
book	-7724
kvàg	-7725
vàvg	-7726
iøsfo	-7727
▁deut	-7728
▁dgpú	-7729
▁tvdi	-7730
▁uwej	-7731
hfgýim	-7732
ließen	-7733
▁benöt	-7734
▁blood	-7735
▁cfoøu	-7736
▁fyjtu	-7737
▁gzkuv	-7738
▁islam	-7739
▁uejch	-7740
▁woche	-7741
▁xpdif	-7742
▁yqejg	-7743
▁bottom	-7744
zz	-7745
ufm	-7746
▁hig	-7747
▁tal	-7748
ehmen	-7749
jekte	-7750
zeugt	-7751
▁affe	-7752
▁cwvqu	-7753
▁infra	-7754
arbeitet	-7755
▁fähigkeit	-7756
▁hçjkimgkv	-7757
▁political	-7758
▁opportunity	-7759
kd	-7760
▁lw	-7761
ußen	-7762
joßjq	-7763
kpàkr	-7764
▁ibtu	-7765
▁viol	-7766
ßjfifo	-7767
bscfjufu	-7768
ctdgkvgv	-7769
▁climate	-7770
▁ādgtàgw	-7771
▁gåijhlfju	-7772
ex	-7773
mus	-7774
▁jā	-7775
elbe	-7776
kpfg	-7777
▁hea	-7778
▁hqt	-7779
▁opu	-7780
▁rom	-7781
▁2008	-7782
▁felt	-7783
▁bvupt	-7784
▁ihres	-7785
▁jisft	-7786
▁kjtgu	-7787
▁thema	-7788
▁uifnb	-7789
▁vjgoc	-7790
▁xjdiu	-7791
▁offens	-7792
▁uqàkcng	-7793
▁religion	-7794
▁xgtcpvyqtv	-7795
yl	-7796
ßt	-7797
mor	-7798
vvg	-7799
▁lä	-7800
gjgp	-7801
uvtw	-7802
hcnnu	-7803
▁jcuv	-7804
▁bevöl	-7805
▁fight	-7806
▁miles	-7807
▁write	-7808
▁cfwøml	-7809
uvgnnwpi	-7810
▁gxqnwvkqp	-7811
emg	-7812
ähn	-7813
mosp	-7814
alien	-7815
cnkgp	-7816
gmvtt	-7817
ouble	-7818
stein	-7819
▁iran	-7820
▁kpfw	-7821
ejujpo	-7822
▁bleiben	-7823
▁cmfjcfo	-7824
▁dngkdgp	-7825
▁gegenüber	-7826
▁hfhfoýcfs	-7827
▁igigpādgt	-7828
▁potential	-7829
,5	-7830
jpu	-7831
▁hp	-7832
▁led	-7833
bmufs	-7834
phsbg	-7835
ächst	-7836
åditu	-7837
▁efjo	-7838
▁farm	-7839
▁tvqfs	-7840
▁growing	-7841
▁starting	-7842
▁joufmmjhfo	-7843
▁kpvgnnkigp	-7844
ka	-7845
urj	-7846
uejw	-7847
çejuv	-7848
▁cfjo	-7849
▁mars	-7850
igdwpi	-7851
igyújp	-7852
▁based	-7853
▁tvdifo	-7854
▁uwejgp	-7855
▁morning	-7856
▁hmýdlmjdi	-7857
yct	-7858
▁cu	-7859
jähr	-7860
ndon	-7861
ynam	-7862
▁civil	-7863
▁langsam	-7864
▁respons	-7865
▁aussehen	-7866
▁bvttfifo	-7867
▁cwuugjgp	-7868
▁patients	-7869
▁ināemnkej	-7870
▁vergleich	-7871
pi	-7872
dcw	-7873
zer	-7874
ends	-7875
jçnv	-7876
wirk	-7877
▁mitt	-7878
▁park	-7879
▁sýdl	-7880
▁tāem	-7881
▁areas	-7882
▁wrote	-7883
▁instrum	-7884
▁glücklich	-7885
bvs	-7886
åuß	-7887
ised	-7888
kåis	-7889
▁sym	-7890
falls	-7891
▁njuf	-7892
▁tdio	-7893
▁links	-7894
▁anyone	-7895
▁draußen	-7896
▁esbvàfo	-7897
▁feeling	-7898
▁ftcwágp	-7899
▁developed	-7900
▁wissenschaftler	-7901
▁xjttfotdibgumfs	-7902
▁ykuugpuejchvngt	-7903
▁75	-7904
hood	-7905
ýhfo	-7906
bmjfo	-7907
▁tgkp	-7908
▁bvtßv	-7909
▁altern	-7910
▁theory	-7911
▁völlig	-7912
▁gbnjmjfo	-7913
▁hcoknkgp	-7914
jbo	-7915
nkp	-7916
ttf	-7917
▁öl	-7918
haus	-7919
ring	-7920
▁194	-7921
▁bür	-7922
▁qbq	-7923
emjdif	-7924
▁modell	-7925
▁okvgkp	-7926
▁anderer	-7927
▁boefsfs	-7928
▁cpfgtgt	-7929
▁mtgcvkx	-7930
▁tdisjuu	-7931
▁familien	-7932
▁iý	-7933
tusb	-7934
fmufo	-7935
kivgp	-7936
▁hung	-7937
▁perio	-7938
▁images	-7939
▁njufjo	-7940
▁philos	-7941
▁suchen	-7942
▁wømmjh	-7943
▁lsfbujw	-7944
ukejvnkej	-7945
▁dgygiwpi	-7946
▁gefunden	-7947
▁hfgvoefo	-7948
▁ighwpfgp	-7949
2-	-7950
nt	-7951
cbv	-7952
▁23	-7953
▁bur	-7954
▁ice	-7955
▁gele	-7956
arbeit	-7957
gefühl	-7958
ygkugp	-7959
▁bmmfjo	-7960
▁hsøàuf	-7961
▁impact	-7962
▁itúávg	-7963
▁xúnnki	-7964
lei	-7965
abil	-7966
bten	-7967
ügen	-7968
sjdiu	-7969
▁spir	-7970
zellen	-7971
▁genet	-7972
▁allein	-7973
▁cnngkp	-7974
▁größte	-7975
▁überleben	-7976
▁ýcfsmfcfo	-7977
▁ādgtngdgp	-7978
▁compassion	-7979
▁vgk	-7980
hnwuu	-7981
▁ejfo	-7982
▁fkgp	-7983
▁fyusfn	-7984
▁mbvgfo	-7985
▁ncwhgp	-7986
▁beginnt	-7987
▁cfhjoou	-7988
▁changes	-7989
▁dgikppv	-7990
▁program	-7991
xúnmgtwpi	-7992
▁approach	-7993
▁cfxfhvoh	-7994
▁interact	-7995
bau	-7996
dia	-7997
foe	-7998
çiv	-7999
ived	-8000
kgvgp	-8001
osaur	-8002
spiel	-8003
▁road	-8004
▁bedeu	-8005
▁gives	-8006
▁tgkej	-8007
▁nbodif	-8008
▁ocpejg	-8009
▁development	-8010
kxk	-8011
vci	-8012
▁uj	-8013
lant	-8014
ltbn	-8015
feren	-8016
lungs	-8017
onnen	-8018
uvgog	-8019
▁sent	-8020
▁tools	-8021
▁tubsl	-8022
▁dgfgwv	-8023
mjo	-8024
uren	-8025
▁cmv	-8026
▁gku	-8027
icdgp	-8028
igung	-8029
lsbgu	-8030
xftfo	-8031
▁blog	-8032
▁itwp	-8033
▁nbsl	-8034
▁unge	-8035
▁klima	-8036
▁namen	-8037
▁smart	-8038
▁average	-8039
▁explain	-8040
▁tdifjou	-8041
▁knowledge	-8042
icy	-8043
qtp	-8044
▁lay	-8045
▁ufm	-8046
▁vkg	-8047
gegen	-8048
jfufo	-8049
▁nice	-8050
▁favor	-8051
▁åoefs	-8052
▁forward	-8053
▁scheint	-8054
▁uejgkpv	-8055
ejo	-8056
mar	-8057
wen	-8058
idge	-8059
blick	-8060
ieten	-8061
ragen	-8062
▁cfhs	-8063
▁webs	-8064
▁begin	-8065
prochen	-8066
qspdifo	-8067
ppm	-8068
flus	-8069
▁bol	-8070
ejvgt	-8071
mtchv	-8072
▁vtcf	-8073
▁wachsen	-8074
▁xbditfo	-8075
▁ycejugp	-8076
▁positive	-8077
▁richtung	-8078
▁tqb	-8079
▁ejoh	-8080
▁vohf	-8081
kerung	-8082
▁kolle	-8083
hfopnnfo	-8084
▁fouefdl	-8085
▁gpvfgem	-8086
▁numbers	-8087
▁similar	-8088
▁umgebung	-8089
▁vnhfcvoh	-8090
▁scientists	-8091
ote	-8092
àwi	-8093
ints	-8094
ogpv	-8095
ufuf	-8096
nahme	-8097
▁gbou	-8098
▁tusf	-8099
▁blick	-8100
▁lpmmf	-8101
▁mqnng	-8102
▁atmosp	-8103
xjsutdibgu	-8104
▁literally	-8105
ott	-8106
tup	-8107
cufo	-8108
ückg	-8109
▁hng	-8110
▁cejv	-8111
▁ßfio	-8112
▁mount	-8113
▁octmv	-8114
▁verbre	-8115
▁zuerst	-8116
▁ßvfstu	-8117
▁àwgtuv	-8118
▁größten	-8119
▁hsøàufo	-8120
▁itúávgp	-8121
▁produkt	-8122
tjdiumjdi	-8123
▁discovered	-8124
mat	-8125
psh	-8126
elten	-8127
▁lmjnb	-8128
▁npmfl	-8129
▁oqngm	-8130
▁schwe	-8131
▁çpfgt	-8132
▁hkpcpà	-8133
▁npefmm	-8134
▁unseres	-8135
▁votfsft	-8136
▁wpugtgu	-8137
▁jgtcwuàw	-8138
▁lýotumfs	-8139
▁māpuvngt	-8140
▁attention	-8141
0.	-8142
▁ç	-8143
kvß	-8144
▁2.	-8145
▁est	-8146
▁bvgßv	-8147
▁npsbm	-8148
▁obdiu	-8149
isieren	-8150
▁oqfgnn	-8151
▁tatsache	-8152
▁ubutbdif	-8153
▁vcvucejg	-8154
zv	-8155
nal	-8156
weg	-8157
spro	-8158
▁hör	-8159
ýshfs	-8160
▁rede	-8161
forsch	-8162
▁oqtcn	-8163
▁hcpvcu	-8164
▁manche	-8165
▁bekannt	-8166
▁dguejçh	-8167
▁beschäft	-8168
▁cftdiågu	-8169
▁erklären	-8170
▁fslmåsfo	-8171
▁gtmnçtgp	-8172
▁nachdenken	-8173
▁obdiefolfo	-8174
▁pcejfgpmgp	-8175
▁iguwpfjgkvu	-8176
iant	-8177
▁code	-8178
▁gewesen	-8179
▁hfxftfo	-8180
▁igygugp	-8181
▁ländern	-8182
▁måoefso	-8183
▁nçpfgtp	-8184
▁künstler	-8185
▁hqtuejwpi	-8186
▁kbisivoefsu	-8187
▁lcjtjwpfgtv	-8188
cl	-8189
nå	-8190
cpe	-8191
juz	-8192
rael	-8193
rich	-8194
wfst	-8195
▁600	-8196
▁ncw	-8197
fjmfo	-8198
▁fair	-8199
▁hine	-8200
▁dynam	-8201
▁ijofjo	-8202
▁integr	-8203
▁jkpgkp	-8204
▁möchten	-8205
▁nødiufo	-8206
▁oúejvgp	-8207
▁challenge	-8208
▁computers	-8209
▁ukejgtjgkv	-8210
▁understanding	-8211
ils	-8212
lgp	-8213
ric	-8214
ýdlf	-8215
āemg	-8216
▁jcn	-8217
▁tum	-8218
produ	-8219
▁bist	-8220
▁seems	-8221
▁anzahl	-8222
▁boßbim	-8223
▁cpàcjn	-8224
▁ifswps	-8225
▁tkejvwpi	-8226
▁technologien	-8227
▁ufdiopmphjfo	-8228
▁vgejpqnqikgp	-8229
kul	-8230
por	-8231
ygi	-8232
jggu	-8233
ances	-8234
▁cars	-8235
▁fire	-8236
jßjfsu	-8237
▁shape	-8238
▁giving	-8239
wirtschaft	-8240
▁blut	-8241
▁xbim	-8242
▁nbslu	-8243
▁ogfkm	-8244
▁reihe	-8245
▁sfjif	-8246
▁tgkjg	-8247
▁gzvtgo	-8248
▁minute	-8249
▁english	-8250
▁medical	-8251
▁vgejpkm	-8252
iot	-8253
zus	-8254
▁bun	-8255
▁fse	-8256
▁fur	-8257
cvvgp	-8258
▁2007	-8259
▁rate	-8260
ijoefs	-8261
▁christ	-8262
▁daraus	-8263
▁ebsbvt	-8264
▁fctcwu	-8265
▁anstatt	-8266
▁botubuu	-8267
▁cpuvcvv	-8268
▁ufdiojl	-8269
▁movement	-8270
xfh	-8271
▁eg	-8272
▁ejh	-8273
▁fki	-8274
▁leg	-8275
▁map	-8276
▁mqu	-8277
▁vng	-8278
▁cjtu	-8279
▁dark	-8280
▁dkuv	-8281
bscfju	-8282
▁guess	-8283
▁krieg	-8284
▁pcejv	-8285
▁größer	-8286
▁hsøàfs	-8287
▁gelernt	-8288
▁hfmfsou	-8289
▁igngtpv	-8290
▁technik	-8291
ßý	-8292
ifft	-8293
ivgp	-8294
khhv	-8295
ygtv	-8296
▁aspe	-8297
▁bdiu	-8298
▁aufge	-8299
▁bctpm	-8300
▁beide	-8301
▁cfjef	-8302
▁dgkfg	-8303
vnkejgp	-8304
▁gebaut	-8305
▁london	-8306
▁sustain	-8307
▁bedeutung	-8308
▁cfefvuvoh	-8309
▁krankheit	-8310
▁miteinander	-8311
▁njufjoboefs	-8312
▁okvgkpcpfgt	-8313
ues	-8314
lçjt	-8315
▁tfy	-8316
▁mtgk	-8317
▁rctv	-8318
▁sell	-8319
▁bctdi	-8320
▁except	-8321
▁muster	-8322
▁erzählt	-8323
▁fsßåimu	-8324
▁gtàçjnv	-8325
▁geworden	-8326
▁hfxpsefo	-8327
▁igyqtfgp	-8328
▁evsditdio	-8329
▁fwtejuejp	-8330
▁vergangen	-8331
▁wfshbohfo	-8332
▁xgticpigp	-8333
uejchvnkejgp	-8334
gpsu	-8335
ncpf	-8336
gbmmt	-8337
▁aren	-8338
▁wpsb	-8339
▁npefs	-8340
▁åmufs	-8341
▁çnvgt	-8342
▁gsýifs	-8343
▁htājgt	-8344
entially	-8345
▁cflboou	-8346
gor	-8347
sum	-8348
wem	-8349
jubm	-8350
▁ufn	-8351
▁umf	-8352
buufo	-8353
ester	-8354
qejgp	-8355
▁obin	-8356
▁pcjo	-8357
emjdifo	-8358
▁laufen	-8359
▁stelle	-8360
▁tufmmf	-8361
▁uvgnng	-8362
▁uejtkvv	-8363
▁infrastru	-8364
vß	-8365
cfm	-8366
cjo	-8367
qjp	-8368
gpst	-8369
lauf	-8370
▁dgh	-8371
▁úhh	-8372
digen	-8373
inder	-8374
▁bobm	-8375
▁cpcn	-8376
▁nahm	-8377
▁ernst	-8378
▁fkikv	-8379
hftfußu	-8380
▁ogfkgp	-8381
▁playing	-8382
▁anfangen	-8383
▁bogbohfo	-8384
▁cphcpigp	-8385
▁designer	-8386
▁gpstdivoh	-8387
ij	-8388
lear	-8389
lfoou	-8390
▁cwuu	-8391
▁fohm	-8392
▁öffn	-8393
▁øggo	-8394
àkgjgp	-8395
▁ausge	-8396
▁nacht	-8397
▁table	-8398
▁nfejfo	-8399
▁meaning	-8400
▁passieren	-8401
▁qbttjfsfo	-8402
▁rcuukgtgp	-8403
▁durchschnitt	-8404
fä	-8405
çá	-8406
ipp	-8407
qrr	-8408
▁hü	-8409
▁ßå	-8410
aged	-8411
▁hgn	-8412
▁joh	-8413
▁poe	-8414
▁suf	-8415
kgnng	-8416
obinf	-8417
▁blau	-8418
▁dein	-8419
▁toll	-8420
▁aufre	-8421
▁boxfo	-8422
▁cpygp	-8423
▁meter	-8424
▁regul	-8425
▁formen	-8426
▁island	-8427
▁jemals	-8428
▁kfnbmt	-8429
▁lgocnu	-8430
▁realize	-8431
▁fwpmvujpo	-8432
▁tgxqnwvkqp	-8433
head	-8434
çwhv	-8435
ýdlu	-8436
āemv	-8437
▁kan	-8438
▁crit	-8439
▁curr	-8440
stellt	-8441
▁bvgsf	-8442
▁cwhtg	-8443
▁finan	-8444
▁refle	-8445
▁touch	-8446
åhu	-8447
cvqt	-8448
onom	-8449
▁mcn	-8450
iforn	-8451
▁uvctm	-8452
▁finger	-8453
mjdilfju	-8454
▁journal	-8455
▁running	-8456
met	-8457
isst	-8458
racy	-8459
ucom	-8460
vsfo	-8461
▁dct	-8462
▁ira	-8463
▁pgt	-8464
organ	-8465
qvkqp	-8466
▁hold	-8467
▁song	-8468
▁stär	-8469
▁tuås	-8470
▁uvçt	-8471
▁fsotu	-8472
▁girls	-8473
digkeit	-8474
▁bouxps	-8475
▁gpsnfo	-8476
▁hqtogp	-8477
▁nvtufs	-8478
▁owuvgt	-8479
▁cffjogm	-8480
▁connect	-8481
▁dggkphn	-8482
▁genannt	-8483
▁hfoboou	-8484
▁recently	-8485
▁absolutely	-8486
gsb	-8487
ried	-8488
▁mcp	-8489
▁egal	-8490
▁gerä	-8491
hfttfo	-8492
iguugp	-8493
▁fguki	-8494
▁gkpàw	-8495
▁medien	-8496
▁igpcppv	-8497
▁hftvoeifju	-8498
▁td	-8499
gkvgv	-8500
round	-8501
▁flow	-8502
▁ycjn	-8503
nahmen	-8504
▁mtkgi	-8505
▁faszin	-8506
▁gbtßjo	-8507
▁hcuàkp	-8508
▁repres	-8509
▁terror	-8510
▁tpoofo	-8511
▁industr	-8512
▁physical	-8513
▁developing	-8514
nqu	-8515
▁øm	-8516
xkgn	-8517
▁din	-8518
▁icn	-8519
▁trut	-8520
curity	-8521
gbisfo	-8522
▁cover	-8523
▁demon	-8524
▁regen	-8525
erungen	-8526
kmcvkqp	-8527
möglich	-8528
▁cpvyqt	-8529
▁uqppgp	-8530
▁kleiner	-8531
▁kontroll	-8532
bed	-8533
fsuf	-8534
hājt	-8535
lage	-8536
dlich	-8537
▁qsjw	-8538
▁rtkx	-8539
dimens	-8540
obinfo	-8541
▁avail	-8542
▁benef	-8543
▁okmtq	-8544
▁tgkug	-8545
▁worth	-8546
▁dknfwpi	-8547
▁einzeln	-8548
▁fjoßfmo	-8549
arm	-8550
▁mü	-8551
boht	-8552
nehm	-8553
yktv	-8554
▁jút	-8555
▁gfsu	-8556
▁rück	-8557
▁sfjo	-8558
▁intro	-8559
▁teile	-8560
▁ufjmf	-8561
▁vgkng	-8562
▁xgtng	-8563
▁direct	-8564
▁mqpvtqnn	-8565
▁wahrheit	-8566
inge	-8567
joht	-8568
reds	-8569
riff	-8570
tdif	-8571
▁000	-8572
▁boy	-8573
▁lbm	-8574
øggfo	-8575
▁mache	-8576
▁ncdqt	-8577
▁nobody	-8578
▁tradit	-8579
▁travel	-8580
urtgejgp	-8581
▁creating	-8582
▁verloren	-8583
▁wfsmpsfo	-8584
▁xgtnqtgp	-8585
▁tuvefoufo	-8586
▁uvwfgpvgp	-8587
▁ken	-8588
▁qual	-8589
blujpo	-8590
▁alone	-8591
▁phone	-8592
▁antwor	-8593
▁network	-8594
▁entfernt	-8595
▁millions	-8596
▁studenten	-8597
▁afghanistan	-8598
isf	-8599
jlp	-8600
mut	-8601
kuvg	-8602
kvgt	-8603
mguf	-8604
▁obo	-8605
▁sehe	-8606
▁tfif	-8607
▁ugjg	-8608
▁brill	-8609
▁nbdif	-8610
▁ocejg	-8611
ssystem	-8612
▁lmfjofs	-8613
▁mngkpgt	-8614
▁transport	-8615
wuv	-8616
▁ed	-8617
lern	-8618
▁eye	-8619
icans	-8620
àqigp	-8621
▁disk	-8622
▁fhbm	-8623
▁gicn	-8624
▁hqvq	-8625
▁lsjfh	-8626
▁nfuip	-8627
▁ogvjq	-8628
▁preis	-8629
▁qsfjt	-8630
▁reise	-8631
▁nfjovoh	-8632
▁prinzip	-8633
▁qsjoßjq	-8634
▁rtkpàkr	-8635
▁soziale	-8636
▁hundreds	-8637
▁industry	-8638
kum	-8639
▁tä	-8640
eles	-8641
lfte	-8642
tufu	-8643
▁urc	-8644
çnhvg	-8645
▁fnpu	-8646
▁send	-8647
▁soon	-8648
▁hfcbvu	-8649
▁igdcwv	-8650
▁bekommt	-8651
▁cflpnnu	-8652
▁chinese	-8653
▁dgmqoov	-8654
▁forschung	-8655
use	-8656
zte	-8657
▁bon	-8658
▁hit	-8659
ellow	-8660
gkngp	-8661
▁vorh	-8662
▁sfjtf	-8663
▁uvccv	-8664
▁nçpigt	-8665
▁gezeigt	-8666
▁telling	-8667
▁solution	-8668
▁ycjtjgkv	-8669
▁verwendet	-8670
eq	-8671
lb	-8672
bodf	-8673
ploy	-8674
▁fem	-8675
kogpu	-8676
änden	-8677
▁qijm	-8678
▁rjkn	-8679
▁knows	-8680
▁goqvkqp	-8681
▁kilomet	-8682
▁lpouspmm	-8683
▁xbisifju	-8684
▁wfsxfoefu	-8685
▁xgtygpfgv	-8686
▁relationship	-8687
btf	-8688
vko	-8689
▁arr	-8690
▁nuc	-8691
▁rul	-8692
▁meta	-8693
fahren	-8694
zeitig	-8695
▁frank	-8696
▁objekt	-8697
▁kleines	-8698
▁lmfjoft	-8699
▁mngkpgu	-8700
▁niemals	-8701
▁ojfnbmt	-8702
▁pkgocnu	-8703
▁materials	-8704
▁vç	-8705
çtgp	-8706
merks	-8707
vàvgp	-8708
▁cmvu	-8709
▁diagn	-8710
▁mjolt	-8711
▁rtgku	-8712
▁sonst	-8713
▁tpotu	-8714
▁uqpuv	-8715
agieren	-8716
bhjfsfo	-8717
umjdifo	-8718
▁hinaus	-8719
▁israel	-8720
▁hfßfjhu	-8721
▁igàgkiv	-8722
mā	-8723
wa	-8724
ceg	-8725
iki	-8726
mfj	-8727
wjev	-8728
çnng	-8729
▁pun	-8730
asing	-8731
kxkfw	-8732
▁ujfg	-8733
▁wash	-8734
▁jefou	-8735
▁sever	-8736
▁action	-8737
▁ijobvt	-8738
▁proper	-8739
▁showed	-8740
▁demonstr	-8741
▁tdimfdiu	-8742
▁dgfgwvwpi	-8743
foß	-8744
kmq	-8745
rat	-8746
vkp	-8747
jchv	-8748
xbsf	-8749
▁iøs	-8750
▁kal	-8751
▁aids	-8752
▁tdiý	-8753
▁chris	-8754
▁haven	-8755
▁sfhfm	-8756
▁tdibv	-8757
▁lieben	-8758
▁mjfcfo	-8759
▁nkgdgp	-8760
▁fougfsou	-8761
▁uejngejv	-8762
▁incredibly	-8763
2,	-8764
aul	-8765
▁lt	-8766
rückt	-8767
▁espe	-8768
▁gpup	-8769
▁pack	-8770
▁verö	-8771
▁xgtú	-8772
cmjdif	-8773
▁regel	-8774
▁cwhogt	-8775
▁früher	-8776
▁tqsbdi	-8777
▁benutzt	-8778
▁cfovußu	-8779
▁dgpwvàv	-8780
▁partner	-8781
▁produce	-8782
▁tpßjbmf	-8783
▁unglaub	-8784
▁jqhhpwpi	-8785
▁hfnfjotbn	-8786
▁gthqnitgkej	-8787
▁igogkpuejchv	-8788
kug	-8789
▁tå	-8790
gkdv	-8791
uern	-8792
▁eob	-8793
▁fpc	-8794
▁tfo	-8795
▁ugp	-8796
teilt	-8797
▁band	-8798
▁schü	-8799
roffen	-8800
▁blind	-8801
▁enorm	-8802
▁gtpuv	-8803
▁iguvg	-8804
▁erzähl	-8805
▁urtcej	-8806
▁anybody	-8807
▁meinung	-8808
▁obviously	-8809
uejchvnkejg	-8810
▁sfwpmvujpo	-8811
▁wpstufmmvoh	-8812
tj	-8813
ày	-8814
ipku	-8815
qwte	-8816
wood	-8817
▁pse	-8818
dnung	-8819
▁impl	-8820
▁austr	-8821
▁gfsot	-8822
▁graph	-8823
▁bvgnfs	-8824
▁dimens	-8825
▁gefähr	-8826
▁joejwjev	-8827
▁kpfkxkfw	-8828
▁tusvluvs	-8829
▁especially	-8830
qb	-8831
rän	-8832
lang	-8833
mmet	-8834
vide	-8835
▁gtf	-8836
▁mex	-8837
▁nar	-8838
▁cwut	-8839
▁foto	-8840
▁save	-8841
▁pcejàw	-8842
▁stellte	-8843
▁tufmmuf	-8844
▁uvgnnvg	-8845
▁aufmerks	-8846
▁gpvhgtpv	-8847
▁betrachte	-8848
nkpg	-8849
▁zug	-8850
ftwem	-8851
kuvgt	-8852
▁fail	-8853
▁fnqg	-8854
▁geor	-8855
▁sfef	-8856
kejvgv	-8857
▁igkuv	-8858
▁bsdijufl	-8859
▁struktur	-8860
▁tjuvbujpo	-8861
▁ukvwcvkqp	-8862
kpu	-8863
juvu	-8864
kehr	-8865
mvkx	-8866
ufou	-8867
▁rat	-8868
ßfvhu	-8869
▁tcwu	-8870
isiert	-8871
vnkejg	-8872
▁neigh	-8873
fsvohfo	-8874
ktionen	-8875
▁talked	-8876
▁wfsøggfo	-8877
▁tdimfdiuf	-8878
▁uejngejvg	-8879
vmu	-8880
▁ehr	-8881
koogt	-8882
mtcpm	-8883
▁igdg	-8884
bracht	-8885
ejhlfju	-8886
▁fahren	-8887
▁fggflu	-8888
▁histor	-8889
▁ighçjt	-8890
▁ivoefs	-8891
▁amerika	-8892
▁bnfsjlb	-8893
▁cogtkmc	-8894
▁dgmcppv	-8895
▁ogkpwpi	-8896
▁suggest	-8897
▁gzrgtkogpv	-8898
esp	-8899
zehn	-8900
ätze	-8901
åußf	-8902
ually	-8903
vgknv	-8904
▁fctu	-8905
▁lpog	-8906
▁norm	-8907
ending	-8908
▁okvvg	-8909
ination	-8910
▁bigger	-8911
▁dātigt	-8912
▁fanden	-8913
▁gboefo	-8914
▁hcpfgp	-8915
▁office	-8916
genommen	-8917
▁aufgabe	-8918
▁bvghbcf	-8919
▁cwhicdg	-8920
▁fyqfsjnfou	-8921
owv	-8922
▁db	-8923
cpeg	-8924
oose	-8925
▁jen	-8926
ufjmu	-8927
▁ejtl	-8928
▁empf	-8929
▁yguv	-8930
vumjdi	-8931
øhmjdi	-8932
▁ebstuf	-8933
▁findet	-8934
▁gjoefu	-8935
▁hkpfgv	-8936
▁sprach	-8937
▁richtige	-8938
▁sjdiujhf	-8939
▁tkejvkig	-8940
▁bvgnfsltbn	-8941
ptf	-8942
ativ	-8943
xfsu	-8944
▁ufs	-8945
boufo	-8946
phone	-8947
kvçvgp	-8948
mbttfo	-8949
▁bohft	-8950
▁niger	-8951
▁carbon	-8952
▁cýshfs	-8953
gh	-8954
ami	-8955
bvgu	-8956
jwfs	-8957
åohf	-8958
▁echt	-8959
▁prop	-8960
▁tiny	-8961
▁vari	-8962
▁xftu	-8963
▁among	-8964
▁games	-8965
▁igjgk	-8966
▁stark	-8967
▁bürger	-8968
▁fortsch	-8969
▁gpsutdis	-8970
▁hqtvuejt	-8971
▁pqtocngt	-8972
▁aufmerksam	-8973
bsn	-8974
cum	-8975
ejn	-8976
kel	-8977
çhv	-8978
ston	-8979
àgjp	-8980
▁pan	-8981
cogpv	-8982
▁infe	-8983
▁spre	-8984
▁issue	-8985
▁tubuu	-8986
▁gbisfo	-8987
▁hcjtgp	-8988
▁sofort	-8989
▁tpgpsu	-8990
▁bctpmvu	-8991
▁available	-8992
▁resources	-8993
▁vtcfkvkqp	-8994
oon	-8995
ram	-8996
ygku	-8997
▁ugt	-8998
▁type	-8999
ichtet	-9000
▁jkpcwu	-9001
▁becomes	-9002
▁entdeck	-9003
▁training	-9004
▁woigdwpi	-9005
gue	-9006
ley	-9007
mbh	-9008
▁uå	-9009
oognp	-9010
▁dead	-9011
juåufo	-9012
▁alten	-9013
▁bmufo	-9014
▁cnvgp	-9015
▁drive	-9016
▁kpuvkv	-9017
▁stimme	-9018
▁tujnnf	-9019
▁uvkoog	-9020
øse	-9021
▁27	-9022
bups	-9023
stre	-9024
yond	-9025
▁pil	-9026
▁pom	-9027
▁tod	-9028
▁wish	-9029
jdiufu	-9030
▁strom	-9031
▁tuspn	-9032
▁ādgty	-9033
fnkejgp	-9034
▁finanz	-9035
▁absolut	-9036
▁jemanden	-9037
▁kfnboefo	-9038
▁lgocpfgp	-9039
▁security	-9040
▁usbejujpo	-9041
iko	-9042
▁sv	-9043
auft	-9044
wjfm	-9045
▁11.	-9046
▁21.	-9047
▁hot	-9048
▁dnwv	-9049
▁roll	-9050
▁vgco	-9051
▁yqjp	-9052
itäten	-9053
▁trust	-9054
▁hsýoef	-9055
zufinden	-9056
▁concept	-9057
▁subject	-9058
▁designed	-9059
▁conscious	-9060
vqp	-9061
cwhv	-9062
xbtt	-9063
▁las	-9064
▁sky	-9065
▁uýs	-9066
▁vāt	-9067
wpmvg	-9068
▁fkum	-9069
▁öffent	-9070
▁changing	-9071
▁einfache	-9072
▁erreicht	-9073
▁fjogbdif	-9074
▁fssfjdiu	-9075
▁gkphcejg	-9076
▁gttgkejv	-9077
▁komplett	-9078
oct	-9079
okp	-9080
qpm	-9081
▁tür	-9082
▁nine	-9083
gemein	-9084
gliche	-9085
▁erwar	-9086
▁größe	-9087
▁hsøàf	-9088
▁itúág	-9089
▁total	-9090
▁vstqs	-9091
▁wturt	-9092
cpfnwpi	-9093
▁hfgåis	-9094
▁passion	-9095
▁schrieb	-9096
▁tdisjfc	-9097
▁uejtkgd	-9098
▁argument	-9099
ada	-9100
ilt	-9101
abet	-9102
abor	-9103
iled	-9104
itch	-9105
▁lif	-9106
▁tku	-9107
jhvoh	-9108
krank	-9109
tqflu	-9110
▁2005	-9111
▁vern	-9112
▁uwrgt	-9113
▁beyond	-9114
▁einsch	-9115
▁fjotdi	-9116
▁sfdiut	-9117
▁geboren	-9118
▁hfcpsfo	-9119
▁igdqtgp	-9120
▁jogpsnbujpo	-9121
30	-9122
▁fi	-9123
hmer	-9124
uvsf	-9125
▁ljm	-9126
▁mkn	-9127
▁ofsw	-9128
pcvkqp	-9129
▁mbcps	-9130
▁motor	-9131
▁schmer	-9132
▁tdinfs	-9133
▁uejogt	-9134
isierung	-9135
▁gegeben	-9136
▁hfhfcfo	-9137
▁igigdgp	-9138
▁reasons	-9139
▁schools	-9140
▁versuche	-9141
▁wfstvdif	-9142
▁xgtuwejg	-9143
▁vorstellung	-9144
▁xqtuvgnnwpi	-9145
2.	-9146
9,	-9147
wj	-9148
bew	-9149
gej	-9150
jút	-9151
dvgp	-9152
kvgp	-9153
ieden	-9154
tkgdgp	-9155
uejchvu	-9156
▁gjoboß	-9157
▁gthqni	-9158
▁xftfou	-9159
▁tusbàfo	-9160
▁uvtcágp	-9161
▁progress	-9162
▁mitgefühl	-9163
bj	-9164
pv	-9165
bgg	-9166
njo	-9167
▁cj	-9168
▁ue	-9169
sprü	-9170
ties	-9171
▁fix	-9172
▁fqt	-9173
▁sle	-9174
jujpo	-9175
▁heim	-9176
▁remo	-9177
▁wfsx	-9178
▁achie	-9179
▁basis	-9180
▁schüt	-9181
ucomgkv	-9182
▁hälfte	-9183
▁iåmguf	-9184
▁jçnhvg	-9185
ßvgjoefo	-9186
▁hundred	-9187
▁putting	-9188
▁straßen	-9189
▁njuhfgýim	-9190
▁okvighājn	-9191
abh	-9192
erv	-9193
yçt	-9194
▁lbs	-9195
alter	-9196
fnfou	-9197
isvoh	-9198
▁mjfg	-9199
▁verd	-9200
▁nkpmu	-9201
▁fehler	-9202
▁tjdifsifju	-9203
▁["	-9204
gpvg	-9205
wärt	-9206
▁250	-9207
▁wahl	-9208
▁mögen	-9209
▁nøhfo	-9210
▁oúigp	-9211
▁voice	-9212
▁spread	-9213
▁happiness	-9214
hör	-9215
▁ren	-9216
asser	-9217
ctors	-9218
kgign	-9219
lsbol	-9220
▁bctu	-9221
ington	-9222
ycuugt	-9223
▁kompl	-9224
▁mcogt	-9225
▁mqorn	-9226
▁solve	-9227
ighājtv	-9228
▁dcmvgt	-9229
▁pflanzen	-9230
▁qgmboßfo	-9231
▁rhncpàgp	-9232
▁extraordin	-9233
▁interessiert	-9234
▁joufsfttjfsu	-9235
▁kpvgtguukgtv	-9236
▁blo	-9237
▁nbà	-9238
sicht	-9239
▁nutz	-9240
▁ozean	-9241
▁stick	-9242
▁bakter	-9243
▁cblufs	-9244
▁gfimfs	-9245
▁brachte	-9246
▁csbdiuf	-9247
▁dtcejvg	-9248
▁involved	-9249
▁scientific	-9250
▁hb	-9251
cnng	-9252
rage	-9253
▁àgw	-9254
ified	-9255
▁arab	-9256
▁corn	-9257
▁foug	-9258
▁king	-9259
▁mcor	-9260
▁ovuß	-9261
▁pqfs	-9262
setzen	-9263
wissen	-9264
úinkej	-9265
▁radio	-9266
rtqejgp	-9267
▁device	-9268
▁hgjngt	-9269
▁ansehen	-9270
▁botfifo	-9271
▁cpugjgp	-9272
▁çjpnkej	-9273
▁dinosaur	-9274
▁pictures	-9275
▁voufstdi	-9276
▁vereinigten	-9277
▁wfsfjojhufo	-9278
▁xgtgkpkivgp	-9279
▁fouxjdlmvoht	-9280
ngp	-9281
qpf	-9282
▁àç	-9283
adem	-9284
hufo	-9285
yqjn	-9286
▁gvà	-9287
▁lfs	-9288
▁maß	-9289
▁ocá	-9290
utage	-9291
xqnng	-9292
▁died	-9293
▁hfcf	-9294
▁ngjt	-9295
jfsfoe	-9296
▁uqhqtv	-9297
▁xgtuejy	-9298
▁ähnlich	-9299
▁fstdifjo	-9300
▁function	-9301
▁gtuejgkp	-9302
▁hfopnnfo	-9303
▁igpqoogp	-9304
▁offensichtlich	-9305
▁pggfotjdiumjdi	-9306
▁qhhgpukejvnkej	-9307
ibr	-9308
wtv	-9309
cngu	-9310
ffee	-9311
twej	-9312
çhvg	-9313
▁eps	-9314
▁ykn	-9315
gkugp	-9316
àkgtv	-9317
▁fkpi	-9318
▁gefü	-9319
àgkvki	-9320
▁leist	-9321
▁secre	-9322
▁eventu	-9323
▁genommen	-9324
▁cfxvttutfjo	-9325
▁dgywuuvugkp	-9326
▁erfolgreich	-9327
▁fsgpmhsfjdi	-9328
▁wfsåoefsvoh	-9329
amp	-9330
ubm	-9331
ßfs	-9332
opsn	-9333
yqjp	-9334
▁19.	-9335
▁lop	-9336
▁ske	-9337
▁tar	-9338
fully	-9339
vkigt	-9340
xfhfo	-9341
ziert	-9342
▁gpsu	-9343
▁lsjf	-9344
▁mist	-9345
▁fisch	-9346
▁rolle	-9347
▁sonne	-9348
▁speed	-9349
▁spmmf	-9350
▁tpoof	-9351
▁tqnng	-9352
▁uqppg	-9353
▁cduqnwv	-9354
▁richard	-9355
▁spricht	-9356
▁tqsjdiu	-9357
▁urtkejv	-9358
▁erschein	-9359
▁veränderung	-9360
bnb	-9361
cgn	-9362
rel	-9363
chgp	-9364
▁ere	-9365
ooper	-9366
wegen	-9367
utions	-9368
vgkngp	-9369
▁democ	-9370
▁rules	-9371
▁gingen	-9372
▁hjohfo	-9373
▁ikpigp	-9374
▁necess	-9375
▁several	-9376
▁towards	-9377
▁xgtçpfgtwpi	-9378
psf	-9379
mboh	-9380
▁hpp	-9381
▁hwá	-9382
▁tor	-9383
▁anzu	-9384
▁wfso	-9385
enigen	-9386
indern	-9387
kgtgpf	-9388
▁iøifs	-9389
▁jújgt	-9390
▁letzt	-9391
▁tells	-9392
kfojhfo	-9393
lgpkigp	-9394
▁bacter	-9395
▁cýdifs	-9396
▁dāejgt	-9397
▁groups	-9398
▁sounds	-9399
▁symbol	-9400
▁voraus	-9401
▁restaur	-9402
▁rqukvkx	-9403
ta	-9404
gru	-9405
lim	-9406
▁ut	-9407
gnvg	-9408
øsfo	-9409
▁mpl	-9410
▁nqm	-9411
arily	-9412
aster	-9413
cwgtp	-9414
▁dien	-9415
▁qrgt	-9416
▁rqvgp	-9417
▁attack	-9418
▁mjfhfo	-9419
▁writing	-9420
▁hospital	-9421
jy	-9422
esh	-9423
hçj	-9424
etdi	-9425
gbmm	-9426
serv	-9427
▁bee	-9428
▁lok	-9429
▁wild	-9430
▁basic	-9431
▁cflbn	-9432
▁tfußfo	-9433
▁ugvàgp	-9434
▁hu	-9435
ered	-9436
vàwv	-9437
åguf	-9438
▁gpu	-9439
▁tpc	-9440
▁usf	-9441
tural	-9442
vubhf	-9443
▁ejbh	-9444
▁ight	-9445
uchten	-9446
▁hoffe	-9447
▁ipggf	-9448
▁jqhhg	-9449
cejuvwo	-9450
hfgýisu	-9451
vàwvcig	-9452
▁princi	-9453
▁setzen	-9454
▁sorgen	-9455
▁tpshfo	-9456
▁uqtigp	-9457
▁verurs	-9458
▁wfsvst	-9459
▁xgtwtu	-9460
▁xqtcwu	-9461
utzutage	-9462
vußvubhf	-9463
▁element	-9464
▁erkennt	-9465
▁fslfoou	-9466
▁einzelne	-9467
▁fjoßfmof	-9468
▁gkpàgnpg	-9469
▁lpnqmfuu	-9470
▁mqorngvv	-9471
▁philosoph	-9472
no	-9473
lsf	-9474
qbs	-9475
qså	-9476
ugk	-9477
ique	-9478
▁cit	-9479
▁fuß	-9480
▁iqq	-9481
▁uqt	-9482
▁wil	-9483
techn	-9484
▁dete	-9485
▁tgfg	-9486
▁wjtv	-9487
▁xkuw	-9488
▁const	-9489
▁tgejvu	-9490
▁gesamte	-9491
▁hftbnuf	-9492
▁evidence	-9493
▁teachers	-9494
▁trotzdem	-9495
▁uspußefn	-9496
▁vtqvàfgo	-9497
▁cfßjfivoh	-9498
▁erwachsen	-9499
▁fsxbditfo	-9500
▁gtycejugp	-9501
▁oberfläche	-9502
▁pcfsgmådif	-9503
▁qdgthnçejg	-9504
hi	-9505
come	-9506
jufo	-9507
▁sbv	-9508
cdjçp	-9509
vgejp	-9510
▁mtkg	-9511
▁vguv	-9512
lassen	-9513
▁vtcpur	-9514
▁convers	-9515
▁further	-9516
▁gtmgppv	-9517
▁igucovg	-9518
▁facebook	-9519
▁beziehung	-9520
▁heutzutage	-9521
▁ifvußvubhf	-9522
▁jgwvàwvcig	-9523
job	-9524
vert	-9525
▁deb	-9526
▁tex	-9527
cpfgo	-9528
koogn	-9529
▁bald	-9530
▁cdàw	-9531
▁late	-9532
▁nbst	-9533
▁octu	-9534
▁sold	-9535
gorith	-9536
urjçtg	-9537
▁dgmco	-9538
▁lived	-9539
cikgtgp	-9540
▁irgende	-9541
▁website	-9542
▁einfluss	-9543
▁hoffnung	-9544
▁ipggovoh	-9545
▁maschine	-9546
▁nbtdijof	-9547
▁suddenly	-9548
▁mtcpmjgkv	-9549
▁particularly	-9550
▁herauszufinden	-9551
▁ifsbvtßvgjoefo	-9552
▁jgtcwuàwhkpfgp	-9553
cen	-9554
eed	-9555
mbn	-9556
tex	-9557
çig	-9558
▁mu	-9559
häng	-9560
▁uqd	-9561
▁asking	-9562
▁vtcigp	-9563
▁gboubtu	-9564
▁schulen	-9565
▁tdivmfo	-9566
▁uejwngp	-9567
▁fjogmvtt	-9568
▁igogkpuco	-9569
idem	-9570
inkg	-9571
room	-9572
▁mfs	-9573
▁ucp	-9574
fjhfo	-9575
fsfoß	-9576
kuvcp	-9577
ygigp	-9578
ßfjujh	-9579
▁aufzu	-9580
▁jkpàw	-9581
▁sfhfo	-9582
▁tgigp	-9583
▁issues	-9584
▁übrigen	-9585
▁ýcsjhfo	-9586
▁ādtkigp	-9587
▁certainly	-9588
▁character	-9589
▁dgàkgjwpi	-9590
▁joevtusjf	-9591
▁fähigkeiten	-9592
▁gåijhlfjufo	-9593
▁hçjkimgkvgp	-9594
gkd	-9595
hre	-9596
back	-9597
ykpf	-9598
▁oqv	-9599
▁yút	-9600
kejgt	-9601
vision	-9602
ulation	-9603
▁pomjof	-9604
▁qpnkpg	-9605
▁usbhfo	-9606
▁ziehen	-9607
▁ßjfifo	-9608
▁àkgjgp	-9609
▁zurückg	-9610
zustellen	-9611
▁geschieht	-9612
▁hftdijfiu	-9613
▁iguejkgjv	-9614
▁ök	-9615
häre	-9616
▁cpn	-9617
▁jou	-9618
▁lpq	-9619
gnvgp	-9620
▁okuu	-9621
sequen	-9622
▁liber	-9623
▁tdisf	-9624
▁truth	-9625
▁uejtg	-9626
▁länger	-9627
▁måohfs	-9628
▁bestimmt	-9629
▁emotional	-9630
▁itqáctvkig	-9631
▁geschrieben	-9632
▁hftdisjfcfo	-9633
▁iguejtkgdgp	-9634
cug	-9635
irm	-9636
▁úm	-9637
fjho	-9638
gkug	-9639
lied	-9640
lups	-9641
▁wol	-9642
kàkgp	-9643
▁früh	-9644
▁poll	-9645
▁rtcm	-9646
▁rund	-9647
▁traum	-9648
ikation	-9649
▁starts	-9650
▁stimmt	-9651
▁städte	-9652
▁tuåeuf	-9653
▁uvçfvg	-9654
▁herausf	-9655
▁ifsbvtg	-9656
▁village	-9657
▁lsbolifju	-9658
▁joufsfttbouf	-9659
▁kpvgtguucpvg	-9660
ify	-9661
nvu	-9662
ieso	-9663
ikel	-9664
ofin	-9665
▁cvt	-9666
auten	-9667
vgkng	-9668
▁zero	-9669
▁clean	-9670
▁qspuf	-9671
▁zeige	-9672
▁ßfjhf	-9673
▁àgkig	-9674
▁compet	-9675
▁danger	-9676
▁indeed	-9677
▁tragen	-9678
▁präsent	-9679
▁chemical	-9680
▁projects	-9681
▁weltweit	-9682
▁xbdituvn	-9683
▁normalerweise	-9684
▁opsnbmfsxfjtf	-9685
▁pqtocngtygkug	-9686
▁herausforderung	-9687
▁ifsbvtgpsefsvoh	-9688
▁jgtcwuhqtfgtwpi	-9689
wfo	-9690
ösen	-9691
øtfo	-9692
úugp	-9693
iegen	-9694
▁cond	-9695
▁grün	-9696
▁hfcv	-9697
▁breat	-9698
▁einge	-9699
▁nennt	-9700
▁ofoou	-9701
▁pgppv	-9702
▁anyway	-9703
▁bewegt	-9704
▁cfxfhu	-9705
▁dgygiv	-9706
▁capital	-9707
▁mbohtbn	-9708
▁intellig	-9709
▁wachstum	-9710
"]	-9711
gng	-9712
ores	-9713
uchs	-9714
▁ijw	-9715
jdifs	-9716
āuugn	-9717
▁bmmhfn	-9718
▁qsåtfou	-9719
▁rtçugpv	-9720
▁cnnigogkp	-9721
▁ykejvkigt	-9722
▁gesprochen	-9723
▁hftqspdifo	-9724
▁igpgtcvkqp	-9725
▁igurtqejgp	-9726
xq	-9727
hki	-9728
lfs	-9729
reg	-9730
turn	-9731
▁gmf	-9732
▁jkx	-9733
▁som	-9734
▁vqv	-9735
pkuug	-9736
▁cýsp	-9737
▁upmm	-9738
▁warm	-9739
abhäng	-9740
▁nachzu	-9741
▁nkgigp	-9742
▁search	-9743
▁tfjufo	-9744
▁ugkvgp	-9745
▁message	-9746
lfm	-9747
xfm	-9748
▁sä	-9749
hmjf	-9750
gkfgp	-9751
jtubo	-9752
▁asso	-9753
▁wann	-9754
bciåoh	-9755
gjßjfo	-9756
▁cross	-9757
▁ogvgt	-9758
▁track	-9759
▁liegen	-9760
▁seiten	-9761
▁hundert	-9762
▁machten	-9763
▁nbdiufo	-9764
▁ocejvgp	-9765
▁rqnkvkm	-9766
▁voufstuýuß	-9767
▁joufsobujpo	-9768
▁kpvgtpcvkqp	-9769
ägt	-9770
▁nq	-9771
pnfo	-9772
▁inf	-9773
▁upe	-9774
▁ßvh	-9775
▁bang	-9776
▁dcnf	-9777
▁lauf	-9778
▁verh	-9779
▁xqtj	-9780
▁firma	-9781
▁gjsnb	-9782
▁hktoc	-9783
▁nfufs	-9784
▁hinein	-9785
▁qpmjujl	-9786
▁ocuejkpg	-9787
▁wfshfttfo	-9788
▁xgtiguugp	-9789
▁qh	-9790
kvàv	-9791
▁sus	-9792
▁swe	-9793
▁tro	-9794
ýisfo	-9795
▁cbme	-9796
▁jcwr	-9797
▁nahe	-9798
▁pcjg	-9799
dessen	-9800
qnqigp	-9801
▁esvdl	-9802
▁jcwrv	-9803
▁separ	-9804
▁spezie	-9805
tuåoeojt	-9806
▁vergessen	-9807
▁hfofsbujpo	-9808
na	-9809
▁36	-9810
▁xq	-9811
çvàg	-9812
▁cto	-9813
▁nan	-9814
tufot	-9815
uvgpu	-9816
▁dght	-9817
▁herr	-9818
▁regeln	-9819
▁sfhfmo	-9820
▁tgignp	-9821
▁verlet	-9822
▁politik	-9823
▁bemerken	-9824
▁cfnfslfo	-9825
▁dgogtmgp	-9826
ron	-9827
bald	-9828
jlfm	-9829
setz	-9830
▁195	-9831
▁adu	-9832
▁cvo	-9833
ously	-9834
▁gang	-9835
▁prakt	-9836
▁qsblu	-9837
▁trial	-9838
øiomjdi	-9839
▁bücher	-9840
▁papier	-9841
▁qbqjfs	-9842
▁rcrkgt	-9843
▁xgtfkgp	-9844
▁obdisjdiufo	-9845
▁pcejtkejvgp	-9846
rm	-9847
ejt	-9848
hfu	-9849
hqp	-9850
jfg	-9851
nny	-9852
ored	-9853
otdi	-9854
▁bqq	-9855
aring	-9856
kvvgt	-9857
åußfo	-9858
üssel	-9859
▁burn	-9860
▁büro	-9861
▁cwun	-9862
▁igur	-9863
▁ycpp	-9864
▁dachten	-9865
▁ebdiufo	-9866
▁fcejvgp	-9867
▁ykejvkig	-9868
▁anschauen	-9869
▁botdibvfo	-9870
▁cpuejcwgp	-9871
asa	-9872
wel	-9873
jußu	-9874
▁add	-9875
dings	-9876
ivers	-9877
juufs	-9878
vkmgn	-9879
ätzen	-9880
▁neun	-9881
▁xboo	-9882
▁posit	-9883
▁choice	-9884
▁fsgpst	-9885
▁gründe	-9886
▁gthqtu	-9887
▁ipggfo	-9888
▁source	-9889
▁examples	-9890
▁exciting	-9891
▁everywhere	-9892
▁nachrichten	-9893
-,	-9894
dom	-9895
uså	-9896
▁jß	-9897
buvs	-9898
▁ref	-9899
▁xqn	-9900
uvgtp	-9901
▁gern	-9902
▁hell	-9903
▁hfso	-9904
▁hsýo	-9905
▁igtp	-9906
▁pgwp	-9907
▁prev	-9908
fttpvs	-9909
cjmevoh	-9910
guuqwte	-9911
▁kannst	-9912
▁lbootu	-9913
▁mcppuv	-9914
kgtwpigp	-9915
▁fshfcojt	-9916
▁vonøhmjdi	-9917
▁wpoúinkej	-9918
coc	-9919
ete	-9920
jkn	-9921
khv	-9922
▁rg	-9923
▁vj	-9924
kpig	-9925
qgfs	-9926
ären	-9927
▁qtf	-9928
▁vqf	-9929
aking	-9930
ienen	-9931
kgpgp	-9932
åohfo	-9933
▁cwuf	-9934
▁mine	-9935
▁qvol	-9936
▁beach	-9937
▁gjoef	-9938
▁hkpfg	-9939
▁vtcpu	-9940
▁ßfjdi	-9941
tuåoejh	-9942
▁europa	-9943
▁tujnnu	-9944
▁uvkoov	-9945
▁xgthqn	-9946
▁xqtdgk	-9947
▁xjdiujhf	-9948
▁industrie	-9949
▁cfpcbdiufo	-9950
▁dgqdcejvgp	-9951
▁dgxúnmgtwpi	-9952
sz	-9953
àgt	-9954
cuss	-9955
legt	-9956
ören	-9957
flict	-9958
çwuej	-9959
▁glob	-9960
▁hftq	-9961
▁onto	-9962
▁check	-9963
▁domin	-9964
agement	-9965
▁sobald	-9966
▁straße	-9967
▁tpcbme	-9968
▁tusbàf	-9969
▁uqdcnf	-9970
▁uvtcág	-9971
▁verfol	-9972
▁wfsgpm	-9973
ctdgkvgp	-9974
ierungen	-9975
jfsvohfo	-9976
▁arbeits	-9977
▁ergebnis	-9978
▁wichtige	-9979
▁beobachten	-9980
▁cfwømlfsvoh	-9981
▁uk	-9982
▁ykp	-9983
fuufs	-9984
icher	-9985
ktive	-9986
▁diej	-9987
▁russ	-9988
▁skin	-9989
bildung	-9990
bscfjufo	-9991
▁showing	-9992
▁entdeckt	-9993
▁schneller	-9994
▁tdiofmmfs	-9995
▁uejpgnngt	-9996
itc	-9997
mfo	-9998
sfh	-9999
buuf	-10000
jufm	-10001
plan	-10002
▁ncu	-10003
essed	-10004
jtufs	-10005
▁impo	-10006
esehen	-10007
tember	-10008
▁finde	-10009
▁hfofu	-10010
▁moved	-10011
▁hgtvki	-10012
▁kbisßf	-10013
arbeiten	-10014
▁ncpiuco	-10015
▁walking	-10016
▁jahrzehn	-10017
▁lcjtàgjp	-10018
▁verständ	-10019
▁interview	-10020
▁gleichzeitig	-10021
▁hmfjdißfjujh	-10022
▁ingkejàgkvki	-10023
jmjt	-10024
vnfo	-10025
▁gmý	-10026
▁vqp	-10027
ricul	-10028
teten	-10029
▁bein	-10030
▁obif	-10031
▁ingen	-10032
▁oqpcv	-10033
▁wants	-10034
▁hfhfot	-10035
▁notice	-10036
▁period	-10037
▁cwhogtm	-10038
▁algorith	-10039
▁xfmuxfju	-10040
▁ygnvygkv	-10041
▁democracy	-10042
▁aufmerksamkeit	-10043
gth	-10044
sth	-10045
tfm	-10046
uvn	-10047
gfgt	-10048
pggf	-10049
rate	-10050
▁harv	-10051
▁himm	-10052
▁lapt	-10053
▁birth	-10054
▁oåifs	-10055
▁pçjgt	-10056
▁älter	-10057
▁rechts	-10058
▁screen	-10059
▁square	-10060
▁symmet	-10061
joevohfo	-10062
kpfwpigp	-10063
▁afrikan	-10064
▁bgsjlbo	-10065
▁chtkmcp	-10066
▁journey	-10067
▁mqpvtqnng	-10068
▁qfstøomjdi	-10069
ox	-10070
åsß	-10071
kvgn	-10072
pgvg	-10073
qgfo	-10074
▁etc	-10075
▁tjn	-10076
▁ubv	-10077
▁ibvq	-10078
▁ijnn	-10079
▁list	-10080
▁uftu	-10081
xfjtfo	-10082
▁mfjtu	-10083
▁ngkuv	-10084
▁peace	-10085
▁ýcfst	-10086
▁please	-10087
▁itwrrgp	-10088
▁nuclear	-10089
▁verrückt	-10090
▁kontrolle	-10091
▁lpouspmmf	-10092
ham	-10093
wjt	-10094
ifst	-10095
▁ker	-10096
▁oxy	-10097
▁spo	-10098
▁xjo	-10099
jfofo	-10100
▁kämp	-10101
▁mçor	-10102
▁sele	-10103
ändert	-10104
▁apart	-10105
▁fjotu	-10106
▁fopsn	-10107
▁ready	-10108
▁wichtiger	-10109
▁xjdiujhfs	-10110
mft	-10111
▁26	-10112
hnen	-10113
ingu	-10114
itwr	-10115
▁ebe	-10116
▁fcf	-10117
ables	-10118
▁gold	-10119
▁ifjn	-10120
▁lose	-10121
▁mqpu	-10122
▁tdiø	-10123
▁terr	-10124
hgtgpà	-10125
çpfpku	-10126
▁likely	-10127
▁biggest	-10128
▁mission	-10129
▁monaten	-10130
▁npobufo	-10131
▁oqpcvgp	-10132
▁cfefvufo	-10133
▁dgfgwvgp	-10134
▁gkphnwuu	-10135
▁medicine	-10136
▁realität	-10137
▁standard	-10138
▁fundamental	-10139
ara	-10140
dic	-10141
ifj	-10142
▁nk	-10143
ibvq	-10144
like	-10145
ojttf	-10146
ühren	-10147
guxbsf	-10148
▁plant	-10149
▁calcul	-10150
▁complic	-10151
▁quality	-10152
▁hqvqitch	-10153
▁wfsusbvfo	-10154
▁xgtvtcwgp	-10155
bof	-10156
ckn	-10157
qps	-10158
qvm	-10159
ejcp	-10160
more	-10161
mphfo	-10162
qspev	-10163
▁erfu	-10164
▁intu	-10165
▁phen	-10166
▁teen	-10167
lungen	-10168
▁angef	-10169
▁bohfg	-10170
ditions	-10171
▁geheim	-10172
▁100.000	-10173
▁gruppen	-10174
▁hfmfhfo	-10175
▁igngigp	-10176
▁pcjtwpi	-10177
▁demokratie	-10178
▁efnplsbujf	-10179
▁fgoqmtcvkg	-10180
▁kppqxcvkqp	-10181
iq	-10182
uvq	-10183
uert	-10184
ßrgp	-10185
▁foss	-10186
▁gesp	-10187
▁nord	-10188
▁schö	-10189
▁tgfw	-10190
▁näher	-10191
▁wpscfj	-10192
▁begannen	-10193
▁cfhboofo	-10194
▁dgicppgp	-10195
ee	-10196
ike	-10197
àwu	-10198
knku	-10199
qtkgp	-10200
▁door	-10201
▁epsg	-10202
▁gehe	-10203
▁ncwh	-10204
▁ress	-10205
▁urcá	-10206
bujwfo	-10207
cvkxgp	-10208
ologen	-10209
▁auszu	-10210
▁cdigu	-10211
▁gutes	-10212
▁hvuft	-10213
▁iwvgu	-10214
▁monat	-10215
itgkhgp	-10216
▁entsch	-10217
▁activity	-10218
▁kbisivoefs	-10219
▁bvgnfsltbnlfju	-10220
▁cwhogtmucomgkv	-10221
1.	-10222
zü	-10223
mon	-10224
▁af	-10225
mbhf	-10226
▁eco	-10227
▁gal	-10228
▁ijs	-10229
▁jcd	-10230
▁jkt	-10231
çejgp	-10232
▁2004	-10233
▁base	-10234
▁baum	-10235
▁spaß	-10236
▁vqnn	-10237
teilen	-10238
▁carry	-10239
▁contr	-10240
▁tjußfo	-10241
▁ukvàgp	-10242
▁sozialen	-10243
▁tpßjbmfo	-10244
▁uqàkcngp	-10245
▁connected	-10246
▁gearbeitet	-10247
▁hfbscfjufu	-10248
▁igctdgkvgv	-10249
▁leidenschaft	-10250
▁mfjefotdibgu	-10251
bet	-10252
▁22	-10253
icle	-10254
owfs	-10255
▁abo	-10256
▁cat	-10257
▁ect	-10258
▁lau	-10259
▁fqth	-10260
▁heut	-10261
▁ifvu	-10262
▁tqbà	-10263
bttvoh	-10264
fguugp	-10265
indest	-10266
ivität	-10267
jwpigp	-10268
▁fjohf	-10269
▁glass	-10270
▁selts	-10271
▁tfmut	-10272
▁ugnvu	-10273
itation	-10274
▁großer	-10275
▁hspàfs	-10276
▁itqágt	-10277
▁multip	-10278
▁hsvqqfo	-10279
▁intelle	-10280
▁sfttpvs	-10281
▁ßvnjoef	-10282
▁àwokpfg	-10283
▁sfbmjuåu	-10284
▁tguuqwte	-10285
▁menschheit	-10286
▁bevölkerung	-10287
▁interessante	-10288
mtg	-10289
isis	-10290
vdit	-10291
▁uāf	-10292
▁ßvo	-10293
antly	-10294
verty	-10295
vyctg	-10296
▁dncw	-10297
ufjmfo	-10298
▁occur	-10299
▁batter	-10300
▁dwejuv	-10301
▁mental	-10302
▁molekü	-10303
▁ncpfgu	-10304
▁npmflý	-10305
▁oqngmā	-10306
▁sonnen	-10307
▁totally	-10308
▁wussten	-10309
▁xvttufo	-10310
▁ywuuvgp	-10311
▁creative	-10312
▁tgcnkvçv	-10313
▁übrigens	-10314
▁ýcsjhfot	-10315
▁ādtkigpu	-10316
▁möglichen	-10317
▁nøhmjdifo	-10318
▁oúinkejgp	-10319
▁passierte	-10320
▁qbttjfsuf	-10321
▁rcuukgtvg	-10322
▁extraordinary	-10323
bslu	-10324
ucvà	-10325
▁dqv	-10326
▁ibc	-10327
▁tur	-10328
▁dorf	-10329
▁freu	-10330
▁laut	-10331
▁lpss	-10332
ferenz	-10333
xbttfs	-10334
▁effic	-10335
▁xgtow	-10336
▁gfsujh	-10337
▁african	-10338
▁bessere	-10339
▁cfttfsf	-10340
▁dguugtg	-10341
▁obisvoh	-10342
▁pcejjcn	-10343
▁überras	-10344
uejnkgágp	-10345
▁nachhalt	-10346
▁obdiibmu	-10347
▁entscheidungen	-10348
▁foutdifjevohfo	-10349
▁gpvuejgkfwpigp	-10350
lå	-10351
āej	-10352
▁28	-10353
crib	-10354
iboh	-10355
ickt	-10356
tqiå	-10357
ändi	-10358
▁lat	-10359
▁rap	-10360
cmvkx	-10361
ßvefo	-10362
▁arme	-10363
▁cbvn	-10364
▁ctog	-10365
▁fill	-10366
▁orte	-10367
ivohfo	-10368
weisen	-10369
▁deine	-10370
▁efjof	-10371
▁fgkpg	-10372
▁schau	-10373
▁sport	-10374
▁tagen	-10375
▁trees	-10376
▁ubhfo	-10377
▁vcigp	-10378
▁landes	-10379
▁physik	-10380
▁studie	-10381
▁tuvejf	-10382
▁uvwfkg	-10383
ßvefolfo	-10384
▁deliver	-10385
▁serious	-10386
▁arbeitet	-10387
▁bscfjufu	-10388
▁ctdgkvgv	-10389
▁hfxjoofo	-10390
▁igykppgp	-10391
▁extremely	-10392
▁definition	-10393
▁fstubvomjdi	-10394
▁entwicklungs	-10395
amin	-10396
qjfm	-10397
nqgfo	-10398
ugndg	-10399
▁hero	-10400
▁mbvg	-10401
▁rain	-10402
▁wait	-10403
▁wfse	-10404
▁gerät	-10405
▁ibvqu	-10406
▁meist	-10407
▁named	-10408
▁uvtqo	-10409
▁wfstu	-10410
▁doctor	-10411
▁return	-10412
▁suffer	-10413
▁poverty	-10414
qnqikuejg	-10415
▁bestimmten	-10416
▁cftujnnufo	-10417
▁dguvkoovgp	-10418
bul	-10419
akes	-10420
cfsf	-10421
lier	-10422
ngiv	-10423
▁cha	-10424
▁ten	-10425
qsftt	-10426
▁ifjm	-10427
▁imme	-10428
▁nerv	-10429
▁ofvo	-10430
mvohfo	-10431
nehmer	-10432
ourcen	-10433
▁1.000	-10434
▁denkt	-10435
▁efolu	-10436
▁fgpmv	-10437
▁karte	-10438
▁lbsuf	-10439
▁trick	-10440
▁fvspqb	-10441
▁gwtqrc	-10442
▁qiztjl	-10443
▁rjßukm	-10444
▁objects	-10445
▁continue	-10446
▁gewinnen	-10447
▁richtigen	-10448
▁sjdiujhfo	-10449
▁tkejvkigp	-10450
▁verlieren	-10451
▁wfsmjfsfo	-10452
▁xgtnkgtgp	-10453
▁nbuifnbujl	-10454
▁ocvjgocvkm	-10455
stet	-10456
tdis	-10457
umqr	-10458
recht	-10459
▁gift	-10460
▁jgkn	-10461
▁psuf	-10462
▁qtvg	-10463
▁winz	-10464
▁xjoß	-10465
▁ykpà	-10466
ativen	-10467
▁urban	-10468
▁author	-10469
▁fertig	-10470
▁hftfuß	-10471
▁oqfgtp	-10472
▁profit	-10473
▁tdijdl	-10474
▁transl	-10475
▁uejkem	-10476
tusvluvs	-10477
▁teacher	-10478
▁collabor	-10479
▁universität	-10480
aup	-10481
sbe	-10482
çuk	-10483
▁65	-10484
ades	-10485
hcjt	-10486
pers	-10487
uejç	-10488
▁fab	-10489
▁lcr	-10490
▁týe	-10491
teile	-10492
▁tjho	-10493
wasser	-10494
▁analy	-10495
▁druck	-10496
▁appear	-10497
▁ernähr	-10498
▁gebiet	-10499
▁hsfoßfo	-10500
▁itgpàgp	-10501
▁tuvejfo	-10502
▁uvwfkgp	-10503
▁watching	-10504
▁einzelnen	-10505
▁fjoßfmofo	-10506
▁gkpàgnpgp	-10507
▁verlassen	-10508
▁wfsmbttfo	-10509
▁xgtncuugp	-10510
▁eventually	-10511
▁mathematik	-10512
▁öffentlich	-10513
▁øggfoumjdi	-10514
dll	-10515
ocv	-10516
ller	-10517
såol	-10518
▁prä	-10519
rible	-10520
▁hkpi	-10521
assung	-10522
vtgvgp	-10523
▁influ	-10524
▁stamm	-10525
▁tubnn	-10526
ruption	-10527
▁bleibt	-10528
▁cmfjcu	-10529
▁dngkdv	-10530
▁gewöhn	-10531
▁igycnv	-10532
▁igyújp	-10533
▁imposs	-10534
▁jkoogn	-10535
▁remark	-10536
▁respon	-10537
▁threat	-10538
▁auswirk	-10539
▁bvtxjsl	-10540
▁cwuyktm	-10541
▁dadurch	-10542
▁ebevsdi	-10543
▁fcfwtej	-10544
▁grenzen	-10545
▁largest	-10546
▁rtqfwmv	-10547
▁schreck	-10548
▁studien	-10549
▁zumindest	-10550
▁ßvnjoeftu	-10551
▁àwokpfguv	-10552
aly	-10553
bio	-10554
ses	-10555
åsu	-10556
spou	-10557
▁jki	-10558
fkigp	-10559
▁cart	-10560
▁fühl	-10561
▁opse	-10562
▁paul	-10563
▁quad	-10564
▁activ	-10565
▁njuum	-10566
▁spect	-10567
▁gesetz	-10568
▁iqqing	-10569
▁pckflu	-10570
▁plants	-10571
▁außerdem	-10572
▁bvàfsefn	-10573
▁cftujnnu	-10574
▁cwágtfgo	-10575
▁dguvkoov	-10576
▁verbessern	-10577
▁wfscfttfso	-10578
▁xgtdguugtp	-10579
ery	-10580
▁mc	-10581
asen	-10582
▁ijh	-10583
▁tkg	-10584
psjfo	-10585
vdlfo	-10586
wuugp	-10587
▁bchf	-10588
▁movie	-10589
▁brains	-10590
▁cjpmph	-10591
▁großes	-10592
▁hspàft	-10593
▁itqágu	-10594
▁mboeft	-10595
▁sitzen	-10596
▁service	-10597
▁tgcmvkqp	-10598
▁somewhere	-10599
dimensional	-10600
▁bewusstsein	-10601
1,	-10602
kpc	-10603
ests	-10604
führ	-10605
satz	-10606
tend	-10607
vqqf	-10608
▁ßjw	-10609
ächen	-10610
▁grew	-10611
▁komp	-10612
▁tdin	-10613
▁gfvfs	-10614
▁hgwgt	-10615
▁usbjo	-10616
▁vtckp	-10617
tunately	-10618
▁private	-10619
▁somehow	-10620
▁diejenigen	-10621
▁ejfkfojhfo	-10622
▁fkglgpkigp	-10623
xjttfotdibgu	-10624
bit	-10625
fon	-10626
usf	-10627
▁mr	-10628
hvgp	-10629
johf	-10630
schu	-10631
▁efu	-10632
▁mgt	-10633
▁nci	-10634
▁zun	-10635
front	-10636
▁astr	-10637
▁gpvn	-10638
▁heil	-10639
▁svoe	-10640
▁uvtg	-10641
hkpfgv	-10642
▁dgjcw	-10643
▁feuer	-10644
▁magic	-10645
▁mctvg	-10646
▁shift	-10647
▁staat	-10648
▁cfibvq	-10649
▁darwin	-10650
▁higher	-10651
▁immedi	-10652
▁tdisfdl	-10653
▁uejtgem	-10654
▁supposed	-10655
▁buildings	-10656
▁versuchte	-10657
▁wfstvdiuf	-10658
▁xgtuwejvg	-10659
▁washington	-10660
vj	-10661
bod	-10662
col	-10663
gos	-10664
lpq	-10665
cvvg	-10666
xpio	-10667
▁dcv	-10668
ufjmf	-10669
▁clin	-10670
▁lehr	-10671
▁xfct	-10672
führen	-10673
▁talks	-10674
▁taten	-10675
▁ubufo	-10676
▁vcvgp	-10677
jlbujpo	-10678
▁behaup	-10679
▁camera	-10680
▁hpphmf	-10681
▁member	-10682
▁zugang	-10683
▁install	-10684
▁ktigpfy	-10685
▁results	-10686
▁usually	-10687
▁fsßfvhfo	-10688
▁gtàgwigp	-10689
▁jotujuvu	-10690
cmv	-10691
uqp	-10692
▁py	-10693
fgtv	-10694
tqsp	-10695
▁igm	-10696
▁vnt	-10697
▁xjm	-10698
oming	-10699
uejwn	-10700
▁safe	-10701
gewöhn	-10702
▁armut	-10703
▁genes	-10704
▁kbqbo	-10705
▁lcrcp	-10706
▁older	-10707
▁hfcjfu	-10708
▁igdkgv	-10709
▁nachbar	-10710
▁nahrung	-10711
▁erzeugen	-10712
▁phenomen	-10713
▁professor	-10714
▁veröffent	-10715
hng	-10716
▁jh	-10717
chhg	-10718
kuuv	-10719
mvtt	-10720
pond	-10721
qtdgp	-10722
tufso	-10723
uejkt	-10724
vttfo	-10725
äumen	-10726
åvnfo	-10727
▁haut	-10728
▁kern	-10729
▁push	-10730
▁ycpf	-10731
▁ygdu	-10732
hfoeft	-10733
tqiåsf	-10734
▁above	-10735
▁sahen	-10736
▁tbifo	-10737
▁ucjgp	-10738
kgtgpfg	-10739
▁contra	-10740
▁report	-10741
ological	-10742
sjdiuvoh	-10743
▁charles	-10744
▁erlaubt	-10745
▁fsmbvcu	-10746
▁gtncwdv	-10747
▁introdu	-10748
▁particip	-10749
▁products	-10750
▁essentially	-10751
▁qspevßjfsfo	-10752
▁rtqfwàkgtgp	-10753
erk	-10754
hgm	-10755
▁yā	-10756
btfo	-10757
āigp	-10758
▁mbh	-10759
▁wet	-10760
▁àkx	-10761
cient	-10762
çwogp	-10763
▁njtt	-10764
▁zufä	-10765
▁ßvgå	-10766
ission	-10767
▁franc	-10768
▁igycn	-10769
▁magaz	-10770
▁meant	-10771
erstoff	-10772
▁hunder	-10773
▁fouefdlfo	-10774
▁gpvfgemgp	-10775
▁individuals	-10776
▁produzieren	-10777
▁nachzudenken	-10778
▁obdißvefolfo	-10779
▁organization	-10780
▁pcejàwfgpmgp	-10781
emm	-10782
vtg	-10783
erei	-10784
lebr	-10785
wick	-10786
▁cbu	-10787
ielen	-10788
▁komm	-10789
endung	-10790
xfsgfo	-10791
▁cause	-10792
▁ejhju	-10793
▁fouxf	-10794
▁babies	-10795
▁igugvà	-10796
▁itāpfg	-10797
▁series	-10798
▁sfhjpo	-10799
▁tgikqp	-10800
▁emotion	-10801
▁konzept	-10802
▁theorie	-10803
▁uifpsjf	-10804
▁vjgqtkg	-10805
▁tausende	-10806
▁ubvtfoef	-10807
▁vcwugpfg	-10808
▁beispiele	-10809
▁cfjtqjfmf	-10810
▁dgkurkgng	-10811
▁nfejlbnfo	-10812
▁ogfkmcogp	-10813
▁represent	-10814
8,	-10815
ßj	-10816
kvw	-10817
lär	-10818
çto	-10819
rhgp	-10820
▁...	-10821
▁bib	-10822
▁hyp	-10823
atten	-10824
▁hfgs	-10825
▁page	-10826
▁rece	-10827
▁woig	-10828
cnvwpi	-10829
fußvoh	-10830
ncuugp	-10831
qitcrj	-10832
▁gradu	-10833
▁initi	-10834
▁npobu	-10835
▁xfdit	-10836
▁dijoft	-10837
▁ejkpgu	-10838
▁larger	-10839
tqsfdifo	-10840
▁biology	-10841
▁central	-10842
▁studies	-10843
▁original	-10844
▁impossible	-10845
▁nfotdiifju	-10846
▁ogpuejjgkv	-10847
▁electricity	-10848
kz	-10849
qvgp	-10850
▁cdy	-10851
▁vul	-10852
ilien	-10853
mmern	-10854
pscfo	-10855
▁2003	-10856
▁luck	-10857
▁minds	-10858
▁trade	-10859
▁epidem	-10860
▁sowohl	-10861
▁tpxpim	-10862
▁uqyqjn	-10863
▁aussieht	-10864
▁bvttjfiu	-10865
▁conflict	-10866
▁cwuukgjv	-10867
nner	-10868
oten	-10869
▁wör	-10870
qticp	-10871
▁atom	-10872
▁tqsf	-10873
▁urtg	-10874
pgjogt	-10875
vdiufo	-10876
▁igtçv	-10877
▁metaph	-10878
▁surger	-10879
▁allowed	-10880
▁gebracht	-10881
▁hfcsbdiu	-10882
▁igdtcejv	-10883
▁fwtejuejpkv	-10884
tß	-10885
kop	-10886
qrj	-10887
bmfs	-10888
fußf	-10889
▁ifj	-10890
▁múp	-10891
▁ran	-10892
▁tis	-10893
oogtp	-10894
øsufs	-10895
▁1990	-10896
▁goal	-10897
▁hgkp	-10898
ensive	-10899
gýisfo	-10900
▁adult	-10901
▁cdjçp	-10902
▁cpigh	-10903
▁sorts	-10904
▁zivil	-10905
ibility	-10906
▁bciåoh	-10907
▁bilden	-10908
▁cjmefo	-10909
▁dguejn	-10910
▁dknfgp	-10911
▁wechsel	-10912
▁entdecken	-10913
▁unmöglich	-10914
▁joopwbujpo	-10915
▁traditional	-10916
▁wirklichkeit	-10917
▁xjslmjdilfju	-10918
▁vergangenheit	-10919
fk	-10920
ih	-10921
xb	-10922
cvj	-10923
oej	-10924
úhh	-10925
cdgn	-10926
tusv	-10927
xjdl	-10928
▁kön	-10929
▁cmbv	-10930
▁cook	-10931
▁enjo	-10932
▁gewe	-10933
▁htgw	-10934
▁sohn	-10935
▁trag	-10936
▁ended	-10937
▁freed	-10938
▁gjtdi	-10939
dknfwpi	-10940
▁secret	-10941
▁england	-10942
▁francis	-10943
▁jshfoexp	-10944
▁ktigpfyq	-10945
▁geschehen	-10946
▁hftdififo	-10947
▁iguejgjgp	-10948
fi	-10949
gfm	-10950
▁wü	-10951
igte	-10952
qocv	-10953
weis	-10954
çpiv	-10955
▁lqd	-10956
dnkej	-10957
▁häuf	-10958
▁iåvg	-10959
▁para	-10960
▁ykpf	-10961
bujtdi	-10962
gendes	-10963
usfufo	-10964
▁fdiuf	-10965
▁gejvg	-10966
▁sleep	-10967
▁analys	-10968
▁intera	-10969
▁signal	-10970
▁taught	-10971
▁continu	-10972
▁discuss	-10973
▁yktmnkejmgkv	-10974
▁wfshbohfoifju	-10975
▁xgticpigpjgkv	-10976
500	-10977
vjg	-10978
▁çw	-10979
▁ban	-10980
▁era	-10981
▁fro	-10982
▁gzr	-10983
▁kla	-10984
▁kpc	-10985
▁tbo	-10986
▁äuß	-10987
▁åvà	-10988
▁1950	-10989
▁1960	-10990
▁fsiø	-10991
▁lsju	-10992
▁tboe	-10993
▁town	-10994
▁zeug	-10995
inkejg	-10996
▁ebwje	-10997
▁fcxkf	-10998
▁forms	-10999
▁fslbo	-11000
▁hbmby	-11001
▁icncz	-11002
▁orten	-11003
▁psufo	-11004
▁qtvgp	-11005
▁usbvn	-11006
▁erklär	-11007
▁fslmås	-11008
▁fsgbisfo	-11009
▁gthcjtgp	-11010
▁kpfwuvtkg	-11011
▁itwpfngigp	-11012
kvk	-11013
▁pm	-11014
ales	-11015
wort	-11016
itkhh	-11017
▁alte	-11018
▁mqod	-11019
▁role	-11020
▁stol	-11021
▁wife	-11022
▁wiki	-11023
fnkejg	-11024
wejvgp	-11025
▁bcfoe	-11026
▁hfsåu	-11027
▁hkuej	-11028
▁stars	-11029
▁synth	-11030
▁crisis	-11031
▁points	-11032
▁ufmfgp	-11033
zeichnet	-11034
▁leaders	-11035
▁tuåoejh	-11036
▁aufgrund	-11037
▁bvghsvoe	-11038
▁gekommen	-11039
▁hflpnnfo	-11040
▁igmqoogp	-11041
▁including	-11042
▁wfshmfjdi	-11043
▁xgtingkej	-11044
▁großartige	-11045
▁hspàbsujhf	-11046
▁krankheiten	-11047
▁lsbolifjufo	-11048
▁mtcpmjgkvgp	-11049
▁architecture	-11050
wd	-11051
vmf	-11052
àwp	-11053
▁jü	-11054
bcfm	-11055
kvcn	-11056
tuft	-11057
twem	-11058
öffn	-11059
øggo	-11060
▁chi	-11061
▁kür	-11062
▁lýs	-11063
▁māt	-11064
ahmen	-11065
eless	-11066
▁bmuf	-11067
▁site	-11068
▁tpio	-11069
▁tree	-11070
▁upon	-11071
▁uqjp	-11072
indung	-11073
▁fsxbs	-11074
hsfjgfo	-11075
▁beauty	-11076
▁erwähn	-11077
▁gjsnfo	-11078
▁gtyçjp	-11079
▁hktogp	-11080
▁models	-11081
▁thanks	-11082
▁schüler	-11083
▁tdiýmfs	-11084
▁uejāngt	-11085
uç	-11086
ael	-11087
ctk	-11088
▁lf	-11089
dium	-11090
hwpi	-11091
luss	-11092
ragt	-11093
▁dbs	-11094
▁lad	-11095
vygpf	-11096
▁hfsf	-11097
▁vofs	-11098
▁deter	-11099
▁ebvfs	-11100
▁fcjkp	-11101
▁truly	-11102
▁einges	-11103
▁firmen	-11104
▁hfifjn	-11105
▁àwicpi	-11106
▁ctdgkvu	-11107
▁lpoßfqu	-11108
▁spezies	-11109
▁theater	-11110
▁tqfßjft	-11111
▁urgàkgu	-11112
▁wpcdjçp	-11113
▁erfahren	-11114
▁gpuphsbg	-11115
▁personen	-11116
▁unabhäng	-11117
▁vobciåoh	-11118
▁conditions	-11119
▁communities	-11120
bil	-11121
inu	-11122
itú	-11123
ost	-11124
ßvo	-11125
àvg	-11126
publ	-11127
taus	-11128
xfjt	-11129
▁mqr	-11130
▁camp	-11131
▁octm	-11132
▁twpf	-11133
▁wohn	-11134
▁xgtà	-11135
▁ygkp	-11136
▁ßfvh	-11137
cuuwpi	-11138
▁dauer	-11139
▁ebijo	-11140
▁pqujn	-11141
▁kombin	-11142
▁konsum	-11143
▁lpncjo	-11144
▁mqodkp	-11145
▁policy	-11146
▁prison	-11147
▁therap	-11148
▁voller	-11149
▁wpmmfs	-11150
▁xqnngt	-11151
▁ßvhboh	-11152
▁gtkppgt	-11153
▁reading	-11154
▁wfstdix	-11155
▁ygejugn	-11156
▁cwhitwpf	-11157
▁rgtuqpgp	-11158
▁complicated	-11159
bgs	-11160
wür	-11161
▁gy	-11162
fahr	-11163
kict	-11164
ünft	-11165
ýogu	-11166
▁cfu	-11167
▁för	-11168
▁tzn	-11169
atory	-11170
uvoht	-11171
ütter	-11172
▁clim	-11173
▁cnvg	-11174
▁ofvs	-11175
▁tour	-11176
▁wpig	-11177
▁assum	-11178
▁crazy	-11179
▁shown	-11180
▁chines	-11181
▁führte	-11182
▁gýisuf	-11183
▁hājtvg	-11184
▁excited	-11185
▁tubujtu	-11186
▁uvcvkuv	-11187
▁entweder	-11188
▁favorite	-11189
▁fouxfefs	-11190
▁gpvygfgt	-11191
▁qfstpofo	-11192
▁sprachen	-11193
▁tpguxbsf	-11194
▁tqsbdifo	-11195
▁urtcejgp	-11196
ykpfkimgkv	-11197
▁arbeitete	-11198
▁bscfjufuf	-11199
▁ctdgkvgvg	-11200
▁nachricht	-11201
▁therefore	-11202
▁wfscjoefo	-11203
▁xgtdkpfgp	-11204
bdl	-11205
fre	-11206
ignp	-11207
▁cla	-11208
▁hút	-11209
▁loc	-11210
▁2006	-11211
▁jcnd	-11212
▁lwpi	-11213
altung	-11214
cuvtqr	-11215
▁cwágp	-11216
▁urgàk	-11217
▁killed	-11218
▁protot	-11219
ßfjdiofu	-11220
àgkejpgv	-11221
▁concern	-11222
▁express	-11223
▁finding	-11224
▁western	-11225
▁einstein	-11226
▁interpre	-11227
▁ifstufmmfo	-11228
▁jgtuvgnngp	-11229
▁perspective	-11230
ico	-11231
çvg	-11232
▁mg	-11233
ýdll	-11234
āemm	-11235
▁120	-11236
▁cmp	-11237
▁fgv	-11238
▁les	-11239
▁mix	-11240
opnfo	-11241
qthgp	-11242
usbvn	-11243
verse	-11244
▁erhö	-11245
▁gtjú	-11246
▁igyg	-11247
▁male	-11248
btuspq	-11249
fjtufs	-11250
▁außen	-11251
▁malar	-11252
▁nenne	-11253
▁ofoof	-11254
▁pgppg	-11255
▁unfor	-11256
▁bvttdi	-11257
▁convin	-11258
▁tqjfmu	-11259
▁xbsufo	-11260
▁yctvgp	-11261
▁written	-11262
▁fotograf	-11263
windigkeit	-11264
▁fantastic	-11265
▁obdisjdiu	-11266
▁pcejtkejv	-11267
▁herstellen	-11268
▁wpkxgtukvçv	-11269
▁entscheidung	-11270
cwn	-11271
igv	-11272
ogk	-11273
uvc	-11274
jsvs	-11275
qmbo	-11276
▁bru	-11277
▁tfs	-11278
igpkg	-11279
▁fine	-11280
▁lust	-11281
▁mamm	-11282
▁mgtp	-11283
▁mond	-11284
▁xjoe	-11285
▁brand	-11286
▁ermög	-11287
▁qsåtj	-11288
▁ukppg	-11289
▁constru	-11290
▁neighbor	-11291
xjoejhlfju	-11292
▁verbinden	-11293
▁foutdifjevoh	-11294
igr	-11295
āth	-11296
▁üb	-11297
qdgt	-11298
ochen	-11299
▁addr	-11300
▁cpvk	-11301
▁mnkp	-11302
▁tend	-11303
kgtvgt	-11304
vented	-11305
▁attra	-11306
▁rtçuk	-11307
▁sinne	-11308
▁tjoof	-11309
▁worte	-11310
▁xpsuf	-11311
▁yqtvg	-11312
▁explor	-11313
▁fascin	-11314
▁njmmjpo	-11315
▁oknnkqp	-11316
▁ständig	-11317
legenheit	-11318
antwortung	-11319
▁ejctcmvgt	-11320
▁dh	-11321
fojf	-11322
▁dcp	-11323
▁erd	-11324
▁tup	-11325
eller	-11326
jgtcr	-11327
ýttfm	-11328
▁hfxf	-11329
qogvgt	-11330
▁drugs	-11331
▁gtygk	-11332
▁aussch	-11333
▁cnvgtp	-11334
▁dgtājo	-11335
▁dritte	-11336
▁einzig	-11337
▁esjuuf	-11338
▁faster	-11339
▁fjoßjh	-11340
▁keiner	-11341
▁kohlen	-11342
▁lfjofs	-11343
▁lpimfo	-11344
▁mgkpgt	-11345
▁mqjngp	-11346
▁videos	-11347
▁uvçpfki	-11348
▁globalen	-11349
▁hmpcbmfo	-11350
▁inqdcngp	-11351
▁response	-11352
▁bakterien	-11353
▁cblufsjfo	-11354
ßjg	-11355
igtp	-11356
imin	-11357
itāp	-11358
ktwt	-11359
mann	-11360
▁fit	-11361
▁nut	-11362
▁pak	-11363
▁zit	-11364
impan	-11365
inken	-11366
ishing	-11367
▁alive	-11368
▁tumor	-11369
▁vtcwo	-11370
▁überw	-11371
▁abstra	-11372
▁hfcsbv	-11373
▁igdtcw	-11374
▁content	-11375
▁mqpàgrv	-11376
▁bacteria	-11377
▁iguejçhv	-11378
▁irgendwo	-11379
▁military	-11380
▁signific	-11381
▁standing	-11382
▁uqhvyctg	-11383
▁dcmvgtkgp	-11384
▁evsditdiojuu	-11385
hsø	-11386
juj	-11387
yle	-11388
äre	-11389
chem	-11390
▁lag	-11391
▁mph	-11392
▁upo	-11393
cjogp	-11394
itung	-11395
▁höch	-11396
▁ibvu	-11397
▁iødi	-11398
▁júej	-11399
▁wpgt	-11400
jfsufs	-11401
àkoogt	-11402
▁gewinn	-11403
▁notwen	-11404
▁opuxfo	-11405
orgtcvwt	-11406
▁himself	-11407
▁cfgjoefo	-11408
▁dghkpfgp	-11409
▁ugmwpfgp	-11410
▁treatment	-11411
▁cfusbdiufu	-11412
ibe	-11413
sbc	-11414
ette	-11415
juås	-11416
stes	-11417
▁nýt	-11418
▁qiå	-11419
▁whe	-11420
▁wün	-11421
▁yāp	-11422
wpmmf	-11423
▁mfis	-11424
▁oçej	-11425
▁phän	-11426
▁rjçp	-11427
▁àwhç	-11428
machen	-11429
▁citiz	-11430
▁ctowv	-11431
▁ebene	-11432
▁gross	-11433
mmvohfo	-11434
▁leader	-11435
▁ursprü	-11436
sprechen	-11437
▁berechn	-11438
▁pqvygpf	-11439
▁qspgftt	-11440
▁rtqhguu	-11441
▁wturtāp	-11442
▁befinden	-11443
▁sekunden	-11444
▁tflvoefo	-11445
▁vorstell	-11446
▁vstqsýoh	-11447
▁amerikanischen	-11448
▁bnfsjlbojtdifo	-11449
▁cogtkmcpkuejgp	-11450
ky	-11451
cdt	-11452
▁32	-11453
isms	-11454
kpfw	-11455
mfso	-11456
verst	-11457
volle	-11458
vqqfo	-11459
▁arzt	-11460
▁hnkg	-11461
nbdifo	-11462
▁fcfof	-11463
▁gdgpg	-11464
▁price	-11465
▁uvcoo	-11466
▁vielf	-11467
unehmen	-11468
▁networ	-11469
▁pieces	-11470
▁skills	-11471
▁michael	-11472
▁welcher	-11473
▁xfmdifs	-11474
▁ygnejgt	-11475
▁humanity	-11476
▁painting	-11477
yktvuejchv	-11478
▁betrachtet	-11479
▁dgvtcejvgv	-11480
ams	-11481
ftg	-11482
jsn	-11483
kur	-11484
sps	-11485
anke	-11486
cfsu	-11487
ften	-11488
lace	-11489
will	-11490
yctv	-11491
▁dkq	-11492
btdif	-11493
ctvgv	-11494
seite	-11495
xgtuv	-11496
▁1980	-11497
▁ökon	-11498
▁ølpo	-11499
▁úmqp	-11500
ements	-11501
ocejgp	-11502
ßbimfo	-11503
▁bunch	-11504
▁lower	-11505
▁wieso	-11506
▁xjftp	-11507
▁ykguq	-11508
haltung	-11509
▁celebr	-11510
▁urkgng	-11511
▁warten	-11512
▁ingenie	-11513
▁johfojf	-11514
▁kpigpkg	-11515
▁massive	-11516
▁materie	-11517
▁nbufsjf	-11518
▁schlimm	-11519
▁increasing	-11520
▁intelligent	-11521
cà	-11522
car	-11523
hme	-11524
rtç	-11525
abel	-11526
▁flü	-11527
▁spu	-11528
▁ups	-11529
sbufo	-11530
▁uner	-11531
▁respe	-11532
▁vqnng	-11533
▁waste	-11534
▁worse	-11535
▁intens	-11536
▁passen	-11537
izations	-11538
▁mention	-11539
▁wfsbouxps	-11540
▁throughout	-11541
▁wfstuåoeojt	-11542
crr	-11543
dro	-11544
▁km	-11545
mbvg	-11546
rene	-11547
schw	-11548
▁dwu	-11549
▁budg	-11550
▁jcwv	-11551
▁nfsl	-11552
▁pqtf	-11553
▁tief	-11554
▁bezug	-11555
▁bsnvu	-11556
▁ýcfsx	-11557
kvkqpgp	-11558
ätzlich	-11559
åußmjdi	-11560
▁igykpp	-11561
▁messen	-11562
▁runter	-11563
▁svoufs	-11564
▁twpvgt	-11565
▁cfsfdio	-11566
▁meeting	-11567
▁tguuqwtegp	-11568
▁verstanden	-11569
▁wfstuboefo	-11570
▁xgtuvcpfgp	-11571
wtp	-11572
åsf	-11573
dcnn	-11574
▁pet	-11575
▁zäh	-11576
attle	-11577
ittel	-11578
jfàfo	-11579
▁xýot	-11580
astrop	-11581
phsbqi	-11582
werfen	-11583
▁dahin	-11584
▁famous	-11585
▁ftkvvg	-11586
▁tkgukig	-11587
▁ucoognp	-11588
▁ressourcen	-11589
▁sfttpvsdfo	-11590
▁successful	-11591
▁ýcfssbtdifo	-11592
▁ādgttcuejgp	-11593
▁mqoowpkmcvkqp	-11594
bß	-11595
àç	-11596
cpn	-11597
ftq	-11598
jft	-11599
rep	-11600
ufj	-11601
gufo	-11602
igtg	-11603
ille	-11604
imal	-11605
▁yqn	-11606
board	-11607
rtqfw	-11608
▁bedr	-11609
▁cbcz	-11610
▁höhe	-11611
▁iøif	-11612
▁jújg	-11613
▁thom	-11614
inkejv	-11615
ughter	-11616
▁brust	-11617
▁hilft	-11618
▁igurt	-11619
▁ijmgu	-11620
▁jknhv	-11621
▁könig	-11622
▁simpl	-11623
▁genome	-11624
▁igdwtv	-11625
▁muslim	-11626
kogpukqp	-11627
▁qiåopnfo	-11628
▁industrial	-11629
▁xgtuvçpfpku	-11630
ya	-11631
zs	-11632
yāt	-11633
▁2,	-11634
bmft	-11635
etze	-11636
onic	-11637
pgkp	-11638
▁fkc	-11639
▁ujn	-11640
▁àkv	-11641
vtcwo	-11642
xfslf	-11643
▁diag	-11644
hmjdiu	-11645
uygkug	-11646
▁mqphn	-11647
▁çwágt	-11648
▁fcfotp	-11649
▁gdgpuq	-11650
▁myster	-11651
▁sequen	-11652
▁context	-11653
▁freedom	-11654
▁pseovoh	-11655
▁sammeln	-11656
▁tbnnfmo	-11657
▁tdimjnn	-11658
▁families	-11659
▁fouefdlu	-11660
▁gpvfgemv	-11661
▁entschieden	-11662
▁foutdijfefo	-11663
▁gpvuejkgfgp	-11664
ýoe	-11665
botq	-11666
cpmg	-11667
hang	-11668
ises	-11669
qfst	-11670
▁mel	-11671
▁ugz	-11672
▁1000	-11673
▁woàw	-11674
endent	-11675
pnfufs	-11676
▁hctdg	-11677
▁höher	-11678
▁konfl	-11679
▁lpogm	-11680
▁xftfo	-11681
▁bisher	-11682
▁cjtifs	-11683
▁dkujgt	-11684
▁fangen	-11685
▁gbohfo	-11686
▁geburt	-11687
▁hcpigp	-11688
▁meeres	-11689
▁satell	-11690
▁malaria	-11691
▁physics	-11692
▁solchen	-11693
▁strange	-11694
▁tpmdifo	-11695
▁uqnejgp	-11696
▁zustand	-11697
▁ßvtuboe	-11698
uejnquugp	-11699
▁straight	-11700
▁ygkvgtgp	-11701
▁ermöglicht	-11702
▁fsnøhmjdiu	-11703
▁gtoúinkejv	-11704
▁vojwfstjuåu	-11705
5,	-11706
rr	-11707
sue	-11708
vkh	-11709
ämp	-11710
öst	-11711
▁hq	-11712
dknf	-11713
pojf	-11714
▁imm	-11715
▁len	-11716
altet	-11717
jfhfm	-11718
light	-11719
uchte	-11720
uvgkp	-11721
ßvtdi	-11722
ängen	-11723
▁gøse	-11724
▁kept	-11725
▁mvtu	-11726
▁nwuv	-11727
▁farbe	-11728
▁gbscf	-11729
▁hyper	-11730
▁ofvsp	-11731
ilities	-11732
▁allows	-11733
▁associ	-11734
▁cfejoh	-11735
▁fallen	-11736
▁spiele	-11737
▁dasselbe	-11738
▁ebttfmcf	-11739
▁fcuugndg	-11740
▁cftujnnuf	-11741
▁dguvkoovg	-11742
▁amerikaner	-11743
▁bnfsjlbofs	-11744
▁cogtkmcpgt	-11745
duv	-11746
fel	-11747
rea	-11748
▁eh	-11749
auer	-11750
pcjm	-11751
▁191	-11752
▁cbs	-11753
▁gek	-11754
▁tgr	-11755
hnung	-11756
werke	-11757
▁abge	-11758
▁grav	-11759
▁lebt	-11760
▁mfcu	-11761
▁vgtt	-11762
▁àgwi	-11763
design	-11764
tufmmf	-11765
uvgjgp	-11766
▁bühne	-11767
▁cýiof	-11768
▁dājpg	-11769
▁fotos	-11770
▁gpupt	-11771
vgknwpi	-11772
▁beings	-11773
▁launch	-11774
▁nffsft	-11775
▁oggtgu	-11776
▁qdlgmv	-11777
kpiwpigp	-11778
▁clearly	-11779
▁details	-11780
▁neurons	-11781
▁riesige	-11782
▁sjftjhf	-11783
▁wfscsbv	-11784
▁xgtdtcw	-11785
▁decision	-11786
▁einander	-11787
▁fjoboefs	-11788
▁gkpcpfgt	-11789
▁igucovgp	-11790
▁bestimmte	-11791
▁hsvoemfhfo	-11792
▁surprising	-11793
▁gpvuejgkfwpi	-11794
ibu	-11795
ält	-11796
▁ck	-11797
▁hå	-11798
bolf	-11799
▁ubm	-11800
ießen	-11801
jgkvu	-11802
kiwpi	-11803
masch	-11804
▁dcdß	-11805
▁gere	-11806
▁ngdv	-11807
▁repl	-11808
▁dtwuv	-11809
▁hqvqu	-11810
▁rqnkà	-11811
▁subst	-11812
▁ebenso	-11813
▁foutuf	-11814
▁george	-11815
▁herzen	-11816
▁ifsßfo	-11817
▁jgtàgp	-11818
▁spielt	-11819
▁urkgnv	-11820
▁rctvpgt	-11821
▁smaller	-11822
▁tdinfsß	-11823
▁englisch	-11824
▁fohmjtdi	-11825
▁gesamten	-11826
▁gpinkuej	-11827
▁hftbnufo	-11828
▁patterns	-11829
▁president	-11830
▁vertrauen	-11831
▁grundlegen	-11832
▁architektur	-11833
▁ctejkvgmvwt	-11834
▁krankenhaus	-11835
▁lsbolfoibvt	-11836
▁environmental	-11837
hey	-11838
iøs	-11839
mmp	-11840
cugp	-11841
nein	-11842
ofjo	-11843
qpkg	-11844
uufs	-11845
vfso	-11846
äfte	-11847
▁fen	-11848
▁ibs	-11849
▁kol	-11850
▁oqd	-11851
▁sep	-11852
▁smo	-11853
itude	-11854
orben	-11855
▁bcßv	-11856
▁gfjo	-11857
▁lief	-11858
ängnis	-11859
▁cases	-11860
▁csvtu	-11861
▁oqvkx	-11862
▁qpmjß	-11863
▁qrvko	-11864
▁jcpfgn	-11865
▁nfttfo	-11866
▁oguugp	-11867
ingkejgp	-11868
▁earlier	-11869
▁genetic	-11870
▁qbsuofs	-11871
▁verantwortung	-11872
xýs	-11873
åuf	-11874
gejp	-11875
jhuf	-11876
bmufu	-11877
cnvgv	-11878
found	-11879
progra	-11880
though	-11881
zimmer	-11882
▁dgàwi	-11883
▁joofo	-11884
▁linie	-11885
▁mjojf	-11886
▁nkpkg	-11887
▁worry	-11888
▁bmufso	-11889
▁ijnnfm	-11890
▁record	-11891
▁tqjfmf	-11892
▁values	-11893
▁dritten	-11894
▁esjuufo	-11895
▁ftkvvgp	-11896
▁hfijsot	-11897
▁ordnung	-11898
▁plastic	-11899
▁bvàfshfx	-11900
▁flugzeug	-11901
▁machines	-11902
▁recognize	-11903
▁schönheit	-11904
arf	-11905
esf	-11906
ieb	-11907
tcf	-11908
úuv	-11909
cies	-11910
mode	-11911
ocpp	-11912
uvtg	-11913
zobn	-11914
ßpco	-11915
▁boe	-11916
▁vac	-11917
▁vcn	-11918
swgpà	-11919
ådifo	-11920
åvtdi	-11921
▁anti	-11922
▁lmjo	-11923
▁rule	-11924
▁vict	-11925
fjuvoh	-11926
▁kppgp	-11927
▁ojfes	-11928
▁pkgft	-11929
▁afford	-11930
▁collea	-11931
▁describ	-11932
▁erklärt	-11933
▁fslmåsu	-11934
▁greater	-11935
▁gtmnçtv	-11936
▁schwarz	-11937
▁familiar	-11938
▁antworten	-11939
▁bouxpsufo	-11940
▁cpvyqtvgp	-11941
▁großartig	-11942
▁hspàbsujh	-11943
▁wundersch	-11944
▁xvoefstdi	-11945
▁ywpfgtuej	-11946
ws	-11947
jçw	-11948
mng	-11949
rhn	-11950
stä	-11951
øtu	-11952
üss	-11953
āuu	-11954
pper	-11955
▁700	-11956
▁aid	-11957
▁erg	-11958
▁ivn	-11959
▁jul	-11960
riere	-11961
▁aust	-11962
▁ctàv	-11963
▁mtkv	-11964
▁qspu	-11965
▁uses	-11966
▁vtch	-11967
ierter	-11968
▁niedr	-11969
▁toile	-11970
▁tubbu	-11971
uvçpfki	-11972
▁choose	-11973
▁himmel	-11974
▁gefragt	-11975
▁handeln	-11976
▁iguejçh	-11977
▁jcpfgnp	-11978
▁seconds	-11979
▁twitter	-11980
▁uejogtà	-11981
▁although	-11982
▁differen	-11983
▁increase	-11984
▁americans	-11985
▁ergebnisse	-11986
▁fshfcojttf	-11987
▁gtigdpkuug	-11988
▁außergewöhn	-11989
▁cwágtigyújp	-11990
bvm	-11991
nam	-11992
uuv	-11993
▁3.	-11994
▁95	-11995
▁bj	-11996
▁pā	-11997
gbmu	-11998
größ	-11999
kvçt	-12000
scht	-12001
seit	-12002
twfs	-12003
▁cru	-12004
▁erh	-12005
▁rkn	-12006
cuejg	-12007
fußuf	-12008
çpfgp	-12009
▁bsßu	-12010
▁expe	-12011
▁klin	-12012
▁myth	-12013
uejkgf	-12014
åohojt	-12015
▁board	-12016
▁costs	-12017
▁employ	-12018
▁vorsch	-12019
▁frieden	-12020
▁gsjfefo	-12021
▁handelt	-12022
▁hfgsbhu	-12023
▁htkgfgp	-12024
▁iboefmu	-12025
▁ightciv	-12026
▁igjktpu	-12027
▁jcpfgnv	-12028
▁qtfpwpi	-12029
▁bestehen	-12030
▁cftufifo	-12031
▁dguvgjgp	-12032
▁violence	-12033
qnqikuejgp	-12034
▁itqáctvki	-12035
▁schlechte	-12036
licherweise	-12037
▁bsdijufluvs	-12038
▁untersuchen	-12039
▁voufstvdifo	-12040
▁wpvgtuwejgp	-12041
▁intelligence	-12042
fvn	-12043
cles	-12044
efuf	-12045
gkpg	-12046
pfen	-12047
spra	-12048
vykem	-12049
▁gblu	-12050
▁gras	-12051
▁gtgk	-12052
▁itcf	-12053
▁rncu	-12054
icians	-12055
sweise	-12056
▁gespr	-12057
▁ighçp	-12058
▁mächt	-12059
▁nådiu	-12060
▁schne	-12061
▁wpxgt	-12062
jfsfoef	-12063
▁actual	-12064
▁hkpigt	-12065
▁ovnnfs	-12066
▁ctdgkvg	-12067
▁healthy	-12068
▁befindet	-12069
▁cfgjoefu	-12070
▁dghkpfgv	-12071
▁allgemein	-12072
▁interesse	-12073
▁joufsfttf	-12074
▁kpvgtguug	-12075
▁listening	-12076
▁dgjcpfnwpi	-12077
cý	-12078
apt	-12079
cth	-12080
ibs	-12081
vcmv	-12082
▁tax	-12083
▁ßxf	-12084
ounds	-12085
ßjfsu	-12086
▁comb	-12087
▁crow	-12088
▁rise	-12089
▁shot	-12090
▁stim	-12091
▁tdiå	-12092
bmuvoh	-12093
▁brief	-12094
▁jçpfg	-12095
▁xkgnh	-12096
▁ereign	-12097
▁however	-12098
▁leisten	-12099
▁mfjtufo	-12100
▁ngkuvgp	-12101
▁verstand	-12102
▁wfstuboe	-12103
▁außerhalb	-12104
▁bvàfsibmc	-12105
▁cwágtjcnd	-12106
▁expensive	-12107
▁untersche	-12108
▁depression	-12109
▁wpvgtuejgk	-12110
▁kpuvkvwvkqp	-12111
▁qticpkucvkqp	-12112
mj	-12113
rj	-12114
dpn	-12115
wjf	-12116
iced	-12117
igug	-12118
viel	-12119
▁bcm	-12120
▁cpy	-12121
▁dog	-12122
▁fla	-12123
aging	-12124
iesen	-12125
▁cfhf	-12126
▁hole	-12127
umjdif	-12128
▁lbnqg	-12129
▁indian	-12130
▁address	-12131
▁fnpujpo	-12132
▁hsýoefo	-12133
▁iboefmo	-12134
▁itāpfgp	-12135
▁ivoefsu	-12136
▁waiting	-12137
▁herunter	-12138
▁jgtwpvgt	-12139
▁xgtuvcpf	-12140
▁september	-12141
▁production	-12142
▁verständnis	-12143
lex	-12144
pwp	-12145
erve	-12146
esth	-12147
nngt	-12148
▁cry	-12149
▁nüt	-12150
▁süd	-12151
▁àyg	-12152
ieben	-12153
jqngp	-12154
reten	-12155
▁ausz	-12156
▁dātq	-12157
▁fsof	-12158
▁glam	-12159
▁gtpg	-12160
▁hfof	-12161
▁hirn	-12162
▁hält	-12163
▁iåmu	-12164
▁jçnv	-12165
▁kpht	-12166
▁krit	-12167
▁qbsl	-12168
kturen	-12169
ßjnnfs	-12170
▁bedür	-12171
▁cfeýs	-12172
▁effiz	-12173
▁explo	-12174
▁hotel	-12175
▁iåoef	-12176
▁party	-12177
csfdifo	-12178
dtgejgp	-12179
entwick	-12180
isation	-12181
ständig	-12182
uejnwuu	-12183
▁artist	-12184
▁divers	-12185
▁hfcvsu	-12186
▁invent	-12187
▁leider	-12188
▁mfjefs	-12189
▁ngkfgt	-12190
ßvofinfo	-12191
àwpgjogp	-12192
▁ctvkmgn	-12193
▁existen	-12194
▁gründen	-12195
▁schmerz	-12196
▁wfsejfo	-12197
▁critical	-12198
▁fggjßjfo	-12199
▁ghhkàkgp	-12200
▁gmvhßfvh	-12201
▁ifsvoufs	-12202
▁ursprüng	-12203
▁zunächst	-12204
▁ßvoåditu	-12205
▁àwpçejuv	-12206
▁solutions	-12207
▁uejúpjgkv	-12208
que	-12209
vgf	-12210
ätz	-12211
çuv	-12212
ünd	-12213
▁dw	-12214
cogu	-12215
esse	-12216
gkgp	-12217
spre	-12218
vtkg	-12219
▁fat	-12220
ejnfo	-12221
holen	-12222
▁jump	-12223
▁kaum	-12224
▁lbvn	-12225
▁mcwo	-12226
▁nasa	-12227
▁qsjn	-12228
▁sche	-12229
gmvkxg	-12230
juufmo	-12231
▁bvàfo	-12232
▁drink	-12233
▁hörte	-12234
▁innen	-12235
▁iøsuf	-12236
▁jútvg	-12237
▁lines	-12238
▁qmbtu	-12239
▁vowfs	-12240
geführt	-12241
sfjdifo	-12242
▁cfhjoo	-12243
▁cfßbim	-12244
▁selben	-12245
▁tfmcfo	-12246
▁ugndgp	-12247
▁current	-12248
▁protect	-12249
▁wpsifst	-12250
▁anywhere	-12251
▁phänomen	-12252
▁rjçpqogp	-12253
▁teaching	-12254
▁behandlung	-12255
▁cfiboemvoh	-12256
▁mtcpmgpjcwu	-12257
9.	-12258
qy	-12259
sa	-12260
bui	-12261
dqq	-12262
▁så	-12263
▁bgh	-12264
▁clu	-12265
fgvgp	-12266
kpfgt	-12267
▁emer	-12268
▁enth	-12269
▁hart	-12270
▁hsbe	-12271
▁läch	-12272
▁mådi	-12273
▁nçej	-12274
▁traf	-12275
▁usbg	-12276
▁vert	-12277
cident	-12278
▁jgtcp	-12279
▁teles	-12280
▁uejgk	-12281
htkgfgp	-12282
reprene	-12283
▁bghibo	-12284
▁chijcp	-12285
▁retten	-12286
▁sfuufo	-12287
▁tgvvgp	-12288
▁weight	-12289
▁wörter	-12290
▁xøsufs	-12291
▁yútvgt	-12292
▁erzeugt	-12293
▁fgukipgt	-12294
▁invented	-12295
▁decisions	-12296
mäß	-12297
buch	-12298
coon	-12299
uvgu	-12300
vant	-12301
▁kir	-12302
▁vtw	-12303
▁åsß	-12304
boefo	-12305
▁cbmm	-12306
▁uvqn	-12307
ctures	-12308
▁encou	-12309
▁immun	-12310
▁rtqvg	-12311
▁rvbes	-12312
▁swcft	-12313
▁verme	-12314
▁abhäng	-12315
▁descri	-12316
▁mnkocy	-12317
▁nummer	-12318
▁pwoogt	-12319
▁random	-12320
▁zeigte	-12321
▁ßfjhuf	-12322
▁àgkivg	-12323
▁agricul	-12324
▁driving	-12325
▁ehrlich	-12326
▁methode	-12327
▁nfuipef	-12328
▁ogvjqfg	-12329
▁provide	-12330
▁surgery	-12331
▁pakistan	-12332
▁services	-12333
▁tdiøoifju	-12334
7,	-12335
jfà	-12336
trä	-12337
wtt	-12338
▁pf	-12339
cpfc	-12340
user	-12341
whgp	-12342
▁ext	-12343
▁uhr	-12344
▁wbs	-12345
gnngt	-12346
rtguu	-12347
stück	-12348
ugend	-12349
▁cwuy	-12350
▁gpse	-12351
▁ncwv	-12352
▁tanz	-12353
▁usbh	-12354
stelle	-12355
▁fcwgt	-12356
▁mcorh	-12357
▁spann	-12358
ibmuvoh	-12359
▁dgjcwr	-12360
▁rights	-12361
▁seines	-12362
▁tfjoft	-12363
▁ugkpgu	-12364
▁artikel	-12365
▁bsujlfm	-12366
▁bedeuten	-12367
▁freiheit	-12368
▁einkommen	-12369
▁fjolpnnfo	-12370
▁gkpmqoogp	-12371
▁klimawand	-12372
▁lmjnbxboe	-12373
▁wfslbvgfo	-12374
▁xgtmcwhgp	-12375
▁conversation	-12376
oçá	-12377
pqi	-12378
vso	-12379
▁oß	-12380
bnft	-12381
cpfu	-12382
plom	-12383
rncp	-12384
zahl	-12385
▁800	-12386
▁ngu	-12387
bvfso	-12388
mente	-12389
▁beit	-12390
▁chir	-12391
▁copy	-12392
▁dcwo	-12393
▁efol	-12394
▁fgpm	-12395
▁hfxå	-12396
▁kpio	-12397
▁lsfj	-12398
▁mfcf	-12399
▁ngdg	-12400
▁obnf	-12401
▁pcog	-12402
indust	-12403
▁ftwem	-12404
▁tisch	-12405
▁ujtdi	-12406
▁vkuej	-12407
▁patent	-12408
kgtgpfgp	-12409
▁balance	-12410
▁begeist	-12411
▁becoming	-12412
▁einfachen	-12413
▁fjogbdifo	-12414
▁gkphcejgp	-12415
▁interpret	-12416
▁verkaufen	-12417
▁conference	-12418
ims	-12419
▁iw	-12420
jcpi	-12421
jdlu	-12422
kemv	-12423
▁dür	-12424
▁qbm	-12425
bling	-12426
finfs	-12427
▁berg	-12428
▁incu	-12429
▁jack	-12430
▁lqjp	-12431
▁shap	-12432
gkvwpi	-12433
orgung	-12434
▁ifsbo	-12435
▁lsfjt	-12436
▁prior	-12437
▁range	-12438
▁akzept	-12439
▁blßfqu	-12440
▁cmàgrv	-12441
▁frustr	-12442
▁winter	-12443
▁anymore	-12444
▁nigeria	-12445
▁schafft	-12446
▁tdibggu	-12447
▁eftjhofs	-12448
▁gestellt	-12449
▁hftufmmu	-12450
▁iguvgnnv	-12451
▁dangerous	-12452
▁direction	-12453
▁getroffen	-12454
▁hfuspggfo	-12455
▁igvtqhhgp	-12456
▁geschaffen	-12457
▁hftdibggfo	-12458
▁iguejchhgp	-12459
▁remarkable	-12460
▁engineering	-12461
▁mnkocycpfgn	-12462
▁herausfinden	-12463
▁ifsbvtgjoefo	-12464
▁jgtcwuhkpfgp	-12465
▁landwirtschaft	-12466
▁mboexjsutdibgu	-12467
úug	-12468
cjme	-12469
cvdi	-12470
ikdv	-12471
▁eýs	-12472
▁lob	-12473
▁tpe	-12474
ergie	-12475
juboo	-12476
kvcpp	-12477
pedia	-12478
ygtmg	-12479
▁cold	-12480
▁gros	-12481
▁hair	-12482
▁npoe	-12483
▁owug	-12484
▁rctm	-12485
▁rtko	-12486
▁schm	-12487
▁vtci	-12488
▁cfßvh	-12489
▁final	-12490
▁floor	-12491
▁npujw	-12492
▁suche	-12493
▁tvdif	-12494
▁ultim	-12495
▁uwejg	-12496
▁xpijo	-12497
▁yqjkp	-12498
brechen	-12499
okvvgnp	-12500
qspcmfn	-12501
ttztufn	-12502
▁gjohfs	-12503
▁republ	-12504
▁schaut	-12505
hfcsbdiu	-12506
igdtcejv	-12507
▁fismjdi	-12508
▁gjtnkej	-12509
▁jwpfgtv	-12510
▁einzigen	-12511
▁fjoßjhfo	-12512
▁gkpàkigp	-12513
▁wunderbar	-12514
rä	-12515
lvm	-12516
osp	-12517
▁jwo	-12518
▁uqf	-12519
▁gall	-12520
▁hwpf	-12521
▁lpoh	-12522
dienen	-12523
rochen	-12524
spdifo	-12525
▁dance	-12526
▁store	-12527
▁urcpp	-12528
▁benutz	-12529
▁decade	-12530
▁kbisft	-12531
▁ojfefs	-12532
▁pkgfgt	-12533
▁slight	-12534
▁tdibvu	-12535
▁uejcwv	-12536
▁useful	-12537
▁walked	-12538
▁xgtjkp	-12539
▁uejyctà	-12540
dingungen	-12541
▁politics	-12542
▁schicken	-12543
▁tdijdlfo	-12544
▁uejkemgp	-12545
▁cputdibgu	-12546
▁wfsijoefs	-12547
▁xvoefscbs	-12548
▁ywpfgtdct	-12549
▁foundation	-12550
▁immediately	-12551
▁performance	-12552
▁auswirkungen	-12553
▁bvtxjslvohfo	-12554
▁cwuyktmwpigp	-12555
▁ngkfgpuejchv	-12556
▁voufstuýußfo	-12557
▁wpvgtuvāvàgp	-12558
vf	-12559
àā	-12560
ald	-12561
did	-12562
ober	-12563
vgpu	-12564
▁amp	-12565
▁bsh	-12566
▁hfl	-12567
▁que	-12568
▁tqp	-12569
▁veh	-12570
bewer	-12571
cfxfs	-12572
iling	-12573
jggfo	-12574
khhgp	-12575
kvvgn	-12576
mjdiu	-12577
poofo	-12578
▁1970	-12579
▁erne	-12580
gungen	-12581
▁indep	-12582
▁james	-12583
▁läuft	-12584
▁måvgu	-12585
▁nçwhv	-12586
▁tqboo	-12587
▁wesen	-12588
mitteln	-12589
▁bedroh	-12590
▁dibodf	-12591
▁diplom	-12592
▁ejcpeg	-12593
▁income	-12594
▁lcjtgu	-12595
▁photos	-12596
▁remind	-12597
▁robots	-12598
▁saving	-12599
▁erzählte	-12600
▁fsßåimuf	-12601
▁greatest	-12602
▁gtàçjnvg	-12603
▁following	-12604
▁überrasch	-12605
▁entreprene	-12606
▁unglaubliche	-12607
▁vohmbvcmjdif	-12608
▁wpincwdnkejg	-12609
va	-12610
▁lj	-12611
mend	-12612
qugp	-12613
vefs	-12614
wert	-12615
xfjm	-12616
▁jun	-12617
leist	-12618
▁dgcp	-12619
▁legs	-12620
▁task	-12621
▁enjoy	-12622
▁hände	-12623
▁løojh	-12624
▁whose	-12625
▁cfovuß	-12626
▁jahres	-12627
▁ocvgtkg	-12628
industrie	-12629
kpfwuvtkg	-12630
▁cjpmphjf	-12631
▁kollegen	-12632
▁lpmmfhfo	-12633
▁mqnngigp	-12634
▁ycejuvwo	-12635
▁operation	-12636
▁zeitpunkt	-12637
▁ßfjuqvolu	-12638
▁àgkvrwpmv	-12639
▁connection	-12640
▁fortschritt	-12641
--	-12642
ays	-12643
ton	-12644
umb	-12645
zwe	-12646
øtf	-12647
dass	-12648
ilfe	-12649
izes	-12650
ugnp	-12651
xjmm	-12652
ycpf	-12653
yknn	-12654
▁hey	-12655
▁jon	-12656
▁mur	-12657
▁tes	-12658
jknhg	-12659
uvgou	-12660
▁isol	-12661
▁uifs	-12662
▁vere	-12663
▁xpio	-12664
▁dgfāth	-12665
▁rwpmvg	-12666
▁sftvmu	-12667
▁status	-12668
▁tguwnv	-12669
▁thomas	-12670
▁erstens	-12671
▁fstufot	-12672
▁gehirns	-12673
▁gtuvgpu	-12674
▁dkqnqikg	-12675
nkejgtygkug	-12676
▁experiments	-12677
bsg	-12678
eth	-12679
fjg	-12680
▁0,	-12681
▁dü	-12682
▁nj	-12683
▁qf	-12684
berg	-12685
boeb	-12686
ofuf	-12687
vtfs	-12688
weil	-12689
weju	-12690
▁fāt	-12691
▁gfo	-12692
▁mft	-12693
entie	-12694
▁gebe	-12695
▁none	-12696
iwpigp	-12697
pwpigp	-12698
tqejgp	-12699
▁chair	-12700
▁kampf	-12701
▁stock	-12702
ßvhfifo	-12703
▁desert	-12704
▁itwpfu	-12705
▁nieder	-12706
▁austral	-12707
▁automat	-12708
entlichen	-12709
▁hnwiàgwi	-12710
▁obujpobm	-12711
▁temperatur	-12712
▁unterstützen	-12713
kar	-12714
vqu	-12715
iles	-12716
jfuf	-12717
ygkn	-12718
▁mqn	-12719
▁wis	-12720
uster	-12721
▁frem	-12722
▁fuel	-12723
▁gsfn	-12724
▁hfgå	-12725
quence	-12726
tragen	-12727
▁lpnqp	-12728
▁unver	-12729
▁weren	-12730
ierende	-12731
vluvsfo	-12732
▁flying	-12733
▁forget	-12734
▁fsfjho	-12735
▁klasse	-12736
▁lmbttf	-12737
▁mncuug	-12738
▁qvoluf	-12739
▁westen	-12740
▁worten	-12741
▁xpsufo	-12742
▁yqtvgp	-12743
▁harvard	-12744
▁biologie	-12745
▁erwarten	-12746
▁fsxbsufo	-12747
▁gtyctvgp	-12748
▁specific	-12749
▁creativity	-12750
▁instrument	-12751
▁organisation	-12752
pot	-12753
..."	-12754
cbmm	-12755
krrg	-12756
▁ßju	-12757
fmmfs	-12758
rvfoß	-12759
turen	-12760
▁adop	-12761
▁htgo	-12762
▁mont	-12763
sjfefo	-12764
stoffe	-12765
▁bvupn	-12766
▁forth	-12767
▁jtmbn	-12768
▁raise	-12769
kamente	-12770
arbeiter	-12771
ctdgkvgt	-12772
▁comfort	-12773
▁letztes	-12774
▁mfußuft	-12775
▁ngvàvgu	-12776
▁protein	-12777
▁survive	-12778
▁cultural	-12779
▁deswegen	-12780
▁eftxfhfo	-12781
▁fguygigp	-12782
▁tgnkikqp	-12783
bct	-12784
öse	-12785
jcpf	-12786
last	-12787
▁jan	-12788
acity	-12789
kpfgv	-12790
ngkuv	-12791
nnfso	-12792
▁2010	-12793
▁ibsu	-12794
▁ivoh	-12795
▁moon	-12796
▁oýuß	-12797
▁uvcd	-12798
▁cpuvg	-12799
▁erfor	-12800
▁ignor	-12801
▁types	-12802
▁verbr	-12803
▁ygtvg	-12804
gtygkug	-12805
ßvtbhfo	-12806
▁wfstps	-12807
joevtusjf	-12808
▁erfunden	-12809
▁fsgvoefo	-12810
▁gthwpfgp	-12811
▁ifvujhfo	-12812
▁jgwvkigp	-12813
▁dgjcpfgnp	-12814
▁gefängnis	-12815
▁wikipedia	-12816
db	-12817
fy	-12818
jmu	-12819
key	-12820
nåà	-12821
qsý	-12822
ray	-12823
spl	-12824
tgk	-12825
vtq	-12826
ýtu	-12827
▁qn	-12828
dcjp	-12829
çjtv	-12830
▁10,	-12831
▁cpr	-12832
▁cti	-12833
▁mas	-12834
▁rob	-12835
ipmfo	-12836
tkgtg	-12837
▁docu	-12838
▁grad	-12839
▁hqtu	-12840
▁nvmu	-12841
annien	-12842
ejnfot	-12843
laufen	-12844
schirm	-12845
▁bohfo	-12846
▁slide	-12847
àwucigp	-12848
▁commer	-12849
▁dijsvs	-12850
▁ejktwt	-12851
▁mobile	-12852
▁wpstdi	-12853
hfgvoefo	-12854
ighwpfgp	-12855
▁predict	-12856
▁vgnghqp	-12857
▁heutigen	-12858
▁htgkjgkv	-12859
▁temperature	-12860
▁institutions	-12861
▁pshbojtbujpo	-12862
4.	-12863
abl	-12864
ifu	-12865
ord	-12866
ums	-12867
time	-12868
▁anp	-12869
▁hgp	-12870
▁qip	-12871
▁tom	-12872
aries	-12873
endes	-12874
▁ausl	-12875
▁darf	-12876
▁fgwv	-12877
▁jctv	-12878
▁jene	-12879
▁kfof	-12880
▁lgpg	-12881
▁tubc	-12882
▁armen	-12883
▁osten	-12884
▁react	-12885
▁spekt	-12886
uefttfo	-12887
▁bodies	-12888
▁dramat	-12889
▁ibvqut	-12890
▁lbnfsb	-12891
▁punkte	-12892
bscfjufs	-12893
▁qfsgflu	-12894
▁enormous	-12895
▁erinnere	-12896
▁fsjoofsf	-12897
▁gtkppgtg	-12898
▁networks	-12899
▁marketing	-12900
▁voufstvdi	-12901
▁wpvgtuwej	-12902
▁angefangen	-12903
▁bohfgbohfo	-12904
▁cpighcpigp	-12905
▁erstaunlich	-12906
▁gtuvcwpnkej	-12907
▁materialien	-12908
▁nbufsjbmjfo	-12909
▁ocvgtkcnkgp	-12910
▁unfortunately	-12911
zm	-12912
bej	-12913
ela	-12914
ius	-12915
lpt	-12916
pmß	-12917
▁bt	-12918
▁ic	-12919
gues	-12920
tgej	-12921
änge	-12922
▁efm	-12923
▁efv	-12924
vgnng	-12925
▁aktu	-12926
▁bluv	-12927
▁hang	-12928
▁heat	-12929
▁kpug	-12930
▁leid	-12931
▁àwuç	-12932
▁abend	-12933
▁manip	-12934
▁stren	-12935
▁throw	-12936
schiede	-12937
▁cftdis	-12938
▁gthcjt	-12939
▁landsc	-12940
▁police	-12941
▁sodass	-12942
▁tpebtt	-12943
▁uqfcuu	-12944
juboojfo	-12945
kvcppkgp	-12946
▁globale	-12947
▁inqdcng	-12948
▁mehrere	-12949
▁nfisfsf	-12950
▁ogjtgtg	-12951
▁ebenfalls	-12952
▁fcfogbmmt	-12953
▁gdgphcnnu	-12954
▁stattdessen	-12955
▁tubuuefttfo	-12956
▁uvcvvfguugp	-12957
▁konzentrieren	-12958
▁lpoßfousjfsfo	-12959
▁mqpàgpvtkgtgp	-12960
za	-12961
vsß	-12962
ejhu	-12963
mark	-12964
▁dur	-12965
▁ips	-12966
▁kut	-12967
▁lpp	-12968
▁mju	-12969
▁org	-12970
▁oçt	-12971
▁ywp	-12972
anter	-12973
cwdgt	-12974
gmvgp	-12975
qmbuß	-12976
ritte	-12977
ugkvg	-12978
▁cmvw	-12979
▁gvoe	-12980
tdijfe	-12981
vkqpgp	-12982
▁apple	-12983
▁coast	-12984
▁hftqs	-12985
▁steve	-12986
▁bvtesvdl	-12987
▁californ	-12988
▁gsfjifju	-12989
▁ivoefsuf	-12990
▁practice	-12991
iguejkejvg	-12992
▁understood	-12993
beb	-12994
ogv	-12995
xgn	-12996
▁ln	-12997
ense	-12998
lück	-12999
ugtp	-13000
çigt	-13001
▁fgn	-13002
▁boys	-13003
▁fsxå	-13004
▁golf	-13005
▁ktcp	-13006
ufncfs	-13007
vgodgt	-13008
▁bsnfo	-13009
▁ctogp	-13010
▁funny	-13011
▁werte	-13012
▁xfsuf	-13013
cmjdifo	-13014
▁cjpwpi	-13015
▁forces	-13016
▁fsgbis	-13017
▁kamera	-13018
▁stress	-13019
▁doctors	-13020
▁hmpcbmf	-13021
▁trouble	-13022
▁various	-13023
▁willing	-13024
▁ausdruck	-13025
▁cwuftwem	-13026
▁hunderte	-13027
▁jwpfgtvg	-13028
▁lösungen	-13029
▁møtvohfo	-13030
▁núuwpigp	-13031
▁ofußxfsl	-13032
▁kilometer	-13033
▁öffentlichen	-13034
▁øggfoumjdifo	-13035
▁úhhgpvnkejgp	-13036
▁eigenschaften	-13037
▁fjhfotdibgufo	-13038
▁gkigpuejchvgp	-13039
vú	-13040
?",	-13041
kgvg	-13042
loss	-13043
qtig	-13044
sfdi	-13045
▁hpm	-13046
▁mär	-13047
▁rcn	-13048
▁tqv	-13049
äsent	-13050
▁auge	-13051
▁bvhf	-13052
▁cwig	-13053
▁hfif	-13054
▁jsbo	-13055
▁nfub	-13056
▁hsptt	-13057
▁kunco	-13058
▁10,000	-13059
▁stunde	-13060
▁tuvoef	-13061
▁uvwpfg	-13062
▁kulture	-13063
▁stimmen	-13064
▁tujnnfo	-13065
▁uvkoogp	-13066
▁ßvsýdll	-13067
▁àwtāemm	-13068
▁pgvàygtm	-13069
▁schützen	-13070
▁tdiýußfo	-13071
▁uejāvàgp	-13072
▁wfssýdlu	-13073
▁xgttāemv	-13074
▁behandeln	-13075
▁cfiboefmo	-13076
▁cfnfslfot	-13077
▁dgogtmgpu	-13078
▁alternative	-13079
jk	-13080
bie	-13081
cto	-13082
ahlt	-13083
brit	-13084
eras	-13085
pmph	-13086
tech	-13087
tube	-13088
▁van	-13089
dgygt	-13090
▁cust	-13091
▁dcnn	-13092
▁igjg	-13093
▁nbtt	-13094
hvohfo	-13095
qbttfo	-13096
▁jotus	-13097
▁kpuvt	-13098
▁neuer	-13099
▁print	-13100
▁accept	-13101
▁erfahr	-13102
▁gbmmfo	-13103
▁hcnngp	-13104
▁mfsouf	-13105
▁mostly	-13106
▁uqàkcn	-13107
▁bedürfn	-13108
▁cfeýsgo	-13109
▁lvmuvsf	-13110
▁xgtukqp	-13111
▁directly	-13112
▁mountain	-13113
cnkukgtwpi	-13114
▁restaurant	-13115
▁television	-13116
▁herzustellen	-13117
▁ifsßvtufmmfo	-13118
▁jgtàwuvgnngp	-13119
bnj	-13120
cyc	-13121
muf	-13122
qbh	-13123
qfo	-13124
sbl	-13125
▁85	-13126
bahn	-13127
hjcu	-13128
itor	-13129
opdi	-13130
▁fer	-13131
▁irr	-13132
▁ogt	-13133
▁rec	-13134
ijmgf	-13135
▁bush	-13136
▁erfü	-13137
▁fsgý	-13138
▁gthā	-13139
▁nfdi	-13140
▁tgur	-13141
▁ukip	-13142
igdcwv	-13143
▁anges	-13144
▁apply	-13145
▁emerg	-13146
▁genom	-13147
▁mobil	-13148
▁partn	-13149
fouxjdl	-13150
gesetzt	-13151
qfsbuvs	-13152
▁selten	-13153
▁tfmufo	-13154
▁ugnvgp	-13155
▁unique	-13156
▁zeiten	-13157
▁ßfjufo	-13158
▁àgkvgp	-13159
▁rechten	-13160
▁sfdiufo	-13161
▁tgejvgp	-13162
▁ußuvgog	-13163
▁pcvkqpcn	-13164
▁societies	-13165
4,	-13166
bü	-13167
gbis	-13168
onie	-13169
ucig	-13170
▁fac	-13171
▁gpl	-13172
▁vko	-13173
jtups	-13174
kuvqt	-13175
▁hous	-13176
▁ogtm	-13177
atives	-13178
qtiwpi	-13179
reifen	-13180
tfmcfo	-13181
▁cwvqt	-13182
▁email	-13183
▁fällt	-13184
▁gåmmu	-13185
▁hçnnv	-13186
barkeit	-13187
qticpku	-13188
▁double	-13189
▁forest	-13190
▁german	-13191
▁jcwrvu	-13192
▁shared	-13193
▁vorbei	-13194
▁wfsgýh	-13195
▁gedacht	-13196
▁hfebdiu	-13197
▁igfcejv	-13198
▁respect	-13199
▁systeme	-13200
▁tdixbsß	-13201
▁tztufnf	-13202
▁produkte	-13203
▁profound	-13204
▁qspevluf	-13205
▁reaktion	-13206
▁rtqfwmvg	-13207
▁francisco	-13208
▁iguejçhvu	-13209
▁beziehungen	-13210
▁cfßjfivohfo	-13211
▁dgàkgjwpigp	-13212
▁medikamente	-13213
▁nfejlbnfouf	-13214
▁ogfkmcogpvg	-13215
▁kbisivoefsut	-13216
▁consciousness	-13217
ech	-13218
ogn	-13219
vbs	-13220
cipq	-13221
npef	-13222
wann	-13223
xboo	-13224
haben	-13225
ibcfo	-13226
inter	-13227
nisse	-13228
ufufo	-13229
unsch	-13230
▁cfmf	-13231
▁dopp	-13232
▁fcth	-13233
▁ahead	-13234
▁birds	-13235
▁event	-13236
▁valle	-13237
antwort	-13238
bssjfsf	-13239
cnkuowu	-13240
pshbojt	-13241
▁commit	-13242
▁farben	-13243
▁fsßåim	-13244
▁gbscfo	-13245
▁hctdgp	-13246
▁nahmen	-13247
▁obinfo	-13248
▁pcjogp	-13249
▁robert	-13250
▁summer	-13251
▁tkukmq	-13252
▁kontakt	-13253
▁militär	-13254
▁jemandem	-13255
▁kfnboefn	-13256
▁lgocpfgo	-13257
▁negative	-13258
▁netzwerk	-13259
▁projekte	-13260
▁qspkfluf	-13261
▁rtqlgmvg	-13262
csjuboojfo	-13263
dtkvcppkgp	-13264
▁condition	-13265
▁regierungen	-13266
▁sfhjfsvohfo	-13267
▁tgikgtwpigp	-13268
▁jahrhunderts	-13269
▁lcjtjwpfgtvu	-13270
cfc	-13271
mvn	-13272
qgm	-13273
uif	-13274
dwej	-13275
nboo	-13276
tion	-13277
wart	-13278
▁cpf	-13279
▁enc	-13280
▁epl	-13281
▁fok	-13282
▁fqm	-13283
▁hqm	-13284
▁lāp	-13285
▁pig	-13286
jolfo	-13287
lfjut	-13288
▁wire	-13289
fjufso	-13290
▁below	-13291
▁loved	-13292
▁mfhfo	-13293
aterial	-13294
▁ahnung	-13295
▁biovoh	-13296
▁ganzes	-13297
▁hboßft	-13298
▁hsvoet	-13299
▁icpàgu	-13300
▁levels	-13301
▁uqoogt	-13302
▁evolved	-13303
▁xgthāid	-13304
▁àwuvcpf	-13305
▁speaking	-13306
▁zweitens	-13307
▁ßxfjufot	-13308
▁àygkvgpu	-13309
▁financial	-13310
▁hfgåohojt	-13311
▁wichtigste	-13312
▁xjdiujhtuf	-13313
▁ykejvkiuvg	-13314
hp	-13315
oop	-13316
qqn	-13317
jpgp	-13318
māph	-13319
oepo	-13320
āign	-13321
▁mbt	-13322
▁ros	-13323
▁sar	-13324
▁ven	-13325
arter	-13326
cnkuv	-13327
kpmgp	-13328
▁alex	-13329
▁kfgp	-13330
▁kýoh	-13331
▁ocuu	-13332
ejhvoh	-13333
itcoog	-13334
▁autor	-13335
▁bvups	-13336
▁guter	-13337
▁hvufs	-13338
▁insel	-13339
▁iwvgt	-13340
▁mjfcm	-13341
▁nkgdn	-13342
▁stern	-13343
▁tests	-13344
▁democr	-13345
▁destro	-13346
▁helped	-13347
▁sfdiuf	-13348
▁strugg	-13349
▁tgejvg	-13350
▁tdimvtt	-13351
▁tremend	-13352
▁gkpàkict	-13353
▁größeren	-13354
▁hsøàfsfo	-13355
▁itúágtgp	-13356
▁brilliant	-13357
▁california	-13358
maß	-13359
qgf	-13360
why	-13361
yth	-13362
ärm	-13363
bufh	-13364
fnjf	-13365
pcfs	-13366
uejy	-13367
vàgt	-13368
▁qjm	-13369
bnfou	-13370
bvfsu	-13371
cwgtv	-13372
right	-13373
▁gpst	-13374
▁intr	-13375
▁itch	-13376
▁jüng	-13377
▁nqpf	-13378
▁weap	-13379
▁ygig	-13380
▁aware	-13381
▁cdgpf	-13382
▁hydro	-13383
▁legen	-13384
▁liste	-13385
▁mjtuf	-13386
▁river	-13387
▁surve	-13388
esýdlfo	-13389
vention	-13390
▁frühen	-13391
▁gsýifo	-13392
▁htājgp	-13393
▁ngtpvg	-13394
▁uvtcvg	-13395
position	-13396
▁dgtgejp	-13397
▁purpose	-13398
▁übersch	-13399
▁geograph	-13400
▁sfmjhjpo	-13401
▁effective	-13402
▁einzigart	-13403
▁entstehen	-13404
▁fjoßjhbsu	-13405
▁foutufifo	-13406
▁gpvuvgjgp	-13407
▁studieren	-13408
▁tdimýttfm	-13409
▁tuvejfsfo	-13410
▁yktvuejchvu	-13411
▁wfsbouxpsuvoh	-13412
▁xgtcpvyqtvwpi	-13413
ufe	-13414
xkg	-13415
dert	-13416
jfmt	-13417
wvàv	-13418
▁ame	-13419
▁bnf	-13420
▁fku	-13421
▁fsm	-13422
maßen	-13423
orgen	-13424
▁mand	-13425
▁term	-13426
▁vcpà	-13427
ashion	-13428
tuåoef	-13429
▁adapt	-13430
▁ideal	-13431
▁klass	-13432
▁lmbtt	-13433
▁sympt	-13434
bouxpsu	-13435
jcnvwpi	-13436
qurjçtg	-13437
▁causes	-13438
▁freude	-13439
▁gsfvef	-13440
▁htgwfg	-13441
▁lernte	-13442
▁lpoujo	-13443
▁nbttfo	-13444
▁ocuugp	-13445
▁supply	-13446
▁extreme	-13447
▁produced	-13448
▁challenges	-13449
▁verbringen	-13450
▁wfscsjohfo	-13451
▁xgtdtkpigp	-13452
▁wichtigsten	-13453
▁xjdiujhtufo	-13454
▁ykejvkiuvgp	-13455
▁gpvykemnwpiun	-13456
abs	-13457
dgf	-13458
fej	-13459
xås	-13460
▁ts	-13461
aper	-13462
ikgt	-13463
jggf	-13464
qágp	-13465
thin	-13466
usjf	-13467
▁cdn	-13468
▁cve	-13469
▁fsi	-13470
▁pqt	-13471
water	-13472
▁aufz	-13473
▁epqq	-13474
▁gefä	-13475
▁gent	-13476
▁join	-13477
▁lmfj	-13478
▁mcwh	-13479
▁sftq	-13480
▁wege	-13481
▁wett	-13482
▁xfhf	-13483
▁catch	-13484
▁echte	-13485
▁komme	-13486
▁lpnnf	-13487
▁mncuu	-13488
▁mqoog	-13489
▁nkuvg	-13490
▁pgwgt	-13491
▁photo	-13492
▁sorry	-13493
▁hypoth	-13494
▁massen	-13495
▁wenige	-13496
▁xfojhf	-13497
▁ygpkig	-13498
uejncigp	-13499
▁bestand	-13500
▁cftuboe	-13501
▁dgitkhh	-13502
▁njmjuås	-13503
▁respekt	-13504
▁schrift	-13505
▁tdisjgu	-13506
▁uejnwuu	-13507
▁wfstjpo	-13508
diopmphjf	-13509
▁effektiv	-13510
▁possibly	-13511
▁werkzeuge	-13512
▁xfslßfvhf	-13513
▁ygtmàgwig	-13514
▁inspiration	-13515
tv	-13516
gjo	-13517
mgn	-13518
erin	-13519
look	-13520
läss	-13521
pshf	-13522
▁cpv	-13523
cules	-13524
fgnng	-13525
jcdgp	-13526
paign	-13527
▁ausw	-13528
▁drop	-13529
▁weib	-13530
▁àwig	-13531
▁àwuv	-13532
cvkqpu	-13533
ielten	-13534
▁ijoßv	-13535
▁laden	-13536
▁rechn	-13537
nøhmjdi	-13538
rtçugpv	-13539
▁career	-13540
▁toilet	-13541
▁xftufo	-13542
▁yguvgp	-13543
minister	-13544
▁account	-13545
▁bringing	-13546
▁feedback	-13547
▁gegangen	-13548
▁großbrit	-13549
▁hfhbohfo	-13550
▁igicpigp	-13551
▁biological	-13552
▁governments	-13553
▁veränderungen	-13554
▁wfsåoefsvohfo	-13555
▁xgtçpfgtwpigp	-13556
▁xgtúhhgpvnkej	-13557
kle	-13558
ubh	-13559
ukg	-13560
▁hi	-13561
▁ti	-13562
ikas	-13563
▁dol	-13564
frika	-13565
laden	-13566
orien	-13567
xåsut	-13568
▁glas	-13569
▁hing	-13570
▁jcnn	-13571
▁oqpf	-13572
bgsjlb	-13573
chtkmc	-13574
cwtkgt	-13575
▁5.000	-13576
▁jogsb	-13577
▁kreis	-13578
▁veran	-13579
▁wfsbo	-13580
hājtwpi	-13581
ptqiåsf	-13582
▁cooper	-13583
▁decide	-13584
▁effects	-13585
▁explore	-13586
▁popular	-13587
▁prevent	-13588
cuvtwmvwt	-13589
▁campaign	-13590
▁citizens	-13591
▁terrible	-13592
▁maschinen	-13593
▁verfügung	-13594
▁kreativität	-13595
▁kommunikation	-13596
3.	-13597
prü	-13598
chhv	-13599
eful	-13600
iete	-13601
tusf	-13602
▁bdi	-13603
▁roh	-13604
▁usw	-13605
hçnng	-13606
jgpso	-13607
khqtp	-13608
▁fyqm	-13609
▁gzrn	-13610
▁kauf	-13611
▁ucpf	-13612
▁wood	-13613
anning	-13614
jwjuåu	-13615
▁sfdio	-13616
▁zusch	-13617
ception	-13618
qsåtfou	-13619
▁gering	-13620
▁haupts	-13621
▁hfsjoh	-13622
▁laptop	-13623
▁ogejcp	-13624
▁rechte	-13625
▁romant	-13626
▁wealth	-13627
▁ancient	-13628
▁conserv	-13629
▁eigenes	-13630
▁erleben	-13631
▁fjhfoft	-13632
▁fsmfcfo	-13633
▁gkigpgu	-13634
▁gtngdgp	-13635
▁obvious	-13636
▁sharing	-13637
▁metaphor	-13638
▁folgendes	-13639
▁gpmhfoeft	-13640
▁hqnigpfgu	-13641
▁institute	-13642
▁wfsgýhvoh	-13643
▁xgthāiwpi	-13644
▁sicherlich	-13645
▁tjdifsmjdi	-13646
▁ukejgtnkej	-13647
mú	-13648
ino	-13649
ufa	-13650
åtu	-13651
▁55	-13652
atte	-13653
jlbt	-13654
okay	-13655
umen	-13656
vgit	-13657
wise	-13658
▁10-	-13659
▁mqo	-13660
▁ski	-13661
▁sla	-13662
arian	-13663
dingt	-13664
etzte	-13665
pttfo	-13666
sfdiu	-13667
sfjtf	-13668
▁biom	-13669
▁eqqn	-13670
▁flex	-13671
▁hört	-13672
▁iøsu	-13673
▁jútv	-13674
▁mpdi	-13675
▁nqej	-13676
▁stan	-13677
achten	-13678
pmphjf	-13679
qejvgt	-13680
rieden	-13681
▁könnt	-13682
▁ngigp	-13683
▁simul	-13684
zugehen	-13685
▁beeind	-13686
▁bought	-13687
▁compon	-13688
▁cwugkp	-13689
▁dgàcjn	-13690
▁flight	-13691
▁jugend	-13692
▁mcogtc	-13693
▁ýcfsmf	-13694
▁focused	-13695
▁fsßfvhu	-13696
▁gpfnkej	-13697
▁gtàgwiv	-13698
▁lopdifo	-13699
▁dibsblufs	-13700
▁jshfoefjo	-13701
▁ktigpfgkp	-13702
▁nbtdijofo	-13703
▁komplexität	-13704
▁sustainable	-13705
▁zusammenhang	-13706
▁großbritannien	-13707
▁hspàcsjuboojfo	-13708
▁itqádtkvcppkgp	-13709
mü	-13710
elf	-13711
jlu	-13712
qvjg	-13713
▁cej	-13714
ejoht	-13715
fgpsn	-13716
fkpiu	-13717
gaben	-13718
hbcfo	-13719
polit	-13720
▁aufw	-13721
▁dppm	-13722
▁fett	-13723
▁lbvg	-13724
▁note	-13725
jfmufo	-13726
kgnvgp	-13727
selben	-13728
uejkto	-13729
wpmmfo	-13730
xqnngp	-13731
▁brown	-13732
▁hfopn	-13733
▁match	-13734
▁typen	-13735
▁uzqfo	-13736
▁vßrgp	-13737
▁weiss	-13738
▁50.000	-13739
▁golden	-13740
▁honest	-13741
▁langen	-13742
▁mbohfo	-13743
▁ncpigp	-13744
▁qijmpt	-13745
▁rjknqu	-13746
▁studio	-13747
▁tdimbh	-13748
▁tdivuß	-13749
▁uejwvà	-13750
▁úhhpgp	-13751
▁größere	-13752
▁hsøàfsf	-13753
▁itúágtg	-13754
▁inspired	-13755
▁designers	-13756
▁entschied	-13757
▁uejnāuugn	-13758
▁complexity	-13759
▁profession	-13760
▁xgtjcnvgpu	-13761
▁bvtfjoboefs	-13762
▁cwugkpcpfgt	-13763
▁erfahrungen	-13764
▁fsgbisvohfo	-13765
▁gthcjtwpigp	-13766
▁bh	-13767
▁mw	-13768
▁mç	-13769
▁sø	-13770
aker	-13771
ires	-13772
sbfm	-13773
ährt	-13774
▁dcn	-13775
▁dwf	-13776
▁joy	-13777
▁wid	-13778
bvcfs	-13779
orted	-13780
▁bsnf	-13781
▁gorh	-13782
▁hsbg	-13783
▁sboe	-13784
▁cyber	-13785
▁dçwog	-13786
▁twice	-13787
▁xfjtt	-13788
▁ygkuu	-13789
btdijof	-13790
fstupgg	-13791
oúinkej	-13792
▁dunkel	-13793
▁empath	-13794
▁evolfm	-13795
▁fühlte	-13796
▁gýimuf	-13797
▁hājnvg	-13798
▁nvtfvn	-13799
▁schutz	-13800
▁tieren	-13801
▁tpnnfs	-13802
▁trifft	-13803
▁ujfsfo	-13804
▁usjggu	-13805
▁vkgtgp	-13806
▁vtkhhv	-13807
▁wjfsuf	-13808
▁øggofo	-13809
▁kapital	-13810
▁knochen	-13811
▁markets	-13812
▁qmbtujl	-13813
▁ßjwjmjt	-13814
▁àkxknku	-13815
▁diseases	-13816
▁instance	-13817
▁sfblujpo	-13818
geschichte	-13819
▁botschaft	-13820
▁foutdijfe	-13821
▁gpvuejkgf	-13822
▁scientist	-13823
:"	-13824
dz	-13825
det	-13826
hip	-13827
ikt	-13828
iqt	-13829
nkg	-13830
olo	-13831
angt	-13832
kmcu	-13833
rect	-13834
▁bac	-13835
▁dgv	-13836
▁rqr	-13837
▁tib	-13838
ocuej	-13839
örung	-13840
▁htāj	-13841
imeter	-13842
▁bäume	-13843
▁cpigd	-13844
▁cåvnf	-13845
▁wfscm	-13846
▁budget	-13847
▁pgtxgp	-13848
▁qpufou	-13849
▁öffnen	-13850
▁dguvcpf	-13851
▁gfotufs	-13852
▁hgpuvgt	-13853
▁perfekt	-13854
ßvcsjohfo	-13855
▁begonnen	-13856
▁cfhpoofo	-13857
▁dgiqppgp	-13858
▁ocuejkpgp	-13859
▁experimente	-13860
▁fyqfsjnfouf	-13861
▁lpnqmfyjuåu	-13862
▁lsfbujwjuåu	-13863
▁mqorngzkvçv	-13864
▁mtgcvkxkvçv	-13865
tc	-13866
åo	-13867
200	-13868
cpg	-13869
ejl	-13870
gsf	-13871
hāt	-13872
ios	-13873
ngtp	-13874
qspk	-13875
sfäh	-13876
uvci	-13877
āuug	-13878
psgfo	-13879
warum	-13880
xbsvn	-13881
yctwo	-13882
øsvoh	-13883
▁2009	-13884
▁abzu	-13885
▁fqrr	-13886
foovoh	-13887
gppwpi	-13888
▁tpxjf	-13889
▁uqykg	-13890
▁active	-13891
▁coffee	-13892
▁gtàçjn	-13893
▁usbotq	-13894
▁definit	-13895
▁fqtvjkp	-13896
▁kbisßfi	-13897
▁youtube	-13898
▁charakter	-13899
▁irgendein	-13900
▁molecules	-13901
▁communication	-13902
8.	-13903
rc	-13904
āuv	-13905
anne	-13906
esis	-13907
kejg	-13908
wgtp	-13909
▁htw	-13910
▁qjo	-13911
ships	-13912
▁alph	-13913
▁beat	-13914
▁cfgs	-13915
▁hmbt	-13916
▁laws	-13917
cjfsfo	-13918
ennung	-13919
flusst	-13920
hfcbvu	-13921
utlich	-13922
▁aster	-13923
▁gpqto	-13924
▁pshbo	-13925
▁seien	-13926
▁shock	-13927
▁teams	-13928
▁tfjfo	-13929
▁ugkgp	-13930
▁determ	-13931
▁manufa	-13932
▁medium	-13933
▁mpoepo	-13934
▁nqpfqp	-13935
▁reform	-13936
▁remain	-13937
▁valley	-13938
▁vulner	-13939
▁yellow	-13940
▁endlich	-13941
▁epsuijo	-13942
▁fenster	-13943
▁foemjdi	-13944
▁privile	-13945
▁respond	-13946
▁fgwvnkej	-13947
▁leistung	-13948
▁mfjtuvoh	-13949
▁beeinflus	-13950
▁mcvcuvtqr	-13951
▁wfsibmufot	-13952
dk	-13953
fa	-13954
xo	-13955
fit	-13956
pft	-13957
rom	-13958
tjf	-13959
xis	-13960
iftf	-13961
▁lfo	-13962
▁ofh	-13963
▁pgk	-13964
▁tbm	-13965
▁tip	-13966
▁zuh	-13967
vkigu	-13968
▁bupn	-13969
▁mbvu	-13970
▁nýmm	-13971
▁summ	-13972
▁verr	-13973
▁desto	-13974
▁eftup	-13975
▁fguvq	-13976
▁frame	-13977
▁gmvtt	-13978
▁moder	-13979
▁rgtur	-13980
▁smell	-13981
▁traff	-13982
vvdgygt	-13983
çpfnkej	-13984
▁closer	-13985
▁hunger	-13986
▁iåvgjh	-13987
▁kutcgn	-13988
▁oxygen	-13989
▁played	-13990
▁spitze	-13991
▁stabil	-13992
▁tqjußf	-13993
▁urkvàg	-13994
fuucfxfs	-13995
verständ	-13996
▁artists	-13997
▁dorthin	-13998
▁geschah	-13999
▁hftdibi	-14000
▁iguejcj	-14001
▁mpqejgp	-14002
▁cfbouxps	-14003
▁spending	-14004
▁lbubtuspq	-14005
▁ßvtbnnfoiboh	-14006
acy	-14007
ags	-14008
ahn	-14009
gin	-14010
tes	-14011
zed	-14012
ancy	-14013
cpiv	-14014
ctvg	-14015
jgug	-14016
jqqf	-14017
▁saf	-14018
cuvgt	-14019
gency	-14020
nkejv	-14021
ossen	-14022
útwpi	-14023
▁bele	-14024
▁dgng	-14025
▁jgtt	-14026
▁vgor	-14027
ession	-14028
▁broad	-14029
▁ejtku	-14030
▁horiz	-14031
▁wohin	-14032
▁20.000	-14033
▁analog	-14034
▁atlant	-14035
▁breast	-14036
▁distri	-14037
▁iguejn	-14038
▁joufhs	-14039
▁kpvgit	-14040
▁memory	-14041
▁resist	-14042
▁sommer	-14043
▁devices	-14044
▁gefühle	-14045
▁hfgýimf	-14046
▁ighājng	-14047
▁tochter	-14048
▁updiufs	-14049
▁vqejvgt	-14050
▁brauchte	-14051
▁csbvdiuf	-14052
▁dtcwejvg	-14053
▁fmfluspo	-14054
▁gngmvtqp	-14055
▁qfstqflu	-14056
▁einfacher	-14057
▁existiert	-14058
▁fjogbdifs	-14059
▁fyjtujfsu	-14060
▁gkphcejgt	-14061
▁gzkuvkgtv	-14062
▁repräsent	-14063
▁verantwort	-14064
▁infrastructure	-14065
yc	-14066
zn	-14067
spu	-14068
çuu	-14069
▁fā	-14070
bohu	-14071
cpfg	-14072
fgpm	-14073
hfiu	-14074
hguv	-14075
tubh	-14076
wenn	-14077
xfoo	-14078
ygpp	-14079
▁cbm	-14080
▁daß	-14081
▁ebà	-14082
▁ejn	-14083
▁fcá	-14084
aling	-14085
bmjtu	-14086
point	-14087
wärts	-14088
▁desp	-14089
▁ebsg	-14090
▁held	-14091
▁lack	-14092
▁lfso	-14093
▁nftt	-14094
▁ritu	-14095
▁sjdi	-14096
▁tkej	-14097
▁ygkd	-14098
blemen	-14099
ejfsfo	-14100
umjdiu	-14101
vnkejv	-14102
▁fühle	-14103
▁gýimf	-14104
▁hājng	-14105
▁offic	-14106
▁polio	-14107
▁ptufo	-14108
▁quvgp	-14109
▁astero	-14110
▁custom	-14111
▁erstes	-14112
▁fstuft	-14113
▁fällen	-14114
▁garden	-14115
▁grunds	-14116
▁gtuvgu	-14117
▁gåmmfo	-14118
▁häufig	-14119
▁hçnngp	-14120
▁waffen	-14121
▁wählen	-14122
▁xbggfo	-14123
▁xåimfo	-14124
▁ychhgp	-14125
▁yçjngp	-14126
▁foumboh	-14127
▁mqpvcmv	-14128
▁nations	-14129
▁telefon	-14130
▁capacity	-14131
▁elektron	-14132
▁pressure	-14133
▁beeinflusst	-14134
▁cffjogmvttu	-14135
▁dggkphnwuuv	-14136
▁àwucoogpjcpi	-14137
7.	-14138
àß	-14139
fuf	-14140
sst	-14141
▁jw	-14142
bing	-14143
ctej	-14144
ench	-14145
fsjo	-14146
hung	-14147
outh	-14148
▁gig	-14149
▁sir	-14150
▁ucn	-14151
csvdi	-14152
jttfs	-14153
markt	-14154
tgejv	-14155
xfdit	-14156
▁denk	-14157
▁müll	-14158
schutz	-14159
uvqhhg	-14160
vguvgp	-14161
▁degre	-14162
▁ofvfs	-14163
▁tolle	-14164
▁upmmf	-14165
llywood	-14166
▁jçwhki	-14167
▁nerven	-14168
▁verfüg	-14169
▁wpsbvt	-14170
▁ycpfgn	-14171
▁dgigkuv	-14172
▁konstru	-14173
▁mqpuvtw	-14174
▁vorhers	-14175
▁zentrum	-14176
▁ßfousvn	-14177
▁dggkpftw	-14178
▁riesigen	-14179
▁rqukvkqp	-14180
▁sjftjhfo	-14181
▁tkgukigp	-14182
▁schlüssel	-14183
▁atmosphere	-14184
▁verursacht	-14185
▁wfsbouxpsu	-14186
▁wfsvstbdiu	-14187
▁xgtwtucejv	-14188
▁joufsfttboufs	-14189
▁kphtcuvtwmvwt	-14190
▁kpvgtguucpvgt	-14191
80	-14192
fz	-14193
mvh	-14194
pou	-14195
rad	-14196
ubv	-14197
wfm	-14198
bewe	-14199
cell	-14200
digt	-14201
hjfs	-14202
inct	-14203
term	-14204
üsse	-14205
▁bos	-14206
▁ipn	-14207
▁obt	-14208
▁ofu	-14209
▁vwo	-14210
boouf	-14211
ogvgt	-14212
▁2050	-14213
▁fdiu	-14214
▁gejv	-14215
▁harm	-14216
▁mart	-14217
▁plus	-14218
▁qfsg	-14219
▁sick	-14220
▁trip	-14221
illion	-14222
lieben	-14223
treten	-14224
▁dokum	-14225
▁fluss	-14226
▁fsxåi	-14227
▁fühlt	-14228
▁gýimu	-14229
▁hnwuu	-14230
▁hājnv	-14231
▁somit	-14232
▁tgejp	-14233
▁titel	-14234
▁tpnju	-14235
▁uqokv	-14236
▁beteil	-14237
▁cftvdi	-14238
▁cfufjm	-14239
▁dguwej	-14240
▁dgvgkn	-14241
▁eating	-14242
▁kostet	-14243
▁lptufu	-14244
▁mquvgv	-14245
▁norden	-14246
▁decades	-14247
▁entlang	-14248
▁gpvncpi	-14249
▁igjgkop	-14250
▁lpnqmjß	-14251
▁mqornkà	-14252
▁oknkvçt	-14253
▁tgurgmv	-14254
▁ucwgtuv	-14255
▁workers	-14256
▁erlauben	-14257
▁fsmbvcfo	-14258
▁gtncwdgp	-14259
▁qptjujpo	-14260
▁slightly	-14261
▁fernsehen	-14262
▁gfsotfifo	-14263
▁hgtpugjgp	-14264
▁ighçpipku	-14265
▁psycholog	-14266
▁published	-14267
fq	-14268
tä	-14269
dnā	-14270
gev	-14271
iop	-14272
nbà	-14273
ocá	-14274
quß	-14275
uls	-14276
ühr	-14277
stag	-14278
▁bci	-14279
▁jqo	-14280
crrgp	-14281
▁anth	-14282
▁dnqá	-14283
▁loch	-14284
▁paid	-14285
▁span	-14286
mvqtgp	-14287
vcwugp	-14288
▁appar	-14289
▁digit	-14290
▁disjt	-14291
▁gtúhh	-14292
▁legal	-14293
▁nehme	-14294
▁ofinf	-14295
▁pgjog	-14296
▁sbejp	-14297
▁zelle	-14298
▁àgnng	-14299
▁academ	-14300
▁bitten	-14301
▁lights	-14302
▁master	-14303
▁rücken	-14304
▁sýdlfo	-14305
▁tāemgp	-14306
▁degrees	-14307
▁lpoublu	-14308
▁sftqflu	-14309
▁verhält	-14310
▁wfsiåmu	-14311
▁xgtjçnv	-14312
▁xqtuejn	-14313
▁freunden	-14314
▁gsfvoefo	-14315
▁htgwpfgp	-14316
▁mqphgtgpà	-14317
▁gelegenheit	-14318
▁gesundheits	-14319
▁verbindungen	-14320
▁wfscjoevohfo	-14321
▁xgtdkpfwpigp	-14322
6,	-14323
nc	-14324
lmb	-14325
qpi	-14326
sie	-14327
irne	-14328
▁ejg	-14329
▁kph	-14330
▁nfy	-14331
▁ogz	-14332
▁stä	-14333
▁ycn	-14334
cript	-14335
efufo	-14336
mtgdu	-14337
▁koll	-14338
▁lpmm	-14339
▁mqnn	-14340
▁race	-14341
▁subt	-14342
▁urgm	-14343
▁wouv	-14344
stände	-14345
▁hielt	-14346
▁kennt	-14347
▁lfoou	-14348
▁mgppv	-14349
▁ßfmmf	-14350
▁ßvtdi	-14351
ibution	-14352
vàwpigp	-14353
▁bridge	-14354
▁eröffn	-14355
▁fsøggo	-14356
▁fwpmgn	-14357
▁gentle	-14358
▁gotten	-14359
▁pollen	-14360
▁cfhfjtu	-14361
▁depress	-14362
▁einsatz	-14363
▁fjotbuß	-14364
▁gkpucvà	-14365
▁hearing	-14366
▁dgcpvyqt	-14367
▁erinnert	-14368
▁fsjoofsu	-14369
▁gtkppgtv	-14370
▁ljmpnfufs	-14371
▁mknqogvgt	-14372
▁weiterhin	-14373
▁xfjufsijo	-14374
▁ygkvgtjkp	-14375
▁produziert	-14376
▁qspevßjfsu	-14377
▁rtqfwàkgtv	-14378
▁kontrollieren	-14379
▁lpouspmmjfsfo	-14380
▁geschwindigkeit	-14381
▁hftdixjoejhlfju	-14382
▁iguejykpfkimgkv	-14383
aps	-14384
blü	-14385
edy	-14386
frv	-14387
jtg	-14388
nfu	-14389
rtā	-14390
unt	-14391
ypt	-14392
▁33	-14393
bank	-14394
bsdi	-14395
bvsb	-14396
cked	-14397
gpfg	-14398
igjv	-14399
sbuf	-14400
çpig	-14401
üben	-14402
ýcfo	-14403
ādgp	-14404
▁sfg	-14405
achte	-14406
fjujh	-14407
vguvg	-14408
▁cfmp	-14409
▁hgvv	-14410
▁prec	-14411
efully	-14412
kament	-14413
▁todes	-14414
▁upeft	-14415
▁wjsvt	-14416
▁worst	-14417
▁ärzte	-14418
▁åsßuf	-14419
▁çtàvg	-14420
▁applic	-14421
▁demand	-14422
▁explos	-14423
▁gather	-14424
▁schöne	-14425
▁tdiøof	-14426
▁tissue	-14427
▁uejúpg	-14428
▁collect	-14429
▁spreche	-14430
▁tqsfdif	-14431
▁urtgejg	-14432
▁astronom	-14433
▁cftdisfj	-14434
▁daughter	-14435
▁differences	-14436
▁hfmfhfoifju	-14437
▁igngigpjgkv	-14438
▁intelligenz	-14439
▁unterschiede	-14440
▁voufstdijfef	-14441
▁wpvgtuejkgfg	-14442
▁mqpvtqnnkgtgp	-14443
5.	-14444
cmg	-14445
fjc	-14446
hib	-14447
ros	-14448
ury	-14449
uvw	-14450
bmmf	-14451
mptt	-14452
▁asp	-14453
▁ält	-14454
dtwej	-14455
eding	-14456
eline	-14457
icket	-14458
▁cboe	-14459
▁fell	-14460
▁seas	-14461
dieren	-14462
▁bread	-14463
▁itquu	-14464
▁leads	-14465
▁octmg	-14466
▁quant	-14467
▁stolz	-14468
▁tqocp	-14469
▁wirst	-14470
▁xjstu	-14471
▁yktuv	-14472
uejcwgp	-14473
▁begegn	-14474
▁ofswfo	-14475
▁tgkejv	-14476
gefunden	-14477
okpkuvgt	-14478
▁illustr	-14479
▁lmbttfo	-14480
▁mncuugp	-14481
▁plastik	-14482
▁àgpvtwo	-14483
▁beantwor	-14484
▁erforsch	-14485
▁modernen	-14486
▁neuronen	-14487
▁npefsofo	-14488
▁ofvspofo	-14489
▁oqfgtpgp	-14490
▁geschafft	-14491
▁hftdibggu	-14492
▁iguejchhv	-14493
▁lpogfsfoß	-14494
▁sfqsåtfou	-14495
▁untersuch	-14496
▁überzeugt	-14497
▁allerdings	-14498
▁bmmfsejoht	-14499
▁cnngtfkpiu	-14500
▁rtqfwmvkqp	-14501
▁chijcpkuvcp	-14502
▁ermöglichen	-14503
▁gpsutdisjuu	-14504
▁gtoúinkejgp	-14505
▁joufmmjhfoß	-14506
bob	-14507
pfe	-14508
rik	-14509
tgv	-14510
▁ux	-14511
▁uç	-14512
dete	-14513
uejv	-14514
vycu	-14515
ware	-14516
▁ast	-14517
▁ikn	-14518
yçtvu	-14519
▁ließ	-14520
▁mjfà	-14521
▁nkgá	-14522
▁puzz	-14523
▁qmbu	-14524
▁scha	-14525
▁tuvg	-14526
▁xfjo	-14527
alität	-14528
vollen	-14529
åisvoh	-14530
▁emiss	-14531
▁ijfmu	-14532
▁jkgnv	-14533
▁mnkoc	-14534
gnitive	-14535
vtkgdgp	-14536
▁ejbhop	-14537
▁physic	-14538
▁seemed	-14539
▁sjtjlp	-14540
▁ucwdgt	-14541
ßfjdiofo	-14542
àgkejpgp	-14543
▁british	-14544
▁creates	-14545
▁farmers	-14546
▁genutzt	-14547
▁hfovußu	-14548
▁igpwvàv	-14549
▁klassen	-14550
▁lpotusv	-14551
▁spiritu	-14552
▁station	-14553
▁karriere	-14554
▁nächstes	-14555
▁oådituft	-14556
▁pgwtqpgp	-14557
▁prototyp	-14558
▁pçejuvgu	-14559
▁hftdiågut	-14560
▁konferenz	-14561
▁tgrtçugpv	-14562
▁tremendous	-14563
▁bghibojtubo	-14564
▁fsnøhmjdifo	-14565
▁hcpvcuvkuej	-14566
▁entwicklungsl	-14567
▁fouxjdlmvohtm	-14568
],	-14569
keg	-14570
xim	-14571
▁dm	-14572
dluf	-14573
lfis	-14574
pagn	-14575
▁50%	-14576
▁lpt	-14577
▁mgp	-14578
fjgkv	-14579
jcwug	-14580
krieg	-14581
stadt	-14582
swers	-14583
▁bous	-14584
▁jqnà	-14585
▁mitg	-14586
▁naja	-14587
▁obkb	-14588
▁oåif	-14589
▁pclc	-14590
▁pçjg	-14591
▁urāt	-14592
▁bewer	-14593
▁cfxfs	-14594
▁cheap	-14595
▁masse	-14596
▁oqvqt	-14597
▁phase	-14598
▁tupmß	-14599
▁uvqnà	-14600
▁vqfgu	-14601
▁xgtmg	-14602
drücken	-14603
kukgtgp	-14604
schrift	-14605
▁ansatz	-14606
▁botbuß	-14607
▁cpucvà	-14608
▁jtsbfm	-14609
▁origin	-14610
▁sfjtfo	-14611
▁tgkugp	-14612
▁wjtjpo	-14613
▁xkukqp	-14614
njojtufs	-14615
▁answers	-14616
▁foreign	-14617
▁igykuug	-14618
ejnfotjpo	-14619
▁benötigt	-14620
▁controll	-14621
▁magazine	-14622
▁fsgpstdifo	-14623
▁gthqtuejgp	-14624
▁irgendwann	-14625
▁jshfoexboo	-14626
▁ktigpfycpp	-14627
▁ucwgtuvqhh	-14628
▁vgorgtcvwt	-14629
▁hoffentlich	-14630
▁ipggfoumjdi	-14631
▁jqhhgpvnkej	-14632
▁xjsutdibgut	-14633
▁gesellschaften	-14634
▁hftfmmtdibgufo	-14635
▁igugnnuejchvgp	-14636
iw	-14637
iat	-14638
▁ci	-14639
▁gk	-14640
cbio	-14641
hqtf	-14642
iest	-14643
▁nfs	-14644
▁uçw	-14645
▁wow	-14646
bruch	-14647
gthgp	-14648
icles	-14649
istry	-14650
krebs	-14651
kuugt	-14652
▁ipmß	-14653
▁nähe	-14654
▁stuf	-14655
▁tens	-14656
hcnngp	-14657
▁agree	-14658
▁cwuvt	-14659
▁distr	-14660
▁giant	-14661
▁haiti	-14662
▁múpki	-14663
▁npups	-14664
▁xktwu	-14665
osystem	-14666
▁bienen	-14667
▁fernse	-14668
▁fkcipq	-14669
▁hgtpug	-14670
▁highly	-14671
▁kompon	-14672
▁vgttqt	-14673
▁weltwe	-14674
▁wunsch	-14675
▁xvotdi	-14676
▁improve	-14677
▁lånqgfo	-14678
▁mçorhgp	-14679
▁mcttkgtg	-14680
▁partners	-14681
▁erforschen	-14682
▁politische	-14683
▁qpmjujtdif	-14684
▁rqnkvkuejg	-14685
▁überzeugen	-14686
▁ýcfsßfvhfo	-14687
▁aufgenommen	-14688
▁bvghfopnnfo	-14689
▁cwhigpqoogp	-14690
▁institution	-14691
▁investieren	-14692
▁jowftujfsfo	-14693
▁kpvgnnkigpà	-14694
▁kpxguvkgtgp	-14695
my	-14696
bsb	-14697
igf	-14698
kmv	-14699
ume	-14700
wpo	-14701
yer	-14702
gere	-14703
gust	-14704
ipmu	-14705
kfgp	-14706
leun	-14707
mfvo	-14708
ngwp	-14709
wohn	-14710
▁vgz	-14711
house	-14712
idung	-14713
setzt	-14714
ätsel	-14715
▁feld	-14716
▁geme	-14717
▁habt	-14718
▁holz	-14719
▁ibcu	-14720
▁jcdv	-14721
▁tqýs	-14722
fußufo	-14723
▁calls	-14724
▁count	-14725
▁dgtwh	-14726
▁fragt	-14727
▁gsbhu	-14728
▁htciv	-14729
▁ojhfs	-14730
▁paris	-14731
▁pkigt	-14732
▁prize	-14733
▁prost	-14734
▁roten	-14735
▁shoot	-14736
▁spufo	-14737
▁tqvgp	-14738
▁belohn	-14739
▁boston	-14740
▁broken	-14741
▁cjuufo	-14742
▁corner	-14743
▁dgnqjp	-14744
▁dkvvgp	-14745
▁qbttfo	-14746
▁rcuugp	-14747
▁target	-14748
▁verwir	-14749
jfsfoefo	-14750
▁kämpfen	-14751
▁urkgign	-14752
cnkukgtgp	-14753
fkogpukqp	-14754
▁minister	-14755
▁studying	-14756
▁benötigen	-14757
▁cfoøujhfo	-14758
▁dgpúvkigp	-14759
▁präsident	-14760
▁rtçukfgpv	-14761
▁ausbildung	-14762
▁universums	-14763
▁vojwfstvnt	-14764
▁wpkxgtuwou	-14765
▁communicate	-14766
▁neighborhood	-14767
ceed	-14768
deut	-14769
hsøà	-14770
istr	-14771
jfmm	-14772
sfoß	-14773
▁kit	-14774
▁pgi	-14775
▁sku	-14776
dient	-14777
hqnig	-14778
pgvgp	-14779
sbhfo	-14780
tuýdl	-14781
▁flor	-14782
▁gain	-14783
▁ifss	-14784
▁ille	-14785
▁ivoe	-14786
▁jkij	-14787
▁stri	-14788
▁ußod	-14789
dkgtgp	-14790
uejnci	-14791
vkiwpi	-14792
▁1,000	-14793
▁displ	-14794
▁enter	-14795
▁ezobn	-14796
▁fßpco	-14797
istisch	-14798
▁cfsýin	-14799
▁dkgpgp	-14800
▁mqpvkp	-14801
▁polize	-14802
▁switch	-14803
▁window	-14804
▁ywpuej	-14805
lptztufn	-14806
zwischen	-14807
àykuejgp	-14808
øiomjdif	-14809
▁cjmetdi	-14810
▁helping	-14811
▁njuhmjf	-14812
▁okvinkg	-14813
▁rncuvkm	-14814
▁cfoøujhu	-14815
▁dgpúvkiv	-14816
▁wahrnehm	-14817
▁xbisofin	-14818
▁ycjtpgjo	-14819
▁ecosystem	-14820
▁bvtcjmevoh	-14821
▁letztendlich	-14822
▁mfußufoemjdi	-14823
▁ngvàvgpfnkej	-14824
▁infrastruktur	-14825
▁jogsbtusvluvs	-14826
].	-14827
nv	-14828
dcu	-14829
dgy	-14830
eje	-14831
ida	-14832
ouv	-14833
bggf	-14834
gpàg	-14835
qrgt	-14836
talk	-14837
unqu	-14838
ßjfm	-14839
▁bub	-14840
▁bul	-14841
▁cpp	-14842
▁gun	-14843
▁hnw	-14844
▁nfm	-14845
▁por	-14846
künft	-14847
uvāem	-14848
▁bran	-14849
▁cwhy	-14850
▁nahr	-14851
▁trop	-14852
▁uboß	-14853
gpstdi	-14854
itwrrg	-14855
ovohfo	-14856
▁cbtjt	-14857
▁dying	-14858
▁kenne	-14859
▁lfoof	-14860
▁mgppg	-14861
▁rough	-14862
▁uøufo	-14863
▁visit	-14864
▁vkvgn	-14865
▁church	-14866
▁drehen	-14867
▁esfifo	-14868
▁fellow	-14869
▁ftgjgp	-14870
▁gtpçjt	-14871
▁meilen	-14872
▁nfjmfo	-14873
▁notion	-14874
▁ogkngp	-14875
▁reduce	-14876
▁risiko	-14877
▁uejnci	-14878
ßxjtdifo	-14879
▁choices	-14880
▁frequen	-14881
▁gefangen	-14882
▁gewonnen	-14883
▁hfgbohfo	-14884
▁hfxpoofo	-14885
▁ighcpigp	-14886
▁igyqppgp	-14887
▁lbssjfsf	-14888
▁wiederum	-14889
▁xjfefsvn	-14890
▁ykgfgtwo	-14891
bmjtjfsvoh	-14892
▁dqvuejchv	-14893
▁ernsthaft	-14894
▁verhaltens	-14895
▁vollkommen	-14896
▁wpmmlpnnfo	-14897
▁xqnnmqoogp	-14898
▁klimawandel	-14899
▁lmjnbxboefm	-14900
▁responsibility	-14901
-1	-14902
ai	-14903
kan	-14904
knf	-14905
bers	-14906
cest	-14907
ejhf	-14908
hfsf	-14909
iate	-14910
ugtx	-14911
xgtn	-14912
▁bum	-14913
▁eqp	-14914
▁gla	-14915
▁shr	-14916
▁spl	-14917
▁uvn	-14918
▁ølp	-14919
anced	-14920
conne	-14921
itete	-14922
itguu	-14923
▁bjet	-14924
▁ckfu	-14925
▁gbdf	-14926
▁hceg	-14927
▁mātà	-14928
▁spot	-14929
fjufuf	-14930
mebufo	-14931
modell	-14932
▁bvtus	-14933
▁fgvck	-14934
▁hbcfo	-14935
▁ibmuf	-14936
▁icdgp	-14937
▁töten	-14938
▁vúvgp	-14939
urkgngt	-14940
▁easily	-14941
▁linken	-14942
▁lpotvn	-14943
▁mjolfo	-14944
▁nearly	-14945
▁nkpmgp	-14946
▁ufssps	-14947
▁dennoch	-14948
▁despite	-14949
▁efoopdi	-14950
▁fgppqej	-14951
▁gewicht	-14952
▁noticed	-14953
▁streets	-14954
▁unsicht	-14955
▁uåhmjdi	-14956
▁votjdiu	-14957
▁wpukejv	-14958
▁eingesch	-14959
▁àwtāemàw	-14960
▁reagieren	-14961
▁sfbhjfsfo	-14962
▁tgcikgtgp	-14963
▁medikament	-14964
▁phenomenon	-14965
▁imagination	-14966
▁politischen	-14967
▁qpmjujtdifo	-14968
▁rqnkvkuejgp	-14969
▁significant	-14970
▁organizations	-14971
jgn	-14972
ovo	-14973
qwt	-14974
▁ly	-14975
▁ol	-14976
▁zo	-14977
sftt	-14978
wide	-14979
▁amb	-14980
▁dib	-14981
▁tff	-14982
aters	-14983
btufs	-14984
heben	-14985
jgdgp	-14986
mögen	-14987
nbàfo	-14988
ocágp	-14989
oúigp	-14990
scher	-14991
ucher	-14992
çpigt	-14993
▁bvtx	-14994
▁csju	-14995
▁dtkv	-14996
▁libr	-14997
▁ngkf	-14998
▁prep	-14999
▁sfev	-15000
▁vast	-15001
▁wein	-15002
izität	-15003
owvvgt	-15004
ugndgp	-15005
▁gaben	-15006
▁mchhg	-15007
▁schlä	-15008
▁úmquß	-15009
usjfcfo	-15010
▁charge	-15011
▁foutqs	-15012
▁gpvurt	-15013
▁mwpfgp	-15014
▁reisen	-15015
▁begriff	-15016
▁buchstä	-15017
▁capture	-15018
▁cfhsjgg	-15019
▁cvdituå	-15020
▁dwejuvç	-15021
▁fashion	-15022
▁igykejv	-15023
▁gemeinde	-15024
▁hfnfjoef	-15025
▁igogkpfg	-15026
▁programs	-15027
▁ökosystem	-15028
mjdifsxfjtf	-15029
▁colleagues	-15030
▁ādgtàgwigp	-15031
▁lpnnvojlbujpo	-15032
pā	-15033
don	-15034
▁gä	-15035
cokp	-15036
eler	-15037
ipqt	-15038
jmmf	-15039
kpiw	-15040
kxgp	-15041
mýdl	-15042
qnkv	-15043
tell	-15044
▁cpo	-15045
▁fel	-15046
▁gsp	-15047
▁hgk	-15048
▁sem	-15049
▁tpx	-15050
▁xbm	-15051
▁xpm	-15052
based	-15053
folfo	-15054
fsufo	-15055
hkuej	-15056
jcpfn	-15057
ogpvg	-15058
rvkqp	-15059
schte	-15060
ýimfo	-15061
▁cspu	-15062
▁iraq	-15063
▁jktp	-15064
▁mfje	-15065
▁pfle	-15066
▁qgmf	-15067
riffen	-15068
stehen	-15069
usagen	-15070
▁accor	-15071
▁davor	-15072
▁ebwps	-15073
▁expon	-15074
▁fcxqt	-15075
▁gsbol	-15076
▁newsp	-15077
▁stein	-15078
▁tpmdi	-15079
▁uqnej	-15080
▁uvctd	-15081
▁ancest	-15082
▁effort	-15083
▁klingt	-15084
▁lvoefo	-15085
▁mnkpiv	-15086
▁spaces	-15087
▁werfen	-15088
▁xfsgfo	-15089
▁ygthgp	-15090
▁ökonom	-15091
▁ølpopn	-15092
▁úmqpqo	-15093
ensystem	-15094
zeichnen	-15095
▁derzeit	-15096
▁diskuss	-15097
▁efsßfju	-15098
▁ejtlvtt	-15099
▁figured	-15100
▁fkumwuu	-15101
▁planets	-15102
▁turning	-15103
▁bvghbcfo	-15104
▁cwhicdgp	-15105
▁electric	-15106
▁fjohftdi	-15107
▁vielfalt	-15108
▁wjfmgbmu	-15109
▁xkgnhcnv	-15110
▁ølptztufn	-15111
▁cwudknfwpi	-15112
▁beschäftigt	-15113
▁cftdiågujhu	-15114
▁dguejçhvkiv	-15115
▁wpmmtuåoejh	-15116
▁opportunities	-15117
.'	-15118
hkn	-15119
nun	-15120
ota	-15121
▁wj	-15122
cppl	-15123
dqqm	-15124
eden	-15125
fttf	-15126
jdif	-15127
jmfo	-15128
star	-15129
▁10.	-15130
▁17.	-15131
▁err	-15132
▁ljs	-15133
▁mkt	-15134
▁ogn	-15135
▁qps	-15136
▁rad	-15137
▁saß	-15138
▁scu	-15139
▁tbà	-15140
▁ucá	-15141
▁ufy	-15142
cmvgp	-15143
ibmut	-15144
jmjfo	-15145
kpigt	-15146
macht	-15147
uvcfv	-15148
▁dial	-15149
▁eure	-15150
▁fach	-15151
▁gbdi	-15152
▁graf	-15153
▁grat	-15154
▁hcej	-15155
▁jwpi	-15156
▁oānn	-15157
▁tank	-15158
▁tubv	-15159
▁ugpu	-15160
▁uqnf	-15161
▁usfj	-15162
booufo	-15163
bvsjfs	-15164
gebaut	-15165
▁brenn	-15166
▁cfesp	-15167
▁cloud	-15168
▁crash	-15169
▁dreht	-15170
▁esfiu	-15171
▁ftgjv	-15172
▁wphfm	-15173
ierungs	-15174
uvcpfgp	-15175
▁female	-15176
▁french	-15177
▁lmjohu	-15178
▁steckt	-15179
▁stimul	-15180
▁uejygk	-15181
▁àwmāph	-15182
▁dagegen	-15183
▁ebhfhfo	-15184
▁fcigigp	-15185
▁moments	-15186
▁stecken	-15187
▁stopped	-15188
▁tufdlfo	-15189
▁uvgemgp	-15190
▁zukünft	-15191
▁ßvlýogu	-15192
▁aufgaben	-15193
▁ghhgmvkx	-15194
▁stellten	-15195
▁tufmmufo	-15196
▁uvgnnvgp	-15197
▁diversity	-15198
▁particles	-15199
▁tfmctuwfs	-15200
▁interessanter	-15201
▁›	-15202
hmt	-15203
kal	-15204
qfm	-15205
dcpm	-15206
idet	-15207
itzt	-15208
kxgt	-15209
othe	-15210
pher	-15211
popn	-15212
qpqo	-15213
qtiv	-15214
reci	-15215
▁ipo	-15216
▁row	-15217
▁zut	-15218
ejohu	-15219
ließt	-15220
losen	-15221
mjfàu	-15222
vvgtp	-15223
▁bvgx	-15224
▁card	-15225
▁cwht	-15226
▁hgnf	-15227
▁ktcm	-15228
▁spür	-15229
▁feels	-15230
▁kpvso	-15231
▁lqwtp	-15232
▁recyc	-15233
▁soldi	-15234
▁ungew	-15235
▁xqtcp	-15236
bmjtnvt	-15237
▁cjfofo	-15238
▁esphfo	-15239
▁ftqigp	-15240
▁selber	-15241
▁strand	-15242
▁tfmcfs	-15243
▁ugndgt	-15244
▁obdicbs	-15245
▁pcejdct	-15246
▁sekunde	-15247
▁tflvoef	-15248
▁uejchhv	-15249
▁ugmwpfg	-15250
▁großteil	-15251
▁itqávgkn	-15252
▁pāvànkej	-15253
▁verkauft	-15254
▁wfslbvgu	-15255
▁xgtmcwhv	-15256
▁efficient	-15257
▁sozusagen	-15258
▁tpßvtbhfo	-15259
▁uqàwucigp	-15260
▁natürliche	-15261
▁obuýsmjdif	-15262
▁pcvātnkejg	-15263
▁sauerstoff	-15264
▁bedingungen	-15265
▁cfejohvohfo	-15266
▁dgfkpiwpigp	-15267
60	-15268
iý	-15269
can	-15270
gog	-15271
ibn	-15272
jou	-15273
von	-15274
xcp	-15275
▁qz	-15276
cbol	-15277
cule	-15278
iber	-15279
izen	-15280
ndct	-15281
utfm	-15282
vgzv	-15283
åufo	-15284
▁350	-15285
▁cnd	-15286
▁mos	-15287
▁nås	-15288
▁pip	-15289
ßmjdi	-15290
▁brot	-15291
▁dcpf	-15292
▁irak	-15293
▁rare	-15294
▁rncv	-15295
▁tfot	-15296
dollar	-15297
mutter	-15298
vnfouf	-15299
▁disor	-15300
▁dpmmf	-15301
▁oppos	-15302
▁surge	-15303
▁trend	-15304
▁usjdl	-15305
▁vohfx	-15306
▁vtkem	-15307
cbslfju	-15308
swgpàgp	-15309
▁brings	-15310
▁expert	-15311
▁nfubqi	-15312
▁passed	-15313
▁sexual	-15314
▁wpscfs	-15315
▁xqtdgt	-15316
qtuejwpi	-15317
▁contain	-15318
▁ftkvvgn	-15319
▁knowing	-15320
▁vorbere	-15321
▁fstufmmfo	-15322
▁gtuvgnngp	-15323
▁voufsofinfs	-15324
▁voufstdijfemjdi	-15325
kat	-15326
rew	-15327
usp	-15328
utt	-15329
▁pú	-15330
ania	-15331
bnjo	-15332
dgtv	-15333
iety	-15334
load	-15335
ählt	-15336
▁gfj	-15337
▁gfm	-15338
▁lqp	-15339
▁rqt	-15340
▁ugg	-15341
ibvtf	-15342
knkgp	-15343
ussen	-15344
zusch	-15345
ßfmmf	-15346
▁2001	-15347
▁budd	-15348
▁halb	-15349
▁itúu	-15350
▁meas	-15351
▁neug	-15352
▁reve	-15353
▁rtqv	-15354
rtqdng	-15355
uejtçp	-15356
wogpvg	-15357
▁babys	-15358
▁jcnvg	-15359
▁joufo	-15360
▁noise	-15361
▁obama	-15362
▁ocuug	-15363
▁phant	-15364
▁änder	-15365
▁kunden	-15366
▁kurzem	-15367
▁lautet	-15368
▁lvsßfn	-15369
▁mbvufu	-15370
▁mwtàgo	-15371
▁ncwvgv	-15372
▁talent	-15373
▁ändert	-15374
▁åoefsu	-15375
▁çpfgtv	-15376
ierenden	-15377
▁manipul	-15378
▁missing	-15379
▁recover	-15380
▁seltsam	-15381
▁bezahlen	-15382
▁cfßbimfo	-15383
▁deutlich	-15384
▁dgàcjngp	-15385
▁efvumjdi	-15386
▁gewissen	-15387
▁hfxjttfo	-15388
▁igykuugp	-15389
▁joufswjf	-15390
▁kpvgtxkg	-15391
▁discovery	-15392
▁entwerfen	-15393
▁erstellen	-15394
▁fouxfsgfo	-15395
▁gpvygthgp	-15396
▁interface	-15397
▁landscape	-15398
▁management	-15399
▁tbvfstupgg	-15400
▁differently	-15401
▁unternehmer	-15402
▁cvdituåcmjdi	-15403
▁herausgefunden	-15404
▁ifsbvthfgvoefo	-15405
▁jgtcwuighwpfgp	-15406
▁möglicherweise	-15407
▁nøhmjdifsxfjtf	-15408
▁oúinkejgtygkug	-15409
3,	-15410
jā	-15411
py	-15412
uå	-15413
▁‹	-15414
hfe	-15415
jfe	-15416
mbe	-15417
bnis	-15418
emvg	-15419
hfso	-15420
kgáv	-15421
psju	-15422
rtql	-15423
rupt	-15424
çjnv	-15425
▁epn	-15426
▁htq	-15427
▁obi	-15428
▁unf	-15429
difso	-15430
gpmgp	-15431
uejcw	-15432
xfsuf	-15433
çvugn	-15434
▁gefo	-15435
[...]
